#version: 0.2
Ġ d
o n
e r
' '
Ġ c
Ġ s
a n
i n
e l
a l
e n
t o
Ġ p
r e
r i
l a
Ġd i
t i
t a
t e
r a
= =
e s
l i
Ġd el
u n
a r
o r
Ġ n
i l
Ġ m
Ġ 1
Ġ in
i a
r o
Ġ f
Ġ ''
l e
i on
Ġ a
Ġ S
Ġ ==
Ġ C
i c
o l
h e
i s
i o
o m
o s
Ġ un
Ġ (
Ġ la
Ġ al
Ġ v
Ġ M
Ġ 2
Ġ il
Ġc on
Ġ g
z ion
Ġ t
Ġ L
e t
Ġ P
Ġ A
q u
Ġ l
a m
a s
al e
Ġs u
Ġp er
d o
Ġ B
i t
Ġn el
Ġ I
c o
c i
c a
Ġ G
m a
Ġ T
a t
Ġ1 9
zion e
Ġ R
e d
u s
Ġ D
Ġc he
Ġ N
s i
Ġdel la
t er
Ġd e
Ġ ri
g li
0 0
c h
Ġ qu
Ġ F
an o
v a
en te
Ġd a
'' '
l o
Ġc om
z a
p o
Ġ b
Ã ł
s o
g g
Ġ an
al i
Ġ o
d i
n i
e m
Ġp ro
n o
on o
Ġ *
t u
i m
Ġ re
Ġ le
d a
p p
t to
c e
Ġ'' '
u r
er a
Ġun a
Ġ es
Ġs i
n a
Ġ V
Ġd al
re s
0 1
er e
c c
en ti
e g
Ġ E
v e
ic a
en t
ol o
in a
r an
Ġs ta
u m
Ã ²
c he
s a
Ġ== =
u i
d e
Ġ H
ri a
e c
b b
v o
1 9
er i
v i
Ġm a
m o
f f
Ġt ra
in e
Ġp ar
p a
v er
u l
'' ,
en to
in o
t ra
ion e
ĠL a
Ġp o
s e
Ġde i
Ġ2 00
g o
Ġ J
Ġ2 01
Ġ 3
Ġp i
ĠI l
h a
u t
Ġd o
t an
n e
Ġdel l
Ġ e
t ro
in g
h i
er o
Ġ K
Ġ W
in i
Ġp ri
Ġal la
a d
Ġ O
t ri
Ġs o
i r
on e
b i
u o
p i
Ġ te
z za
Ġc a
to ri
Ġ U
Ġn on
) ,
ĠA l
Ġs c
z z
Ġ ra
t en
Ġcom e
Ã ¹
g a
r u
it Ãł
Ġv i
Ġg i
zion i
ic o
ch i
en e
Ġdel le
m ente
u e
an i
Ġnel la
an do
ĠI n
m i
b re
an d
Ġ "
to re
t re
Ġs p
gg io
ic i
a ri
ĠN el
Ġdi s
c ia
il e
Ġf u
Ġ ed
Ã ©
an a
Ġpi Ã¹
Ġ 4
Ġsu o
Ġs ono
en za
z i
Ġ ha
Ġa d
t Ãł
Ġp res
Ġre g
a to
g ra
t ta
â Ģ
Ġsu l
gg i
an te
Ġ1 8
Ġc os
es e
a c
Ġp os
i gli
Ġc or
Ġp re
Ġl o
p er
u ra
Ġan che
et ti
Ġ19 9
Ġ ar
en ta
a re
Ġal l
t ti
ĠA n
o d
i g
ol le
Ġqu es
Ġf or
u to
ar d
t r
Ġcom p
or o
Ġg li
el lo
s s
on a
Ġn e
Ġpar te
to r
or d
Ġs ec
Ġn o
Ġ li
Ġ im
Ġv en
is ta
on i
ĠM a
an ti
Ġsu a
ĠL e
p ri
Ã ¬
f ica
el la
m an
s ti
Ġt er
ta to
Ġ 5
u g
es s
v en
et to
Ġd ue
b er
Ġdal la
Ġ 6
ĠM ar
z ia
ĠC a
Ġ u
Ġp u
) .
on do
Ġg en
te s
g am
Ġri s
ĠS an
el e
v is
Ġc ui
Ġs eg
z o
Ġm o
Ġ era
Ġa v
Ġ* ''
en d
Ġpri ma
eri e
am p
Ġ r
p or
Ġin ter
on da
d u
i li
es so
ĠC h
b o
en do
g e
Ġan ni
Ġs e
a ti
Ġes ter
Ġc ol
am ente
el li
bb li
tu ra
ti co
Ġ19 8
es i
p e
Ġ Q
Ġ ti
2 00
os i
et te
Ġ ro
Ġc o
olle gam
z e
Ġ1 5
ri o
Ġde gli
el l
ri s
an no
g i
z io
Ġv ol
Ġester ni
ti ca
ollegam enti
om e
ĠP a
er s
ĠN o
Ġa i
Ġsta to
gra f
t on
u d
Ġes s
ĠC on
en a
Ġ( ''
Ġa m
Ġ1 0
m e
c on
p re
in ale
al l
p po
in ci
Ġdo po
la s
ĠG i
et ta
el a
o c
t al
Ġc as
m ento
Ġreg ia
Ġa pp
Ġp a
r on
il m
Ġg io
Ġc hi
ra t
v ano
Ġ1 7
2 01
Ġa t
Ġo f
to ria
ta ti
Ġ 0
Ġ 7
ion i
an e
p era
b a
f or
la re
Ġm ar
Ġ1 2
Ġpro g
ĠQ u
Ġ19 7
ĠF ran
it ali
bi li
Ġ1 6
ĠR e
Ġt ut
u ro
i d
s ta
Ġ Y
ĠA r
ri g
Ġp r
Ġc an
b ile
u ta
Ġn a
'' .
Ġ* *
en o
ĠC o
c un
ĠR o
v ia
er ra
em bre
as s
Ġn uo
u a
Ġess ere
Ġp or
gli o
at ti
Ġcom un
es t
al a
v ol
f er
Ġ1 4
Ġ itali
et Ãł
ĠC ar
Ġm ol
t h
ĠC om
I I
ed e
es si
c k
Ġs tes
Ġc it
Ġ1 3
Ġpu bbli
ĠD i
ta r
Ġs erie
T he
l u
Ġsu cc
al mente
es a
ĠD o
âĢ ĵ
ca to
Ġt ro
Ġtra s
Ġvi ene
Ġal le
Ġl oro
Ġs em
Ġcon tro
qu ad
zion ale
Ġ== ==
zz o
Ġb as
on d
or g
Ġ Z
1 8
graf ia
Ġ 8
Ġ19 6
Ġ X
Ġc i
is o
ta re
Ġ h
Ġnel l
ui to
Ġa cc
ĠN a
os to
is ti
ed i
ĠC ollegamenti
Ġcon s
Ġf a
pa g
us e
Ġ1 1
ĠD a
Ġ :
qu e
Ġm on
Ġ to
Ġte m
ic he
si d
ic h
bb e
ul ti
ur ante
es co
Ġg ran
t in
an g
Ġg ra
Ġper s
Ġdo ve
a g
ĠN e
Ġma ggio
i b
Ġa ss
Ġv er
ti on
19 9
en s
Ġc am
Ġt he
es ti
gli a
ĠS o
ar ti
ent re
g ione
olo g
Ġf ilm
Ġpri mo
Ġ2 5
ĠL o
Ġ 9
ĠM on
L a
amp ion
m er
tal ia
Ġ el
c or
Ġ er
Ġal cun
Ġne i
v an
d io
Ġun o
an to
ol tre
u ti
== =
Ġ2 0
us a
Ġdi re
Ġpar ti
te go
'' )
Ġc ar
Ġa ff
Ġgi or
e ci
ĠJ o
el le
Ġven ne
Ġp un
o t
ĠR om
ĠP i
Ġques to
g ni
is s
Ġf e
Ġcit tÃł
ĠP er
in is
Ġg u
Ġa s
ĠD e
ĠU ni
ĠT ra
2 0
Ġc h
Ġpo i
c ri
Ġin i
tan te
tego ria
Ã ¨
ĠS a
Ġprog etti
igli a
Ġf am
li o
Ġnel le
k e
Ġdal l
Ġn um
u re
Ġm or
Ġsul la
ĠP ro
il l
Ġpr inci
Ġt re
ĠB o
pp a
Ġm entre
to lo
Ġl u
Ġ tor
ĠR a
ĠS i
as sa
ĠNo te
Ġ19 5
Ġc ir
es sa
is te
et ro
un g
en ze
v in
at to
Ġa ve
Ġin f
es ta
Ġso tto
Ġfor ma
Ġs ette
Ġim p
c io
cc ia
ĠG io
Ġ ta
ĠP o
k i
Ġpro pri
k a
ch ia
Ġ19 4
Ġs olo
ĠM o
ĠL u
A l
ru ppo
igli o
al o
Ġsta ta
Ġs tu
gg ia
I l
2 5
v il
Ġn ome
Ġb at
Ġqu ale
ti tu
p h
Ġm us
Ġa g
Ġf ino
1 0
1 5
ra to
Ġs os
r y
Ġ os
ĠCa tegoria
Ġm e
Ġsp eci
ic e
Ġal tri
ti vo
Ġo tto
Ġc ent
ver s
Ġde c
Ġsuo i
Ġin c
Ġstes so
Ġan d
a y
m on
m p
ĠAl tri
1 7
Ġdel lo
00 0
a b
Ġs quad
i e
in ter
k o
h o
ĠS e
ĠC as
ti li
Ġpo li
en n
Ġd es
Ġo rig
Ġa c
co ra
19 8
u ri
Ġm ili
Ġsec ondo
Ġsec olo
m ma
Ġcon c
Ġs ia
Ġda i
Ġqu ali
ali zza
m bre
s on
Ġc re
las si
Ġc al
Ġd urante
an za
Ġprinci p
v al
Ġsta gione
om o
Ġm ed
Ġri c
ĠT o
Ġc er
u tto
Ġ k
Ġh anno
Ġ us
1 6
ĠU n
Ġdi ff
Ġm an
Ġqu ando
ter e
f i
ta ta
Ġdi ver
v amente
Ġdi c
Ġs er
al itÃł
Ġsette mbre
Ġs co
ĠC or
Ġcon f
is i
pp e
ĠB er
Ã ¡
ĠP ar
im ento
p u
tto re
os a
an ta
ĠS u
t te
1 1
Ġf ra
b um
Ġno v
Ġseg uito
Ġsucc essi
tori o
Ġv o
Ġ19 3
Ġqu in
ĠM il
Ġm at
Ġcor r
i an
h n
om ina
Ġf inale
t ru
t un
d er
Ġv in
c ci
em e
Ġsc ri
Ġv ia
Ġ3 0
na io
" ,
1 2
Ġe p
ĠL i
g h
Ġmar zo
Ġ2 2
ug no
tri b
A n
Ġave va
Ġtro va
Ġmol to
ĠG u
r en
Ġf ine
Ġvol ta
Ġgen naio
ti va
Ġra pp
Ġm as
ĠV i
am ento
os e
po li
Ġf ur
Ġ ent
Ġer ano
1 4
Ġ2 4
si eme
Ġsc on
Ġpos to
. .
ĠI talia
am b
Ġin s
f ic
du zione
g ono
ch Ã©
ĠB ar
N o
c ed
Ġ2 3
o ci
ar ono
Ġotto bre
ĠS ta
Ġdic embre
Ġsec onda
ĠT he
Ġques ta
pri le
ĠH a
ma to
r ale
bb ra
Ġm od
1 3
ĠT e
Ġch ia
ĠRom a
Ġed i
Ġnov embre
Ġtem po
r ono
Ġgi ugno
Ġgen er
19 7
a ra
Ġlu glio
'' '''
Ġg ruppo
ff ici
Ġfur ono
Ġter m
Ġgu erra
Ġ z
d re
Ġso p
ri ca
'' ),
il la
ari o
Ġu tili
g io
Ġso ci
s t
Ġin d
Ġli b
Ġ2 6
Ġsu per
ĠE n
er va
em b
Ġes p
lassi fica
Ġc ri
bbra io
ĠDo po
m enti
Ġf ran
eg na
ta g
l us
em p
gli e
Ġf in
ĠR eg
ĠT V
Ġvi ta
Ġris p
Ġfe bbraio
I n
Ġpu Ã²
Ġdis p
vi d
ĠT or
Ġitali ano
ĠP re
la ri
is ce
Ġcorr ela
Ġqu ella
Ġs tra
Ġo t
Ġcos Ã¬
ar o
s ia
Ġgran de
Ġl un
ĠP ri
19 6
Ġparte ci
Ġ'' '''
tu re
el o
os o
ĠS te
ĠR i
g ia
Ġ2 1
on na
er ia
zz i
Ġcorrela te
Ġtut ti
an n
ĠV al
Ġa prile
ent ale
Ġv ari
Ġp ic
ĠF or
g n
l and
Ġa tti
" .
Ġag osto
u zione
b ra
Ġalcun i
io re
Ġre c
Ġg o
Ġin g
Ġ âĢ
Ġper io
Ġan cora
t s
Ġs al
c olo
ter i
Ġa bb
Ġa ver
' s
ampion ato
ĠI I
ar si
Ġfam iglia
Ġ +
c co
es to
g u
os ta
m in
Ġca p
es se
ĠS tati
Ġqu ello
Ġ201 0
Ġt ur
as e
b e
Ġal lo
Ġs tr
g no
zi e
'' ''
Ġquin di
ĠA d
Ġ -
t ino
Ġdi v
Ġcir ca
v itÃł
ch io
Ġpro p
Ġre s
for ma
Ġ2 8
ar do
ĠT h
ĠFran c
Ġne gli
Ġm et
Ġpar tico
a ta
im o
Ġs in
Ġ2 7
Ġp assa
ĠJo hn
ĠE s
c chi
) ''
Ġ ru
Ġ201 1
Ġo pera
ĠG ran
m et
ri co
u p
5 0
Ġsem pre
Ġ201 2
an da
ti che
Ġ200 9
Â °
ĠMil ano
Ġdal le
Ġ200 8
e o
Ġ201 3
ĠV er
at tro
Ġs or
Ġpres so
Ġlo c
Ġv it
Ġti tolo
ĠC hi
ĠH o
Ġsu e
ri era
Ġra ggi
Ġin di
Ġal tre
en si
u la
ĠB e
Ġ19 2
i de
ĠGio van
Ġt ele
vil u
Ġ is
Ġf o
os ci
ĠM an
ĠNe w
Ġ200 7
Ġpro f
el i
ggi or
Ġm ondo
Ġo cc
âĢ Ļ
on g
Ġs enza
f o
Ġ or
at ura
No te
Ġini zi
f ini
a u
ci ta
i to
Ġnuo vo
is t
ed ia
Ġar ti
Ġca rat
li a
Ġsquad ra
Ġ201 4
Ġs tori
ber t
u c
al la
Ġpos s
ĠW il
in d
Ġan no
ĠG o
i re
Ġfran c
Ġv ers
Ġ200 6
A r
in s
as i
ĠC ol
ĠMa ria
ti ci
on om
Ġt utto
Ġc in
Ġri p
Ġs iste
Ġver so
m os
Ġnum ero
Ġot ten
ine a
Ġpos i
ib lio
Ġperio do
Ġcas a
Ġ201 5
ta mente
Ġ2 9
3 0
ra zione
Ġcon tra
C ollegamenti
l y
ri e
Ġ200 0
uro pe
Ġs toria
Ġc olle
u b
ĠG er
Ġpo po
Ġs vilu
Ġter ri
vis i
Ã Ń
c n
p ere
Ġla vo
c ca
um e
lu b
Ġpers ona
is e
Ġr el
Ġf er
et er
ar t
Ġre alizza
Ġ oltre
d es
Ġser vi
l es
Ġim por
Ġo gni
Ġs im
Ġcomun e
Ġcon tin
Ġques ti
Ġs pa
l er
Ġla s
Ġca usa
Ġ200 5
r ano
on te
il o
Ġpos si
Ġgio ca
ĠA m
Ġ201 6
Ġs a
w n
Ġf ar
Ġra cc
Ġutili zza
ig h
us t
Ġle gg
pp ia
ĠO r
ĠS al
bili tÃł
tor no
t ale
ac k
Ġchi esa
Ġsta ti
Ġinter pre
Ġqu attro
ĠS ch
b it
Ġmor te
Ġpre ced
Ġsu d
Ġf atto
19 5
Ġa gli
ĠS h
ĠS p
en de
Ġgi Ãł
at ri
Ġpubbli ca
li ca
ĠB a
Ġri v
j a
Ġper Ã²
Ġf i
Ġs it
Ġf rat
Ġtut ta
do tto
ĠGiovan ni
Ġu ffici
Ġdi p
pag na
Ġdi ven
Ġmus ic
Ġat tra
ti c
Ġgener ale
Ã ³
Ġmo do
ic k
t ter
Ġv ic
Ġ org
Ġl ui
igli or
Ġp ad
ra re
Ġe ff
an s
Ġd u
ĠA s
Ġgio v
an t
ĠUni ti
en se
ĠM e
Ġes emp
Ġrapp res
Ġ201 7
res s
Ġmon di
Ġf un
Ġs ti
Ġar ri
Ġte cn
Ġ200 1
or k
Ġpropri o
Ġk m
tun it
al lo
ĠG ra
Ġ200 4
ĠG re
v ere
Ġin sieme
ma ta
Ġtra tta
s si
Ġsta tunit
Ġpres enta
or to
inis tra
ĠNel la
Â »
E A
Ġqu anto
L e
es te
b ur
Ġgo ver
ve ce
am o
f ici
Ġcos titu
Ġs ol
in c
bi to
ten za
t ali
Ġris ul
ĠF u
is mo
ĠD al
t t
vis ione
ci to
Ã ¼
Â «
Ġl ing
ulti mo
od io
en i
Ġtur no
Ġcon sid
ĠS erie
ĠR os
Ġcomp le
Ġv a
it y
. ,
Ġ w
co la
ra ta
Ġ #
Ġp ia
n er
olog ia
Ġm os
2 3
p x
Ġcon te
m io
Ġcos tr
g er
ĠF o
Ġin vece
ĠS ec
b le
co li
Ġt ri
io grafia
ĠD is
Ġf os
tan za
tan ti
at ta
Ġpri mi
ĠM i
as c
zion ali
ĠI S
w ard
Ġs t
y s
ĠC os
en da
Ġ200 2
Ġri m
et t
4 0
le y
Ġbas e
ter o
a zione
Ġ'' ''''
on ia
2 2
Ġ200 3
ĠH e
Ġc ul
at h
Ġc ampionato
is odio
ĠB iblio
Ġcom m
ti ve
Ġdo v
ĠF er
at te
is to
ĠT er
u li
Ġra ga
ĠE d
ĠC la
Ġc lassifica
ĠP al
ber to
pu bbli
vin cia
as si
Ġr in
Ġ201 8
ver so
Ġcor so
U n
Ġcent ro
Ġla v
Ġf iglio
Ġsiste ma
ĠG e
pa ce
i ta
Ã ¶
I N
da to
ĠS c
Ġseg u
Ġs ca
us o
Ġ Â«
2 1
ĠG li
Ġf onda
sid ente
em o
ĠC am
I talia
iss ione
p li
f it
ti vi
ĠT a
m ar
la zione
v ento
b ia
Ġna zionale
Ġin oltre
ra s
uo go
n ia
ĠE l
B N
tru zione
qu i
Ġf re
ĠAl l
Ġpro c
2 4
Ġ1 00
na ta
Ġf ac
y a
it h
Ġd ed
Ġpad re
ĠIn ter
un d
Ġsucc esso
Ġm ani
s to
Ġpubbli cato
en er
Ġapp ar
inter no
ĠCo ppa
Ġlun go
Ġcas o
ne o
Ġ'' (
Ġs ci
Ġnum er
Ġ199 9
Ġli v
ĠS er
Ġalcun e
ĠC an
tu to
c ono
Ġm in
ĠAn ton
Ġso li
Ġm emb
ĠT i
2 6
ĠY o
esco vo
Ġpartico lare
m ina
u te
o pera
Ġqu al
Ġa u
Ġnuo va
ĠG ia
ĠV oci
âĢ Ŀ
on ti
Ġm is
g ine
osi zione
Ġcom b
2 7
ra m
''' ,
Ġac qu
ri c
tu ale
Ġde fini
2 8
ĠIS BN
Ġri ce
p ar
un a
ĠSan ta
us s
ĠB en
Ġb en
at ur
ro s
ĠN on
d ia
ĠI s
Ġin con
Ġ ec
tri ce
Ġmondi ale
Ġmol ti
Ġfranc ese
al le
k er
g hi
Ġspeci e
Ġitali ana
om b
Ġs vol
Ġini zia
Ġconsid era
t ano
Ġvers ione
Ġb ri
Ġru olo
ol d
t ello
Ġvi de
l in
Ġf is
Ġing l
Ġe x
Ġtele visi
ĠAn g
cc io
Ġ ;
Ġparteci pa
er ic
ut ta
Ġ* '''
ĠM or
ĠX V
eg n
f a
ĠM ad
Ġri con
b il
Ġdiv enta
Ġstu dio
ĠC i
an ia
ĠF a
ĠCom p
Ġal bum
Ġ19 0
la y
f e
al li
al d
at ch
re bbe
ĠFran cia
vers itÃł
ĠM ic
ĠP ari
Ġma ggior
os c
vo le
un o
Ġinter na
tu r
Ġ3 1
ĠCar lo
ĠS quad
iso di
ir one
Ġan n
Ġt en
io ri
3 3
un to
Ġper chÃ©
Ġinf atti
ĠG a
II I
t y
eg u
Ġl inea
Ġf em
ta d
6 0
8 0
iso la
2 9
Ġro m
l d
t le
e ta
19 4
ĠBiblio grafia
Ġf uo
vi e
t Ã²
Ġri us
im e
li e
ĠB ri
f eri
Ġ i
gra mma
Ġm iglio
Ġs ede
ed er
tag on
pi eg
va ta
ion ale
ĠFranc esco
k y
t ina
Ġ et
3 5
ĠJ e
ĠB u
ter ia
Ġcar riera
Ġterm ine
Ġdi f
) ;
om ini
Ġvol te
Ġterri torio
cci d
Ġprincip ale
Ġpun to
Ġorg ani
Ġel et
Ġav ven
Ġpi ano
Ġp es
Ġdiver si
Ġsp esso
ala zzo
Ġ '
Ġ ord
Ġn ord
ver sa
n ero
Ġ um
at ro
l an
Ġven gono
pp i
la to
Ġtut te
ti to
re a
Ġro s
la r
am a
Ġs are
Ġsoci etÃł
Ġ id
Ġpro duzione
tre tto
k s
Ġgra zie
Ġc ura
un i
va to
r Ãł
ĠY ork
Ġcan z
Ġposs ono
ran i
ĠH ar
o p
Ġstatunit ense
Ġmaggio re
ĠE di
Ġcol la
as so
ĠâĢ ľ
Ġesemp io
tan do
use ppe
a v
Ġstr ut
Ġd en
Ġ em
Ġ199 8
Ġe urope
Ġn omina
Ġgior no
ĠM ed
Ġlav oro
Ġb ar
da ta
Ġa uto
Ġsul le
ĠS toria
ess ione
Ġstes sa
Ġle tter
Ġdire tto
Ġscon fit
f t
p on
Ġm om
e ti
po ca
pubbli ca
ĠJ a
c ol
ulti ma
Ġ18 9
Ġtra di
Ġ201 9
man ia
g na
ĠS pace
ĠB ro
as ti
Ġcontro l
s h
EA R
Ġdo c
Ġbat ta
mer ica
Ġca po
ta zione
ra ti
ĠD u
ac qu
Ġep isodi
ĠA le
ĠN or
ĠL IN
Ġdi ri
Ġcam po
Ġma i
Ġling ua
Ġ3 4
Ġpro vincia
ĠM c
tu tto
3 7
Ġs f
ch er
ĠLIN EAR
am e
3 4
Ġro man
Ġg ui
ĠAn dre
Ġda gli
ĠU na
Ġric er
Ġpor ta
us to
ĠNa zionale
Ġo pere
uro pa
os tante
bb ero
Ġn as
Ġsit ua
3 6
S A
Ġm er
on ne
Ġsp os
Ġam m
ĠPri ma
3 8
zza to
li am
res so
ĠM us
res e
cia to
Ġa bit
3 9
Ġo v
ar di
Ġdiff er
c ce
is tra
ĠAn d
Ġa tta
ri sti
Ġpro tagon
Ġvo ce
ĠK a
w a
Ġt ale
Ġdis co
Ġ5 0
Ġti po
uo la
Ġcon ten
pp io
Ġm i
Ġsul l
Ġle g
Ġsop ra
Ġa ggi
Ġorig inale
Ġp en
Ġpo co
Ġnel lo
ĠI II
an ni
h am
ta ri
ing olo
Ġcor po
ĠP e
Ġb ian
ĠB r
Ġrappres enta
on ale
Ġep isodio
ina to
Ġpun ti
y n
in t
Ġc olo
ĠT om
ĠChi esa
ust ria
v io
Ġri cor
Ġattra verso
rat tutto
as t
ro m
Ġn or
Ġded ica
Ġc at
ĠD urante
ĠSo ci
Ġb u
an na
u pa
Ġ199 7
tan n
Ġpers one
ĠGi useppe
fic io
ĠV ene
is a
7 0
ĠC at
Ġri ti
ĠI tali
Ġmas si
al bum
Ġo pp
ĠF ir
Ġs et
Ġsu i
re d
un ta
te m
Ġdiver se
do tta
w atch
Ġliv ello
zi ale
Ġc amp
ĠP arti
Ġingl ese
ar te
Ġqu asi
ar g
tan a
Ġcon di
Ġd om
Ġdiven ne
ch es
Ġrisp etto
e p
Ġal tro
Ġposi zione
Ġind ica
ĠS im
n al
4 5
ĠT ri
ĠReg no
Ġ ele
Ġc ro
Ġde ci
Ġsos titu
Ġo ggi
ĠF i
Ġparti re
ĠPa olo
ĠSpace watch
Ġz ona
Ġcap it
Ġcom pag
ui gi
g en
Ġe bbe
end ere
Ġ199 6
Ä į
ĠC al
Ġn ec
ĠS t
Ġsquad re
igh t
Ġm al
Ġservi zio
Ġ4 0
Ã ¤
ĠWil liam
d em
Ġvit toria
.. .
Ġmet ri
Ġgior ni
Ġgio co
am es
ra g
ĠB iografia
Ġsop rattutto
ĠL ond
ĠC ro
g ioni
Ġdi m
Ġv isi
Ġgen ere
tan to
Ġfor te
u di
d is
er cito
8 8
ĠR ec
Ġpres ente
ĠPi etro
U ni
en so
Ġf ron
Ġgover no
Ġs ingolo
el d
Ġmom ento
Å į
Ġri man
um ento
Ġchi tar
chi te
en zo
ĠAnton io
as ione
Ġ on
Ġb o
Ġp ass
p s
p ro
Ġgra do
Ġre go
la m
Ġpro te
Ġs etti
era zione
ĠS tato
Ġam bi
Ā Ā
ui re
ĠRe pubblica
Ġrel ig
ĠGer mania
Ġqu ar
om a
cor so
ĠE r
Ġb re
l ing
p en
ra ggio
Ġ199 5
ĠP or
Ġl uogo
M a
Ġo ri
ui ta
c ar
s hi
or ld
ĠCh ar
ĠDa vid
w e
Ġtras m
3 1
3 2
Ġbri tann
Ġprog etto
Ġpro gramma
li mp
cri zione
ĠV it
t tura
ĠS tu
4 8
Ġgran di
Ġsc el
ris to
Ġtutta via
ig ura
ini zio
Ġcon qu
um enta
ri to
C h
Ġsu b
ĠSquad ra
v enti
per to
use o
0 9
p ol
or ge
r si
ĠR ic
ha el
Ġm etÃł
Ġpres enza
Ġu cc
Ġdis c
ess and
P ro
7 5
fica to
Ġ199 4
ta te
Ġte des
ĠMon te
Ġabit anti
Ġcir c
Ġan ti
la ss
Ġf igli
las se
d ine
Ġ3 5
re e
ĠTra ma
Ġav rebbe
Å ¡
Ġg ia
Ġven nero
ĠP res
Ġb amb
Ġstu di
Ġcolla bo
Ġb i
Ġ199 2
da ti
p r
ĠP r
Ġ Ã
Ġl an
ĠQu esto
Ġn atur
b y
Ġpreced ente
Ġri vol
ber g
Ġle ga
Ġmili tare
e v
ĠR is
ĠB ra
Ġatti vitÃł
Ġti to
al tra
Ġsare bbe
Ġpro ble
Ġmus ica
l l
Ġbatta glia
b ar
Ġma dre
Ġo ff
Ġ199 3
Ġprop ria
ĠV ol
4 9
us ti
Ġri gu
Ġgiov ane
C ar
Ġmo glie
Ġcin que
Ġfos se
Ġtor neo
Ġparteci p
Ġter zo
ĠS co
ĠM ari
por to
Ġ199 0
Ġg re
Ġl ung
Ġb an
Ġvide o
Ġpopo lazione
Ġ ulti
pi to
Ġpa ese
Ġun i
Ġques t
Ġstra da
O r
ver o
ut h
Ġf il
ent ali
0 6
mi te
Ġpres enti
is tica
ĠM ich
''' :
ĠM er
Ġsp or
ĠP u
0 5
Ġreg istra
o k
Ġques te
Ġcent rale
zza ta
Ġfor m
Ġsta te
ĠCh ampion
ĠD on
w s
F ilm
Ġd eri
Ġfer ro
Ġricer ca
Al tri
4 6
o od
im enti
ĠG ar
ĠNa poli
or do
ed ere
Ġs ar
ĠSec ondo
Ġarti sti
os s
ren de
Ġ199 1
Ġcons erva
Ġle i
Ġm eno
Ġte sta
Ġter ra
Ġte sti
4 7
Ġcomp l
Ġsi gni
ĠM as
ĠL uigi
a cc
ĠW e
5 5
Ġcon ta
Ġre al
is tenza
ich Ã©
um enti
do tti
na to
Ġitali ani
Ġpro dotto
va re
Ġ3 6
Ġfre qu
Ġsti le
em i
Ġbas so
ĠPari gi
ĠCom un
ĠQu esta
ĠSu per
Ġ3 8
c ano
Ġs ac
Ġedi zione
Ġu omini
us tr
Ġappar ten
Ġcit tad
zz e
0 8
Ġ 00
Ġp ra
Ġf iglia
ten do
ĠM at
ag ue
cri tto
is co
ĠTo ur
0 7
Ġ18 6
ĠL eg
da re
Ġt enta
s p
Ġqu elle
Ġm eri
Ġprotagon ista
Ġdire tta
ĠNel l
Ġc ine
ta rio
ĠN i
ĠB or
ard inale
ĠB el
ia s
por t
Ġpossi bile
te d
on s
o la
ĠT re
o v
e poca
er n
ĠA ward
Ġ tar
Ġgior nata
ĠParti to
ampion ati
are a
Ġprincip ali
Ġri torno
l ine
f iche
ne y
Ġcos truzione
Ġc ad
ĠA t
Ġg ara
ic ol
Ġfe ce
Ġri es
Ġpre sidente
bil mente
ĠC amp
em ente
ĠE li
Ġe cc
m pa
Ġav ere
un ti
Ġpro ba
ĠN uo
Ġper m
Ġec onom
Ġri chi
Ġm edi
Ġri fer
es p
Ġse i
ĠTor ino
Ġcal cio
um i
Ġrice v
Ġdis trib
Ġp e
m y
gra fica
Ġcontin u
om i
ri d
Ġqu el
Ġ18 8
Ġd onna
Ġam eric
c er
Ġuffici ale
Ġsem pli
so cia
Ġv el
Ġ4 5
ĠX X
ĠRo bert
0 4
p end
la ta
ĠX I
ĠP os
Ġcom mer
Ġtras fer
Ġp are
Ġsos ten
pp on
Ġra ff
in to
Ġo ra
is ione
ĠF in
Ġci Ã²
Ġpoli tica
al ia
Ġc ele
Ġcarat teri
on y
ĠJ u
V oci
ĠFir enze
ĠT ot
ĠR ich
ĠMic hael
ĠT ur
il le
ĠT r
ĠAl essand
Ġv al
et ra
Ġno te
c Ã¬
u ale
Ġseg re
Ġfo to
ĠW orld
bi ta
ĠF ile
Ġf are
isti che
ĠR us
ĠK o
c itÃł
Ġcanz one
Ġsuccessi vo
9 9
ar s
Ġapp ro
p io
Ġp it
ma g
Ġel em
Ġa tto
m b
Ġstrut tura
ĠC ent
om en
Ġt ran
Ġri por
ĠM od
Ġcon osci
ĠâĢ ł
Ġallo ra
Ġpri me
Ġmusic ale
im p
Ġv alo
ĠLe ague
Ä ģ
ura ta
s u
Ġmili oni
Ġpro du
Ġf ond
0 2
o ff
Ġfrat ello
Ġd ra
0 3
s ero
Ġb rano
ĠO s
Ġv ec
ri ce
5 6
Ġsvilu ppo
ĠO l
Ġs pag
Ġcon fer
d ic
ĠPa ul
ard ia
d ere
Ġm inis
en ne
Ġp p
ĠRec ord
as h
Ġcor to
ven i
ĠAl la
Ġv illa
ĠW al
7 8
Ġ3 2
Ġqu arti
c om
v es
cia tore
li s
5 9
Ġm iglior
Ġp at
Ġmo di
a pp
and osi
l ino
Ġ198 9
esti val
Ġent ram
Ġda ta
eri ale
d y
Ġmos tra
Ġpersona ggio
mon io
Uni versitÃł
isti tu
4 4
ug h
u el
Ġfa vo
Ġm ano
v imento
Ġqu elli
ens ioni
Ġri f
Ġs an
Ġ om
5 8
Ġ en
Ġreg ione
M ar
Ġc lub
Ġsu pp
Ġos pi
D o
sti che
edi zione
Ġf ase
Ġpubbli co
L o
ci Ã²
Ã³ n
f ia
Ġave vano
ĠM os
Ġc res
ĠB i
Ġso v
Ġar g
) :
et h
Ġvin c
Ġcarat ter
res a
Ġracc ol
Ġchitar ra
Ġda to
Ġrel ati
Ġsc uola
Ġg esti
im i
Ġm esi
Ġsta zione
s erva
âĢĵ âĢĵ
u omo
Ġin v
per ta
Ġfi ume
go lare
Ġlib ro
ĠMar co
Ġau tori
Ġin forma
ĠS il
ĠK e
er Ãł
) '''
c Ã²
ma zione
ĠD an
d ici
v ile
Ġmod er
Ġmed ia
ĠM al
Ġre sta
Ġti p
Ġav uto
ĠN ord
Ġsc ene
d ente
on n
ĠInter na
m oni
p ia
ĠP ol
Ġm ino
ĠB re
er re
ĠS am
tori e
ĠD el
ĠB la
ĠMar c
Ġto tale
v el
7 6
Ġ198 8
Ġnomina to
r Ã²
v ic
Ġv escovo
al ista
ĠPre mio
ma ti
Ġvi ol
ĠV ic
ina ta
c ra
ĠR oc
Ġfuo ri
ĠI V
co le
vis o
in ali
am enti
Ġraggi ung
Ġsi to
ĠJ ames
Ġde mo
ĠS ul
Ġr ela
gg etto
al tro
ĠC lub
Ġs ic
f on
Ġconqu ista
Ġvari e
Ġ j
Ġaff er
Ġman ten
Ġr us
ĠLond ra
Ġros so
Ġmol te
p osto
a te
ga ta
p it
Ġg irone
ed uto
Ġstori co
Ġreal tÃł
Ġde ve
w ay
org io
T ra
Ġt ru
is si
ina ri
. ''
Ġma c
as ta
C o
Ġin ten
D e
Ġforma zione
ena tore
es tro
ĠSan t
ĠD em
ĠH er
Ġimpor tante
m eno
uo re
Ġscri tto
Ġsu bito
te zza
vo li
ĠAle x
ĠM ac
ĠAn che
Ä ĩ
Ġrelig io
Ġ198 7
ĠJe an
Ġte d
ĠQu ando
Ġf ir
min ile
Ġb ra
b all
et tu
a i
Ġcon d
Ġo tti
Ġabb and
ĠF ili
om as
Ġcomun que
Ġ3 3
Ġted esco
es o
eg o
ig n
Ġt r
ĠS ur
ĠT erra
ĠF ilm
Ġa ere
ĠS ud
Ġp ari
5 7
Ġinterna zionale
ĠS ha
ĠB as
Ġin fer
Ġin tro
ĠT utta
ĠD ani
== ==
Ã¡ n
R o
ar da
ĠJ ack
Ġ3 9
Ġlavo ri
Ġsuccessi vamente
an zia
ĠC olle
Ġd est
m ent
Ġtor na
Ġn em
cc he
mo re
4 2
si glio
A T
Ġp al
Ġqu ad
Ġtelevisi va
ĠC ome
Ġden omina
ĠTot ale
Ġsta bili
Ġri tro
ĠA g
Ġ198 0
en ce
Ġfor ze
Ġ ide
an ze
Ġd ol
200 9
ĠGi u
e x
Ġmemb ri
ĠSte f
ĠVene zia
Ġimpor tanti
ĠD io
200 8
ĠD es
201 0
200 7
ĠAng el
Ġpo tere
ĠR u
Ġven i
Ġb and
ĠM ario
f ico
Ġpro v
ĠM ol
Ġc lasse
Ġcontrol lo
ĠB ur
Ġs tan
Ġorig ine
201 1
ca ti
Ġfron te
200 6
Ġnumer osi
ra te
Ġquali fica
it to
gg e
ĠF ri
Ġn i
ĠE uropa
vi zz
ente mente
in n
Ġmas ch
b al
ĠN ico
7 9
or ta
Ġso la
4 3
ĠTutta via
Ġv ista
ra c
Ġna zionali
Ġ198 6
t el
Ġdi mos
S toria
t us
Ġocc upa
Ġal to
ab ri
ĠUni vers
gg etti
Ġca rica
Ġd eter
g he
ĠW ar
Ġ# ''
es ter
Ġlegg e
. )
Ġtra mite
ter iore
era to
4 1
Ġ istitu
vis ion
Ġ198 5
Ġroman zo
ĠL ib
as se
f ord
200 5
am i
er si
201 2
Ġcomp eti
Ġsvilu pp
ina re
un ge
u x
s ione
Ġracc on
Ġgia ppon
Ġcam bia
ĠGe orge
Ġricon osci
t ing
sti ca
Ġcorto met
ur re
s te
ĠH en
ca ta
Ġfor za
Ã¨ s
5 3
Ġde b
m enta
Ġproc esso
Ġno ta
Ġid enti
k u
ĠL or
ca re
Ġsuper iore
Ġs om
ens ione
b an
e i
is cono
Ġt al
9 0
ĠJ on
po le
eg no
it tÃł
va ti
Ġre ti
ina rio
Ġs pi
os ti
) ==
mo zione
c an
uo le
Ġ3 7
v Ã²
ĠIn f
P a
Ġli ber
ĠC lassifica
Q u
Ġ198 4
un se
un cia
c y
Ġ ir
ent ina
in f
ĠTe am
Ġte o
ĠT em
ĠP ia
un que
ĠS m
Ġs inistra
Ġfem minile
Ġries ce
ran d
es ercito
Ġlas cia
R e
vi du
te si
ga re
Ġno to
Ġes c
pp one
ĠGi orgio
ĠV o
Ġv on
Ġ15 0
Ġnec essa
ĠYo u
Ġ ur
v ali
G i
Ġchia mato
Ġeff etti
ĠP an
Ġo re
ru ppi
Ġsuper fici
201 3
f rica
6 6
j i
Ġno ti
on imo
Ġel im
Ġpro veni
ĠF eder
ĠS pagna
c u
ĠLo u
ĠB al
c ento
Ġd in
Ġter za
Ġinterpre tato
tu almente
Ġeff ettu
ĠG ro
Ġmani f
ve y
ĠIn oltre
Ġc m
ĠU SA
ĠP ic
Ġ Å
Ġdi chia
ter ra
ma i
Ġcons egu
Ġamm inistra
Ġloc ale
ĠE x
Ġvel oc
5 4
S S
Ġvin to
Ġe gli
Ġcortomet raggio
l os
Ġim m
Ġpic colo
c ente
Ġpassa to
Ġ198 3
ĠP h
Ġcas tello
ĠL an
ati on
Ġmed a
N e
ĠRich ard
Ġparti te
ĠM ess
Ġm m
ver si
Ġlung he
Ġcan tante
tor y
id d
Ġsigni fica
Ã §
m ine
olog na
5 2
Ġpoli tico
Ġass egna
Ġc lass
y o
a ch
re di
v ista
L i
l or
ĠA li
en zia
Ġ198 2
5 1
t one
Ġorgani zza
Ġbre ve
Ġli mi
gi e
Ġgiov ani
or ti
Ġdiri tto
Ġcon trib
zz ur
Ġqu o
b io
or n
m ana
ma te
ing s
ĠV an
d in
er to
A merica
pe ci
us ione
Ġri co
Ġd er
Ġc atto
Ġp ilo
Ġsegu ente
200 4
Ġo ccid
S an
b us
Ġes eg
Ġdal lo
ma re
d al
es imo
7 7
Ġd onne
ĠE le
Ġva ria
Ġsp etta
D i
Ġt anto
enn is
os te
arg ento
Ġcom pi
ĠChampion shi
Ġ198 1
ĠP eter
Ġqual che
Ġc ic
Ġulti mi
acqu a
Ġ4 6
Ġmemb ro
Ġma re
an y
ĠH ol
Ġcomun i
ĠT ro
ĠRecord s
ut ti
ĠO pen
n Ã²
Ġla r
ent Ã²
Ġna vi
ĠV illa
gli ere
Ġpropri etÃł
Ġ6 0
Ġ" ''
all eria
p olo
Ġ4 8
Ġ8 8
Ġdes tra
Ġparti ta
ĠC ha
C on
ci p
ĠA b
Ġs ess
ol f
ris p
ĠK ar
Ġ197 9
Ġb ene
h an
Ġtras feri
Ġas p
Ġta ppa
Ġpo te
Ġcon osc
Ġdo ppia
9 8
Ġqu i
pera tore
201 4
at er
bo li
ĠBer n
as o
di ta
vi ene
ĠCh ris
Ġre tro
Ġproba bilmente
el s
Ġferro via
te ca
ĠS ig
ĠB an
Ġpi ani
ĠP la
200 3
Ġcol lo
v anti
ta zioni
Ġal ta
ĠM el
ĠMar tin
200 0
C a
eri to
Ġpo ichÃ©
Ġpersona ggi
Ġvic ino
Ġd etta
Ġre te
ĠE m
y d
ress ione
Ġno tte
ĠMus ic
Ġun itÃł
ent ino
or s
ĠS tra
ven do
Ġcommer ci
m en
Ġinf ine
r Ã©
n on
ent ano
Ġg ruppi
a ria
ti s
vol uzione
Ġconf ron
9 6
Ġa bi
ga to
l ina
Ġlu ce
'' :
Ġcal ciatore
or di
ni e
Ġraga zza
ti ene
c ro
tu ro
en na
ĠGi an
Ġmat ri
is la
Ġme zzo
Ġcomp on
ĠAndre a
Ġaff ron
Ġacc om
Ġ usa
Ġ** *
on di
en zi
ĠF lo
ĠCom m
Ġla to
Ġ197 8
Ġs enti
Ġas sieme
Ġsc ena
Ġca pp
in io
Ġutilizza to
ĠAlessand ro
ĠDi re
pa ra
Ġsar Ãł
z u
lus i
Ġmo tore
Ġpa ra
Ġtru ppe
Ġpre c
Ġocc asione
Ġtem pi
man n
g an
Ġnuo vi
Ġ197 0
Ġan im
u ato
v ono
Ġtri b
201 5
Ġdeci de
Ġma g
es ia
ĠF estival
Ġv et
ĠB ologna
atti vitÃł
Ġass ol
Ġci vile
v ed
Ġmod ello
bur go
Ġnuo vamente
Ġ197 6
Ġindi vidu
Ġmassi ma
ĠGia ppone
ud io
ĠC ity
Ġos serva
u le
Ġa ttore
ĠG ri
uc le
o le
Ġca pi
por ane
Ġfa ccia
ĠP alazzo
ing ton
t z
ĠA ir
Ġgui da
a k
Ġsem i
bb ia
Ġcolo re
ci ano
Ġin te
per tura
w er
Ġpo t
Ġnon ostante
v era
y l
Ġpo ter
Ġl ine
ĠS ici
Ġc io
ĠB ill
Ġpa pa
200 2
Ġal ter
Ġg ol
ĠF erra
Ġte sto
Ġdi oc
s ter
in vol
Ġreg ista
ĠC es
Ġ ul
Ġsp er
u do
ĠTem po
atte d
b ro
Ġv e
Ġs tre
ĠC ana
Ġ197 5
Ġspa zio
Ġinizi Ã²
Ġ197 7
C om
tag na
ĠS in
os sa
sti tu
ĠM y
ĠR ad
Ġn ess
ĠG eno
vil le
Ġcom ando
ĠUni to
J o
Ġdire ttore
Ġes t
m ia
Ġri fi
Ġd etto
ron zo
Ġv isto
Ġm emo
o cc
ĠGio chi
ĠTh omas
ĠL os
Ġcomp rende
Ġm ese
200 1
Ġpo chi
en ni
Ġgioca tore
Â» .
Ġim pieg
go li
ĠG ruppo
Ġin tito
Ġt u
ĠG ui
Ġnumer ose
Ã ±
ĠRis ul
O N
ĠC re
ers on
res si
ĠA c
Ġa ut
Ġpic cola
Ġcomun itÃł
Ġin ca
Ġloc alitÃł
ĠFran co
Ġp alazzo
ar ra
ĠA merica
onom ia
Ġreg no
ĠS anti
Ġelet tri
Ġsconfit ta
Ġcomb at
ĠS ono
Ġdisp oni
do va
lu enza
ĠS to
ui ti
ĠG al
Ġsc om
ul l
Ġ197 4
ĠFran k
ĠV inc
B o
for te
F ran
om et
ĠChar les
pon sa
un ica
Ġproble mi
cc an
ĠP at
ĠGran de
201 6
si li
ĠC er
Ġfil oso
c chia
ĠM useo
al to
8 6
1 00
Ġf ed
Ġca ccia
ĠDa ta
Ġsegu enti
ĠF e
ĠJ ose
u ma
as to
Ġ4 2
dem ia
Ġveloc itÃł
Ġp ur
ĠF re
R a
ko v
tem po
o re
as a
Ġca pa
ĠEn rico
il li
Ġca tegoria
ĠB os
Ġbat teria
us ta
Ġnatur ale
h ia
Ġn ero
Ġc li
Ã «
Ġat trib
A s
tion al
Ġcon vin
mar Ã¨s
ches tra
Ġnuo ve
Ġdes cri
P o
Ġpres e
oc ra
ĠM iglior
Ġdra mma
ĠS tar
Ġmeri d
Ġsem bra
Ġra dio
at ure
va te
es ca
ĠC D
b u
Ġ20 20
Ġ197 2
i ro
is se
ĠV ir
ran do
Ġmasch ile
mer ic
Ġ197 3
for m
er mo
graf ico
Ġmo vimento
Ġs chi
ho w
Ġu omo
Ġpro s
etro poli
u de
T h
Ġri ten
res t
E n
9 7
d ica
Ġelem enti
Ġcontra tto
im enta
Ġam ici
Ġdire zione
Ġpar ro
ĠM in
Ġpia zza
Ġric os
Ġlun ga
ĠA pp
Ġ196 8
ĠRo berto
Ġv ede
Ġlavo ra
ist ente
ĠP as
Ġmili tari
is h
Ġco invol
Ġis pi
Ġdim ensioni
Ġda ti
Ġco ppia
Ġcor te
Ġv an
Ġdisp uta
ac que
Ġcul tura
Ġsim ile
Ġs enso
as cia
lar mente
n y
Ġvalo re
Ġ( "
mp ero
Ġri tor
ff a
ĠRo y
Ġ196 0
'' ).
ent ri
ri ch
Ġf an
Ġ Ð
il d
an ce
Ġfavo re
us tri
ĠUnivers ity
ĠM assi
ĠMar k
Ġsuperfici e
Ġg are
and er
Ġf igura
ĠL em
c ando
ĠE urope
7 2
ĠPo li
ĠA ss
ca zione
ĠLo ve
Ġdimos tra
on ica
7 1
an ne
Ġst ella
8 9
ĠP orto
u f
Ġcomple tamente
vi de
ĠS ci
Ġfun zione
Ġar chite
r one
Ġp ol
c ere
Ġcapit ale
Ġsitua ta
ĠC ampionato
ĠAl cun
7 4
amo re
Ġsos p
Ġcomp osto
R i
ĠDem ocra
Ġpro dotti
Ġcos a
Ġentram bi
ĀĀ ĀĀ
199 9
ul la
on ato
Ġ197 1
T A
Ġ4 4
ĠTe atro
F A
201 7
ĠS tan
ĠI r
Ġpossi bilitÃł
P i
Ġov vero
ina zione
Ġa gg
ĠB ru
ic amente
Ġpor to
ĠC ir
Ġte atro
ero porto
ĠPar te
Ġparti to
an z
P re
tu ali
en ato
it rice
e a
Ġna ve
Ġtro vano
eri ta
ĠC ri
ggia to
ĠL in
ation al
p le
ad er
e va
j o
Ġm essa
Ġprof ess
Ġf ini
ris se
ĠC up
Ġ4 9
Ġ196 7
Ġo limp
ĠSur vey
tan ta
it ti
Ġ196 9
Ġdeter mina
Ġinizi almente
it er
Ġf anta
S tati
re to
ĠStef ano
so le
Ġgiappon ese
ĠItali ana
7 3
ĠC ittÃł
ur s
bb ene
ĠD ar
ga zione
Ġrim ase
Ġdoc umenta
F or
n ale
os si
t ini
od ice
d en
Ġ ono
es tre
inci tore
Ġp la
w ood
ĠM inis
ia m
pi e
ĠTi tolo
Ġrifer imento
s ec
Ġcri sti
b in
Ġp s
Ġcio Ã¨
Ġsud di
Ġpo tre
Ġloc ali
ĠAn na
Ġchia mata
s ch
C A
Ġrisul tato
Ġrapp orto
iss ioni
in di
o ra
Ġs ed
Ġrealizza to
Ġsta tu
ĠW est
Ġincon tra
ĠR ed
ĠMon di
tr ut
6 8
ĠJ os
Ġal meno
Ġbian co
om in
Ġrela zione
ĠR it
E l
Ġn ucle
gh il
ĠG es
Ġma rito
Ġmor Ã¬
ĠV I
bur g
Ġcas i
ci v
Ġsitua zione
Ġgi ro
ĠGia c
Ġconsidera to
Ġsit uato
ĠNuo va
r eno
ĠT ar
Ġfranc esi
r end
Ġaff i
Ġim mag
ghil terra
Ġp lay
ĠP atri
Ġin torno
Ġl on
is sa
Ġmer cato
Ġres ponsa
Ġmatri monio
ĠB at
u ch
y e
v ar
" )
zi enda
Ġb lo
Ġri le
Ġsco po
Ġs Ã©
Ġcan di
ĠV en
ĠO li
Ġrius cÃ¬
Ġdioc esi
Ġor mai
m ano
Ġsi gno
ion ali
d on
Ġin n
o ri
Ġ4 1
Ġdec ise
ĠLe on
ĠR od
- -
u k
199 8
pa re
ĠNe gli
ĠE mi
Ġte ma
Ġra pi
9 5
Ġdi visione
p ed
Ġqu anti
Ġterri tori
Ġde cora
i ra
ord ine
am bi
cor r
Ġotten ere
ĠAl berto
s c
Ġmat ch
Ġsoci ale
8 5
it z
d enti
Ġfra zione
Ġcer ca
Ġs ale
6 5
anti ca
Ġcapa citÃł
Ġpre mio
Ġpro d
Ġstatunit ensi
ch ina
Ġ196 6
Ġforma to
Ġes sa
Ġpers onale
Ġapp ena
fica zione
ĠRus sia
Ġpro m
Ġr uo
Ġtra tto
olog ico
tion s
Ġtecn ica
Ġme to
b ri
Ä «
and ante
Ġriv ista
201 8
r us
Ġde p
''' .
S o
Ġquar to
Ġapp are
Ð °
Ġcollabo razione
eg a
ĠA i
Ġp ron
utto sto
Ġcomun ica
ã ģ
vizz era
Ġe vid
r in
Ġvia ggio
Ġn os
Ġmiglio re
Ġpr ende
Ġre p
di e
ĠC le
Ġat trice
ĠA ug
ĠO n
Ġre sid
O S
ĠNon ostante
Ġpers on
T o
Ġinfer iore
Å «
'' ;
us se
e k
Ġcine ma
ĠC ardinale
r ali
Ġdif esa
Ġleg isla
zz Ã²
Ġpro va
Ġspeci ale
Ġtras forma
ĠU l
t oni
Ġconte m
zz ando
ĠG ener
il lo
ĠMa g
Ġf rom
era ta
t elli
Ġsci enti
Ġ 01
Ġdi vis
199 7
Ġfuo co
Ġprincip almente
N a
ustr alia
Ġun ico
ĠG old
tto ri
k in
ĠB on
la mento
c as
Ġnas cita
ĠV a
tar ono
Ġlunghe zza
ĠComp any
Ġ4 3
Ġm assa
ĠG en
Ġcor risp
Ġess endo
ina ti
S e
ĠRe ti
ĠMich ele
Ġes ten
Ġcri tica
Ġitali ane
y m
ĠNe i
ĠG eo
Ġ196 4
ĠFili ppo
Ġbamb ini
P ri
Ġri b
199 6
Ġfor ti
Ġpi uttosto
ĠN ome
Ġcondi zioni
Ġdov uto
do re
Ġm ura
ĠSici lia
er ci
Ġv eri
Ġcam pagna
Ġoccid entale
Ġriman e
ett entri
mo grafia
fica ta
ter s
gra m
Ġdo ppio
ĠGeno va
Un ione
a ff
Ġin vi
Ġnon chÃ©
Ġpa esi
end osi
c al
ol la
ĠJ im
Ġ196 5
Ġpreced enti
Ġus ato
Ġcompl esso
Ġfor ni
Ġrom ana
zi almente
Ġca val
B iografia
ĠS ac
zzur ro
ure zza
lu de
Ġs ang
Ġori entale
ĠMa x
t ella
Ġtito lare
Ġat ten
Ġraggiung ere
Ġnor m
all en
Ġv ero
edi ficio
Ġfin anzia
9 2
ĠH am
Ġ7 0
Ġinforma zioni
ĠSan to
Ġac ca
ĠW i
v olo
ĠJ er
ĠP et
or no
n olo
A m
Ġin tra
ff ic
an ese
ĠF ar
atted rale
ĠBla ck
co lare
Ġprinci pe
Ġme ccan
Ġmis ura
Ġuffici ali
Ġfis ica
Ġdi ce
per ti
Ġe qui
Ġre ale
ĠF il
Ġspag no
m s
do ri
Ġgioca tori
Ġ4 7
ver no
Ġpra tica
Ġ( )
6 4
ir l
Ġfun zion
P er
ĠM ur
Ġrisul tati
c ell
G io
i tori
esso re
ĠB ian
ĠCon te
zz ano
ĠF ra
Ġsuccessi vi
ĠC ali
d el
Ġsta mpa
Ġtar di
Ġsc ar
meric an
Ġte at
ĠFeder ico
gg ere
Ġcomp osi
: '''
Ġtradi zione
ĠP ra
Ġpre v
ti le
Ġmerid ionale
Ġmino re
at tuale
ĠS eg
ol and
ĠI ni
Ġindi pend
ec uti
Ġfrat tempo
Ġb ronzo
Ġme glio
Ġ etÃł
E uropa
ĠC I
is tico
Ġv ir
Ġf at
ri re
u lo
sa b
199 5
ĠMa uri
Ġin via
Ġqu alitÃł
as p
Ġcompag nia
ĠSoci etÃł
ar y
ĠP hi
Ġmed io
ĠCana da
s ki
Ġs pieg
i ti
Ġscel ta
c chio
Ġperm ette
Ġas socia
Ġcontin ua
ent ro
ĠR ac
Ġrom ano
Ġtedes ca
pri mo
Ġ onda
ĠB l
S u
Ġn atura
zi ano
Ġst rani
Ġe venti
Ġopp ure
''' )
Ġes tre
on de
or th
Ġ7 5
Ġraccol ta
Ġdis tretto
Ġcaratter istiche
ĠCon siglio
ĠO limp
Ġfac endo
Ġdiretta mente
Ġsuccessi va
Ġotten ne
un e
Ġscene ggia
Ġcos idd
p in
vol ta
ĠC he
ci tato
ĠB ras
ma tica
ona ta
ur t
h r
Ġp onte
Ġ196 3
uo ghi
or re
Ġdiffer enza
Ġso pp
Ġset tore
n ali
Ġpor tato
ta ria
Ġde f
Ġcorrisp ond
et tato
ed a
Ġgior nal
ĠLem mon
en z
ar ca
c ome
Ġinc l
c enza
un t
Ġcat tura
Ġs ino
ri l
ĠDi visione
Ġpic coli
sti co
Ġf lo
ĠO ri
Ġriv el
tra tto
b or
le t
ĠS em
Ġsopra v
Ġdi eci
Ġele zioni
a bb
Ġpres enze
ĠAl le
Ġ196 1
ke y
Ġes so
Ġbat tuto
Ġmeda glia
Ġ196 2
th er
Ġconc ent
9 4
Ġ5 00
Ġar mi
9 3
bi etti
Ġpos ti
Ġar res
gg er
ĠLu ca
ĠAr ti
Ġ8 0
j e
d uto
Ġpres si
bo ra
ic olo
Ġm ina
Ġrius ci
Ġmas chi
ĠC ina
Ġvol on
Ġabb ia
Ġam ico
ĠMad onna
ĠJ an
E s
Ġpi ane
Ġbritann ico
ĠB atti
u ria
Ġapp lica
Ġper corso
Ġcomp osta
Ġderi va
am eric
Ġdis tin
Ġg ar
ĠSa int
Ġfor me
Ġdis tanza
c ic
Ġcor re
Ġlo tta
ĠPa esi
Ã º
M iglior
ent ando
du ce
w ell
Ġmanif esta
199 4
un ico
ris ta
Ġf ian
ĠEdi zioni
Ġpres to
ias cun
Ġgover na
Ġmiglio ri
ĠS and
Ġsetti man
Ġrisp etti
Ġres to
Ġcolle ga
li co
ar ri
6 7
m itÃł
Ġacqu ista
ĠGiac omo
igli e
Ġb rani
Ġann un
Ġsor ella
Ġper met
Ġpoli zia
ĠPr inci
Ġv enti
Ġso ff
Ġus o
Ġscri ttore
ot ball
ĠS pi
ĠP lay
Ġ194 5
Ġre ali
Ġri ca
Ġspos Ã²
Ġan g
Ġmaggio ri
atri ce
E R
Ġp an
Ġveni va
D a
ter iori
ĠPre sidente
ĠSm ith
ĠLe e
Ġes si
Ġpa g
Ġrec ord
Ġtras por
Ġla ure
ĠN ational
Ġotten uto
esta te
Ġfa bb
8 7
ĠChampionshi p
na te
Ġdu ca
M o
A d
p ic
Ġconf li
Ġto ur
Ð ¾
en g
ĠDis trib
Ġsta gioni
ĠM ondo
gli one
Ġ195 8
Ġter re
cca demia
v eg
Ġsi g
Ġse pa
qu a
Ġlib era
ĠInterna tional
Ġ195 9
te ggio
Ġtor re
Ġpro vo
Ġstori ci
ĠT im
enta to
Ġvit torie
sti tuto
ill er
da e
Ġver de
k et
Ġca us
ĠAn no
ra d
Ġm ono
Ġarri va
Ġpen sa
ĠK ing
Ġmat eriale
Ġcon tes
ce zione
ĠN at
Ġdec eduto
S a
201 9
ren i
al s
Ġar che
o rig
Ġdedica to
ide a
ĠLor enzo
er g
B A
Ġs ettentri
Ã© e
f inale
d etta
ĠR am
6 3
Ġz one
Ġcostr uito
r no
tu rale
Ġucc iso
P al
t ono
pu tato
Ġsu pera
Ġf um
6 2
ĠP ress
Ġcomun ale
as tero
Ġdis tru
ĠQ ui
ran no
Ġb or
Ġtrova re
Â» ,
Ġvin ce
ĠD ra
Ġcer to
Ġda vanti
ener gia
Ġcanz oni
Ġsc ul
Ġt el
ĠS hi
risti an
s en
Ġris ol
ul t
Ġp atri
Ġsco pre
Ġaccom pagna
ĠAngel es
Ġrisul ta
ĠItali ano
m Ã²
ÃŃ a
Ġsconfit to
ĠH u
ĠL omb
Ġmin uti
il mente
ĠF la
ar lo
Ġan i
199 3
d ono
ĠV ia
9 1
do v
ĠDo ppio
r ut
er ri
Ġfu turo
Ġcon to
Ġse zione
Ġfonda ta
Ġd et
Ġris al
Ġ194 3
civ escovo
Ġb a
ĠE ra
ĠS ol
Ġpos ta
ona co
Ġp alla
gh t
c endo
Ġfor se
Ġrip ro
ĠCa po
ĠXI X
g re
Ġpopo lare
Ġsta r
Ġov est
zion ato
Ġ195 6
8 4
Ġcon si
Ġconosci uto
ĠD omen
Ġse qu
Ġtro ppo
Ġpartecipa to
Ġcap ol
ĠI m
Ġv is
Ġvi ve
Ġriv ela
Ġcon vo
ĠA tle
pe ti
s tra
Ġ5 2
em ento
I mpero
ĠCa p
on tan
ĠP unti
olog ica
i k
I S
8 2
Ġv olo
ĠSta gione
Ġtito li
N A
or so
eri enza
al isi
Ġil lus
8 3
ura to
ĠAr g
Ġpo ten
l anda
Ġn asc
G u
b ria
Ġcamp ione
Ġraga zzo
Ġpes o
Ġcol onna
Ġ oro
el mo
d ard
Ġ5 5
Ġtra ccia
Ġi po
ĠJose ph
Ġsol dati
Ġpro mozione
am bito
Ġ5 1
Ġpre so
Ġgio cato
Ġel etto
Ġanim ali
con tro
Ġind ustri
ĠAward s
Ġris erva
n ando
ĠC en
Ġstu dia
Ġn eg
y er
ĠBer lino
Ġpubblica ta
ĠXV I
ĠC ra
d or
ĠPar k
Ġdi g
Ġgi ud
Ġpi etra
a zia
6 1
es tra
Ġc iascun
Ġn Ã©
g in
ĠQu esti
6 9
Ġfrat elli
199 2
Ġm issione
ĠU r
Ġesemp lari
ch ino
Ġdiff icol
ĠCent ro
ui te
Ġpi anta
eri es
ter Ãł
Ġdiri tti
for nia
Ġe vi
g or
Ġla ter
Ġpar ole
Ã £
Ġb e
Ġsi ano
Ġf en
Ġcre ato
zza zione
au tore
ol l
ĠPa pa
ĠNico la
A ss
ĠG abri
Ġvit ti
199 0
ĠHen ry
Ġg ua
Ġcam bio
ĠW h
lie vo
Ġpubblica zione
Ġ ero
Ġvilla ggio
ĠLou is
Ġai uta
Ġquarti ere
Ġlas ci
ome o
Ġcomp orta
Ġconfron ti
Or dine
n el
Ġg hia
de fini
ede va
ĠW in
Ġc ampionati
zza re
Ġ194 4
ĠB ell
ĠIn di
ss on
ic s
Ġpassa ggio
Ġdi etro
ĠS tre
Ġtedes chi
Ġdedica ta
Ġc ell
ĠLeg a
ĠBras ile
Ġf anno
ch a
Ġpun tata
Ġl uoghi
ĠGi ro
Ġv alle
Ġse pol
Ġproble ma
arti mento
Ġacc etta
Ġord ine
Ġ195 7
ĠH all
ĠBen ed
im it
ĠAl f
Ġdi rig
ĠP ers
Ġconc l
ĠVal le
ĠOl tre
Ġservi zi
cc essi
uti li
Ã¼ r
eri ali
Ġa ree
ĠGu erra
ĠRa i
Ġtecn iche
8 1
Ġ9 0
it t
b asti
Ġla tino
k ing
Ġm etropoli
ĠPal ermo
Ġfaccia ta
Ġpro mos
ĠRac ing
Ġpilo ta
ĠL oc
ĠL et
Ġo ggetti
Ġline e
Ġa b
ri che
v ando
it ch
Ġcor sa
Ġf al
ĠC in
Ġmemo ria
Ġs fi
po re
ĠUn der
Ġsic urezza
Ġent ra
ol fo
ĠM use
Ġu ccid
ĠS vizzera
g ica
ĠC risto
Ġpre val
tiche tta
ĠDi vision
ĠH is
ina te
Ġcom inci
ba ra
v ale
l om
Ġb lu
f ric
Ġricev uto
ina ria
Ġlib ero
Ġ Ä
e b
c in
Ġan ch
ĠG on
u ck
as on
Ġmal atti
anti co
j p
m ini
ĠSec onda
di te
A C
Ġsetti mana
199 1
ĠSim on
Ġv uole
ing er
Ġd unque
ec k
Ġrappres ent
Ġgi usti
Ġpotre bbe
Ġpor tÃ²
Ġc il
Ġcontem porane
er ta
Ġgre co
Ġlib ri
os so
ter io
Ġg e
enta re
Ġcapit ano
ĠM t
Ġcomb atti
Ġmassi mo
n et
Ġin ci
Ġvin se
s ce
ĠS ve
re bbero
tic amente
Ġcol pi
ĠStu di
Ġcom andante
Ġtesti moni
ĠP io
Ġtem per
a p
eg i
ine ma
in ta
s se
Ġ iso
pi anto
Ġ195 0
ĠJo e
Ġcine mato
Ġpartico larmente
Ġcon tiene
un ici
fica re
Ġma glia
Ġa ustria
ggia re
ep isodio
Ġdifficol tÃł
ĠMar ina
Ġan data
Ġbas sa
Ġdiventa re
ĠS port
ĠSa ra
A S
ĠF ed
Ġmo to
Ġcarat tere
Ġsempli ce
ĠNel le
ĠU E
ĠVit torio
ch o
Ġvisi ta
ĠM entre
Ġtecn ico
Ġt ela
ĠL it
Ġpartecip anti
Ġf asc
Ġcomm edia
ĠAl tre
Ġimm edia
Ġ** ''
ell one
ca te
r d
Ġso vie
Ġ195 5
a zienda
u ali
ĠSal va
Ġvers ioni
Ġstes si
zza ti
esi ma
Ġscri tta
Ġ5 4
in te
us i
Ġdire tti
Ġaff res
es c
ĠF el
vi li
ed io
ĠM is
Ġinter no
ĠM u
Ġ194 0
Ġc lassi
Ġsvilu ppa
Ġs ele
Ġesc lusi
a ug
w are
Ġta sti
to l
fi eld
Ġ ran
Ġcol oni
Ġcostitu ito
Ġeurope o
in Ã²
Ġfond am
Ġau tore
Ġo cchi
Ġcom in
ĠJ uli
ĠDani el
ma gine
t he
198 9
Ġdol lari
ĠR on
ĠT y
Ġcapp ella
Ġda re
im peratore
z er
li p
ĠCh allen
Ġf ondo
C hi
Ġpa ce
Ġpit tore
Ġpo polo
Ġotti ene
k h
Ġpic cole
ĠB ay
ĠR y
Ġr end
! ''
Ġatto rno
hi te
p ale
Ġd esi
ĠX III
Ġs te
EA T
Ġpass Ã²
Ġspag nolo
Ġminis tro
p res
so la
ĠL ig
ar ma
ard ino
N on
Ġb ordo
Ġmor to
vo la
Ġt ali
iss ion
ri ti
ĠGran d
Ġtenta tivo
Ġpre vis
Ġrealizza zione
Ġeurope a
Ġra cco
ĠS w
S h
Ġall enatore
Ġpropri e
Ġpi an
A R
a uto
Ġcompeti zione
Ġro ck
jp g
Ġchi ese
tr Ã²
ĠT ele
Ġal i
ĠB ol
M an
enn io
Ġmusic ali
ĠGe org
ĠB assi
vi Äĩ
ĠPa ese
Ġ5 3
ĠCas a
b at
Ġrigu ard
ĠMess ico
ĠF al
ĠGes Ã¹
ĠMassi mo
ĠK i
ĠMar y
b olo
Car riera
Ġcan ale
Ġmo tori
ce va
ĠB res
ĠRisul tati
Å ¾
lus o
ti di
Ġc u
Ġun d
di to
Ġ5 6
Ġvol ume
Ġconte a
ĠXV III
Ġpo tenza
Ġ==== =
Ġpi edi
Ġk g
em onte
Ġpote va
C or
Ġm en
Ġvec chio
Ġ it
Ġ6 5
Ġsiste mi
ti vamente
Ġin ver
o tto
ĠWilliam s
ĠC ala
Ġp as
c es
A N
Ġri ent
po te
Ġcos ta
Ġat le
ĠPri mo
Ġs cher
Ã£ o
u ca
ĠI t
U na
Ġcar b
ar ch
il y
ĠComun e
Ġini zio
Ġf ig
emb le
Ġvideo gio
Ġ195 4
c ella
ran te
e ff
Ġper c
O C
ĠRos s
k en
c tion
Ġ6 4
ĠS ar
' t
Ġsim ili
Ġn acque
w in
Ġconf ine
Ġpar la
Ġc ardinale
Ġcostr uita
Ġrapp orti
ph y
in al
M ad
e vo
T i
ĠS un
Ġins egn
Ġcre are
ĠEd ward
Ġla go
Ġpro ced
ĠG il
Ġs chia
ffic io
Ġsettentri onale
Ġmani era
ĠT ab
ĠCali fornia
ĠCos tan
ĠM atte
Ġse coli
si de
ĠH ill
Ġv anta
os t
l en
Ġp elli
Ġmon te
Ġcolo ri
Ġorig ini
Ġcos tru
pri re
Ġletter a
Ġimp egna
Ġm ale
Ġgesti one
er no
Ġa dotta
Ġan tico
m it
Ġteo ria
ĠBr uno
Ġpoli tiche
u da
Ġa ra
Ġapp ari
Ġf atti
g itto
Ġpres tito
g r
Ġfanta s
Ġfam iglie
H o
Ġc ur
ĠB us
ĠT ale
Ġrigu arda
Ġ Î
alo go
m ando
ĠGiu lio
Ġgen itori
ici dio
ĠG irone
Ġpar co
ĠC u
Ġter reno
b el
ĠCor po
Ġac que
ĠPa dova
Ã ¢
Ġ193 9
ĠA ustralia
Ġc uore
Ġur b
tr ano
Ġv ali
Ġpiano forte
tu ta
Ġpr end
Ġc odice
ĠGu gli
Ġin aug
f ra
ĠP S
ĠVi ene
Ġsol tanto
Ġent rÃ²
ĠBro wn
Ġle gno
sia si
Ġar tico
g ar
ĠB ir
Ġretro c
Ġutilizza ta
ĠCes are
de o
Ġcond anna
Ġtra cce
T e
Ġb iso
Ġpartecipa zione
v ent
ĠH el
Ġproveni enti
Ġg ro
li ci
i ano
ic al
ang elo
198 8
ĠF I
Ġgi g
Ġpropri eta
er ti
r oni
Ġf ascia
ri fic
ĠCon s
ist ono
Ġso le
198 7
ĠCar ol
ĠS he
ili o
ti l
ĠG all
Ġtorna re
ili ca
Ġst elle
in er
w orth
ĠCh ia
ĠStati stiche
B e
c os
Ġ195 3
Ġs ala
Ġv era
Ġn omi
ra do
Ġv esti
ĠN EAT
Ġsin da
Ġprodu ttore
Ġsotto s
osi to
m ba
u ter
ch en
Ġli sta
Ġb al
etta tori
tr on
Ġsono ra
Ġscom par
Ġn ato
ĠLi ber
Ġedi fici
ci li
Ġv esco
ĠAlcun i
ĠS por
ĠPari s
ti a
Ġa umenta
r al
si mo
Ġmod elli
ens is
Ġlan cia
Ġan dare
Ġre sti
Ġraggi unto
ev ale
ĠD ue
Ġb y
Ġmo tivo
v as
Ġbamb ino
ris mo
m as
Ġpar ola
oni ma
ash ington
S ta
ĠDomen ico
ĠV is
Ġ5 7
ĠV II
Ġre gg
or r
A ccademia
ĠC ur
Ġstori ca
Ġletter atura
Ġconfli tto
g el
Ġ194 8
Ġ194 2
ĠMi ke
b ero
ĠNor th
Ġconosc enza
ĠAd am
iter ran
ĠC e
t Ã©
ĠCa ra
Ġ'' "
Ġqual siasi
Ä ĥ
ĠT u
ra mento
ĠCar riera
ĠRoy al
d atura
Ġsang ue
Ġfo res
re do
g ini
Ð ¸
Ġf alli
Ġocc up
ustr ali
ssi ma
le m
Ġameric ano
arri vo
g ico
ĠN ight
Ġ194 1
Ġqu ell
Ġpro to
ff i
Ġdi ede
Ġ4 00
Ġlegisla tura
ĠS peci
In ter
Ġtras porto
Ġo ggetto
Ġm useo
ĠJon es
k es
Ġuffici almente
Ġg lo
Ġ195 2
ĠO no
Ġle t
Ġch im
Ġraga zzi
Ġcele bra
ri ano
er do
T a
Ġreg ionale
Ġte am
ĠOlimp ia
d enza
Ã ¸
Ġcre azione
ĠPre mi
ĠSu ccessi
Ġcirc onda
Ġfen om
Ġinterna zionali
Ġfor n
Ġrif ug
Ġv ene
ĠW a
Ġri un
ĠG irl
Ġdip end
ĠAt l
inter a
Ġb io
Ġes iste
g ne
5 00
ĠD re
ĠAn n
Ġmino ri
Ġpr endere
Ġf onti
Ġs ali
for me
ÃŃ n
Ġdove va
Ġ5 8
ĠSch o
ĠSta dio
Ġpre sid
defini tivo
ĠBel gio
Ġeurope i
ĠSco tt
Ġcomp re
198 6
D es
Ġt ennis
ssi mo
Ġapparten ente
Ġin da
Ð µ
Ġus ci
Ġstr umenti
ĠXV II
Å Ĥ
ĠO pera
ut Ã²
ĠB lo
ĠD en
Ġcas e
ĠJos Ã©
Ġbu ona
Ġ194 7
v it
Ġcil ind
ĠZ a
Ġgener almente
ĠM en
Ġsco perta
asti a
sec ondo
Ġinf luenza
Ġmoder na
ĠR osa
alizza to
Ġcam pi
ĠM ili
ari e
Ġ 000
Ġabband on
Ġa ggior
ggia ta
ĠCla udio
ĠTra cce
Ġ194 6
âĢĿ ,
Ġg eo
Ġri las
as hi
Ġopera zioni
Ġcan n
Ne w
d endo
versa rio
an di
Ġinter esse
Ġseg no
ĠMos ca
V D
F C
Ġsupp orto
all y
Ġf r
Ġraggi unge
in k
ĠSo uth
ĠR es
Ġprog etta
Ġsta va
ĠAr t
ĠF am
ton io
ta s
li c
tri ci
it ra
ĠY e
Ġedi zioni
Ġpre pa
Ġevi tare
ĠVinc enzo
Ġte ss
ĠBatti sta
land ese
Ġdiff ic
Ġtrasm issione
Ġt rono
Ġn ati
Ġgi ri
ol ini
Ġfian co
Ġri forma
Ġn arra
Ġat tualmente
Ġf esta
Ġcollabo ra
al ismo
ĠS ing
ĠNel lo
olog ici
ĠS lo
Ġdenomina zione
Ġreg ina
ĠT ran
Ġw ith
ĠG lo
Ġconta tto
Ġcompon enti
ar co
n am
Ġcos tretto
ica go
Ġquanti tÃł
Ġpassa re
Ġ195 1
Ġattra versa
Ġcon os
ĠSuccessi vamente
ĠÃ ī
am ma
Ġincon tro
ĠPi er
Ġm one
Ġcin ese
ĠMad rid
Ġcin qu
c amente
ĠLi v
198 5
ath er
ĠX II
Ġpri vata
w o
ĠC ul
d ro
ĠC el
Ġf iori
do tte
Ġcommerci ale
s che
D on
gg eri
Ġcri si
Ġnote vole
Ġper f
ing resso
ĠS ard
en ziale
ess itÃł
Ġb omb
z an
io la
ĠÅ ł
ta va
ĠJu an
Ġintito lato
B C
um an
Ġin t
Ġb er
h ann
at tore
Ġrip rese
ro v
Ġiso le
Ġfonda to
ĠRad io
T or
et s
Ġcul to
ki e
ĠS eries
la v
i tato
ĠCas tello
ĠS P
o li
is ter
z y
m es
Ġav viene
Ġrus so
Ġa posto
Ġme ta
Ġra d
Ġan tica
ĠXI V
ĠGre cia
ol ino
Ġar chi
Ġvi e
Ġs era
t ten
ĠVi enna
Ġpre f
ĠK en
ggio re
un itÃł
ĠS el
ĠCas tel
Ġpresenta to
. '''
ĠDa y
Ġpri gioni
Ġcapol uogo
Ġcomple ta
ĠB ari
gram mi
Ġ193 6
ĠC ampionati
v eri
Ġarg ento
ch t
ĠGre en
ĠTor re
Ġe bra
ĠE gli
Ġrec u
ĠSig no
Ġs che
I s
Ġd anni
en co
Ġconsegu enza
Ġlavo rare
ĠFranc isco
ĠCan di
ĠGugli elmo
Ġcatto lica
Ġse bbene
U S
ĠSte ve
Ġdi al
Ġc el
Ġr ende
Ġcos ti
Ġreg ioni
Ġparro cchi
Ġacqu a
Ġnecessa rio
Ġinizia to
D is
ĠA v
Ġpro i
Ñ Ģ
Ġinter ro
ĠF red
ĠW ashington
Ġliber tÃł
ĠH i
Ġa more
tor ale
m ula
ch ine
mi ra
Ġstrut ture
ĠCam era
Ġsc ala
Ġstra te
E S
Ġus cÃ¬
198 4
Ġmed ico
da y
ĠR io
ĠS ong
Ġb iblio
ĠBo b
ĠD ec
Ġcul turale
ĠAl b
Ġg ir
Ġvalo ri
Ġsp osa
Ġ193 8
Ġpor tare
ĠSer gio
c le
ra y
eg ni
re y
Ġes te
Ġmondi ali
Ġfos sero
Ġquo tidi
Ġchi ede
h l
Ġlav or
Ġv oc
ĠT al
r ona
Ġdeb utto
'' "
ig no
Ġorg an
so li
Ġded ic
Ġpiane ta
c emente
Ġm ic
Ġma te
c ardo
Ġvi vo
Ġatta cco
ĠDes crizione
Ġdip into
ĠMondi ali
Ġp ensi
Y o
Ġ â
Ġscon fi
Ġo p
Ġ5 9
Ġdisponi bile
am m
ĠPu bbli
ped ale
d ale
ĠW ood
Ġa perto
ĠP osizione
Al l
pa to
for tun
Ġalter na
Ġsettiman e
ca tore
Ġassegna to
it s
ĠSve zia
Ġveni vano
Ġt end
ĠU no
Ġgua da
Ġfam oso
no va
Ġ193 0
Ġla ti
Ġd urata
Ġal imenta
Ġ194 9
Ġsvol ge
Ġrichi esta
Ġedi ficio
ĠFerra ri
Ġrealizza ta
c esi
Ġentram be
Ġstan dard
Ġinv esti
ri ci
Ġn ego
les ia
ran n
Ġcirc os
em pi
ĠPol onia
ĠHo use
Ġm ulti
ĠUni ted
tan ze
S tar
ri da
ga te
a ut
g resso
os itÃł
ĠH onda
ĠSe basti
bietti vo
go la
Ġre d
C I
a e
enn y
Ġpun ta
d am
w an
ĠMich el
ĠGeo grafia
ĠIn ghilterra
Ġolimp ici
Ġsc risse
ĠRos si
Ġco da
ĠB ig
Ġcons egna
ĠEr n
Ġsostitu ito
ĠCro ce
ĠR im
Ġsare bbero
Ġent rare
ĠT osc
Ġsac erdo
m or
O R
Ġta b
ĠO rig
ĠSo tto
s k
oc ca
era ti
ĠGra zie
Ġinterpre tata
Ġspeci ali
ia to
ag n
ĠA tti
Ġb os
ĠRom ano
Ġ y
zza te
tu m
ĠF inale
vi er
Ġscel to
g ion
T V
Ġ ug
u zioni
ed ono
ĠU S
ĠTe x
Ġquar ta
od y
ĠI mp
Ġum ani
Ġl es
Ġv ice
ĠFer din
Ġrispetti vamente
W h
Ġper so
198 3
rid ge
ĠAs socia
or se
b ina
Ġsta dio
ĠPar ma
ĠWal ter
Ġatta cca
otto bre
ter a
ama ha
Ġver rÃł
ĠNa zione
Ġma estro
ĠP ala
ĠV in
et y
ĠL es
ĠA ri
ĠW ay
Ġpopo lari
Ġcompl essi
ĠC inema
Ġav vic
Ġfun zioni
er ina
ĠO ne
as co
Ġd Ãł
Ġos sia
ĠO pere
Ġf id
Ġcomp osizione
Ġmon astero
ran a
as tro
198 2
Ġ6 1
h er
H e
ĠS S
ic hi
van ta
ĠBened etto
Ġso ggetto
l on
Ġti pi
Ġ192 8
ĠDire tto
qui la
ĠSte ph
ĠSard egna
ta in
Ġpartico lari
p hi
Ġnas ce
Ġci elo
Ġp io
ĠT ol
ing e
R is
Ġcomin cia
Ġscon tro
G li
Ġa vendo
v y
Ġpia zz
ico li
is tan
Ġingl esi
opera zione
Ġav rebbero
Ġes erci
Ġcic lo
S te
an che
la ti
ch ese
Ġven endo
ĠH ot
198 0
ĠL ong
Ġling ue
oc co
as ci
Ġpi ante
th ur
Ġono re
Ã¨ re
Ġu cci
Ġm esso
Ġdec is
Ġsuper iori
Ġe bre
ĠCa pit
ic ina
Ġcostitu ita
he im
Ġe poca
on t
Ġsin goli
ĠM onaco
ĠS critto
Ġros sa
A L
Ġdis ting
ĠK im
ĠE ug
Ġ: *
t ell
ĠP ed
zi ali
ĠB atta
Ġpro tes
Ġf ile
ĠFer ro
Ġpro ve
ĠRoc k
oc k
ĠB ul
B ar
tu ario
ĠE p
ĠVer ona
Ġb anda
um o
rig h
Ġpe zzi
ĠGi uli
Ġtratta to
al tare
b r
tu res
ig i
Ġno ve
Ġs ensi
ĠL ar
ĠC ris
ĠMuse um
Ġ oland
Ġch il
Ġat te
Ġman c
Ġgar anti
Ġlet tere
Ġpartecip Ã²
Ġ19 20
ĠLond on
ĠF ab
Ġcons ecuti
Ġequi pa
Ġp elle
Ġ193 7
Ġpo la
Ã¶ r
ĠA ra
Ġv edere
Ġcos e
ĠF ord
ĠF onda
ĠO tto
Ġ193 5
Ġtradi zionale
Ġlegg enda
z ano
Ġstatu a
Ġb el
Ġcittad ini
il an
org an
m ani
Ġcompeti zioni
Ġtra duzione
res ci
ĠAng elo
Ġconc erto
Ġ19 14
ec uzione
Ġaffer ma
Ġis cri
c cato
Ġad di
Ġ192 7
Ġm ini
) '',
ĠStu dio
Ġper man
Ġdiffic ile
ĠNo va
Ġseg na
ĠT ony
ĠAl bert
Ġdefini tivamente
A g
Ġres istenza
ã Ĥ
Ġcon sa
Ġ3 00
or t
Ġav esse
Ġa zioni
Ġmetropoli tana
mo bili
Ġdistrib uito
ĠL at
ĠBo w
go re
ĠCo ppe
Ġri chia
ion o
Ġ193 1
Ġsvilupp ato
it ale
Ġs bar
Ġsim bolo
c elli
Ġimp eriale
ĠMatte o
man u
ĠJack son
m one
Ġni pote
ro re
Ġfam ili
Ġdoc umenti
ici li
Ġcos to
f al
ĠP ad
ã ĥ
vin ce
ĠAtle ta
f ran
la zioni
ĠZ e
gra do
Ð ½
ĠCa pp
ĠN um
ĠChallen ger
Tra ma
at elli
ĠS pa
Ġsu gli
olo go
Ġc attedrale
Ġconsidera ta
h u
arti sta
ar chite
A M
Ġsoci ali
ĠBres cia
Ġpos sa
Ġricev ette
Ġ192 9
ĠB ad
u cci
Ġcons iste
ĠD alla
Ġav anti
Ġv eg
198 1
Ġgioca re
Ġdisp osi
f era
co re
ĠPal marÃ¨s
ĠCor te
ĠT ay
Ġpo eta
ĠC amb
Ġdistrib uzione
ot te
in ese
en sa
Ġpros eg
Ġ isola
Ġo bbli
bb io
S c
ky o
ĠPor ta
Ġg as
Ġris ale
zion ario
Ġf atta
im por
Ġcons enti
tolo gia
Ġulti me
Ġt h
Ġes ord
Ġfonda zione
C D
Ġv incitore
ud d
des tra
Ġ6 6
Ġcele bre
Ġtrasfer Ã¬
Ġb ac
s er
ĠJa co
i di
pp er
graf o
ĠP l
Ġde vono
ĠQ ue
Ġs qu
Ġfu ga
Ġ $
Ġgi udi
Ġfac ente
ĠL am
di zione
Ġnem ico
ĠLi fe
Ġvi vere
ĠJ ane
p an
se y
Ġdo tato
ĠC osta
Ġbu on
, ''
Ġle ader
ma tico
Ġcal c
ĠS pe
Ġmo tivi
di m
Ġ193 3
Ġdiffer enti
Ġ ultimo
is on
j u
er na
am ica
s co
197 9
atta cco
ĠT el
ĠK u
Ġco per
g ue
tori ale
uta zione
ĠCla ss
er io
Ġd ura
Ġ193 4
ĠBre tagna
Ġat tuale
ĠW hite
ter n
us cita
ri cato
ĠYo ung
Ġcro ce
Ġvec chia
r s
F i
O M
ĠMar tino
ba te
c osa
ĠL and
Ġ âĢĵâĢĵ
ĠSem pre
Ġprof ond
Ġavven uta
tr y
ce o
Ġri d
Ġspagno la
t ine
Ġm ette
ĠA merican
us tin
inis ce
ĠI X
V i
on tana
Ġsola mente
fica ti
Ġricor da
ĠScho ol
ĠPro vincia
Ġpo teri
Ġ25 0
ĠJe ff
bo le
ĠM onda
Ġcar ro
Ġle gam
Ġp onti
Ġimmag ini
ĠH an
Jo hn
Ġ9 7
Ġg er
Ġe bbero
Ġdiff usione
Ġterm ini
Ġca vali
Ġre so
Ġgig ante
Ġmar ina
ĠFran ce
ĠS emi
ĠCar l
Ġci vili
re t
Ġcol po
Ġbritann ica
ĠM iss
Ġcad uta
Ġfem mine
Ġam pli
Ġfar ma
Ġcom pa
C ol
g allo
ĠH ans
Ġrice ve
Ġmor ti
b lo
in ca
ir ono
ed endo
de va
ĠIs land
ath an
omina tion
Ġliv elli
Ġcol l
ĠG S
v or
x i
Ġav anza
t ton
L es
Ġna pole
Ġgre ca
Ġal p
Ġgiornal ista
f inali
Ġdec isione
Ġus cito
ĠCon f
p et
Ġso d
Ġtrova va
Ġtor nÃ²
m us
vi era
Ġm iglia
197 6
Ġs po
I stituto
omet ri
occ upa
ĠA frica
om an
O n
ĠA la
Ġsul lo
Ġs el
ĠInterna zionale
pr Ã¬
tur ali
Ġprov inci
S ec
Ġbas ato
C lub
ĠB ab
ai uto
Ġcer ti
p l
Ġcittad ina
ĠAl bum
ĠA T
Ġcos tante
s ca
ĠGui do
Ġsc ud
ĠM et
in ti
c t
di um
Ġc ensi
F il
a prile
ĠP ur
do or
ĠPi erre
ff er
Ġdis cip
n ing
Pal marÃ¨s
r um
ol to
Ġcombatti mento
Ġuccid ere
Ġinte gra
ĠV ar
Ġmalatti a
Ġpar all
ĠS ti
Ġcostr uire
Ġinter essa
Ġaff ian
ĠâĢĵâĢĵ âĢĵâĢĵ
ist enti
em ent
Ġmac china
M I
Ġatti vo
ĠCh icago
Ġambi enta
197 8
ĠC risti
pri ma
V er
An g
bita t
Ġrivol ta
ĠF ac
Ġdeb ut
h ard
ĀĀĀĀ ĀĀĀĀ
Ġincon tri
Ġper tanto
ĠC li
ĠCor ri
Ġprote zione
Ġmina ccia
Ġ6 3
Ġco pie
bo ard
Ġcon siglio
Ġfiloso fia
Ġanti chi
Ġcam bi
Ġum ano
c ini
e gli
Ġfu ggi
ur g
ĠCh ristian
197 5
Ġautori tÃł
r lo
Ġ6 2
rific enze
ar ta
qu arti
m al
X I
Ġcon n
Ġsc uole
Ġritor na
ĠC y
Ġa us
g ro
Ġcaval lo
Ġass ic
bo t
ĠA ustria
ĠCar los
inter o
ci enza
Ġg ene
Ġc ron
Ġresponsa bile
ĠCostan tino
Ġn at
vi ta
Ġquin to
ĠR en
lus ione
Ġac co
ĠR an
Ġer edi
ĠS ky
ĠJo hann
g on
Ġdo tto
Ġricos tr
ĠDis co
vi Äį
and olo
tar si
Ġpar tenza
v ra
Ġpres ti
inari amente
ĠV enne
S al
Ġpro dotta
ĠH ay
ĠPo po
Ġneg ati
Ġp asse
ĠEdi tore
Ġmeto do
res sa
inter esse
ci do
Ġtem pio
ĠCol om
ĠT emp
Ġsor ge
Ġstra de
Ġpa zi
G ran
Ġtelevisi vo
Ġraff ig
Ġacqu isi
ĠFo otball
Ġn ulla
anda ta
us ura
Ġcon ver
Ġraff igura
Ġ192 4
Ġform ula
Ġrecu pera
ĠH igh
Ġfig ure
197 3
Ã© s
olo gie
in v
Ġelettri ca
197 2
Ġlascia re
Ġs ved
or mente
Ġspetta colo
197 7
Ġdemo grafica
An dre
D ire
at re
ĠTor neo
ec ca
Ã© n
197 4
ar la
Ġdisc end
Ġmat eriali
Ġn ut
Ġos ta
Ġgi u
al isti
ĠB ut
el im
Ġd omina
Ġ19 18
Ġcar ta
g ano
Ġno bili
Ġriti ro
Ġusa ta
Ġ19 12
ĠAm m
Ġimmedia tamente
Ġnum eri
Ġp asso
Ġinn amo
ĠS olo
ĠUE FA
Ġinter amente
Ġf el
Ġconosci uta
M i
M on
gli ato
do ws
Ġteat rale
w is
Ġutilizza ti
ĠT ime
Ġpoli tici
v amento
ĠF ur
Ġmedi ante
Ġm io
Ġcon corr
ĠTosc ana
gli ano
ĠQu este
ĠMed io
b ack
197 0
ti o
S in
Ġlas ciÃ²
Ġcan ta
in contro
Ġdisp osizione
Ġillus tra
ag osto
Ġid ro
Ġing egn
di era
Ġco ra
um in
ĠV ec
ĠV el
Ġraccon to
Ġ12 0
F a
ĠJohn son
lo ra
g ua
Ġfabb rica
E L
ĠS che
Ġgio chi
end olo
A t
ĠRo bin
Ġro sa
Ġsceneggia tura
ĠP onte
Ġm ass
ch el
Ġrin ven
ĠVi deo
Ġstr umento
Ġmer c
Ġs il
Ġ19 19
Ġapp re
Ġgio van
Ġ193 2
la te
ĠN ic
im magine
v ello
Ġvo ti
ĠT am
imit ero
Ġg em
Ġposi zioni
Ġdiventa to
Ġv isione
at ten
AT P
Stati stiche
Ġposs esso
E x
Ġc e
Ġco ri
gh er
ĠW ill
ĠD un
Ġass um
Ġpo che
f ono
Ġpu re
ĠK ir
ri k
ĠMauri zio
Ġsoli sta
ĠKar l
196 8
An tonio
Ġabb as
Ġgen era
m amente
ĠZ el
ĠCo un
ell es
Ġlas ciato
ĠCi Ã²
Ġprofess ion
tan i
Ġprof essore
ĠP ub
P S
Ġgiusti zia
y le
ĠFor mazione
ros so
Ġfor tun
ĠB est
Ġcent ri
om p
v et
Ġvol umi
ĠU m
Ġpartecipa re
ĠSa vo
Ġatta cc
Ġp ista
ĠA ma
b ul
Ġin cor
ĠM assa
ĠCh risto
alizza ta
Ġpos teriore
pu tati
ĠCa rat
Ġc usto
ĠRic cardo
rag on
Ġ192 6
o ggi
ĠLa w
Ġl Ã¬
Ġcom pito
ĠVit toria
Ġeconom ica
ĠD ol
Ġun ica
Ġdi am
Ġsempli cemente
Ġdec iso
Ñ ģ
Ġca rico
ess ioni
er y
orig ine
ĠPri x
C L
ĠBri an
chi e
Ġdov ette
Ġcons ul
Ġameric ana
ĠMonda dori
Ġprotagon isti
enn ale
f is
Ġtemper atura
Ġgi allo
r ca
Ġf este
r ing
ĠD VD
ĠAlex ander
ri an
Ġprop osta
Ġ6 8
tta mente
Ġb elli
Ġimpor tanza
Ġpres sione
Ġtra tti
196 9
M y
inci tori
a zzurro
Ġacc ordo
Ġtrasm essa
c us
g es
Ġstori e
ĠVi ta
cell ona
197 1
Ġpo e
m ond
Ġsc io
ĠQu est
Ġsin golare
p al
ĠRe gg
Ġvinc endo
ĠL inea
Ġ19 13
Ġsvol ta
ĠPia zza
utili zzo
ĠS ho
Ġsp ia
Ġseg ue
ĠFil mografia
Ġs l
la ck
Ġent ro
Ġcontra rio
Ġ19 15
196 0
Ġcorr ente
c el
u lare
b ato
196 7
ĠMon t
Ġfi or
ĠP on
Ġchi aro
ar k
vis te
Ġdom inio
Ġscri tti
Ġd on
graf ici
Ġrego lare
ĠL as
ĠAnd rÃ©
" ''
Ã ´
Ġtele visione
Ġris chio
ĠFor mula
Ġdin astia
Ġ6 9
g eni
Ġm uo
" ),
i te
it ud
Ġraccon ta
Ġf l
ĠLa ur
Ġflo tta
ĠS how
Ġreg ime
Ġpar t
ĠVer gine
Ġdec reto
Ġdip lom
Ġvet tura
Ġfre d
Ġ7 6
Ġvinc ere
Ġv ent
Ġes ce
ĠChampion s
Ġb elle
Ġs esto
ĠS ette
Ġnem ici
g ene
Ġinizi ale
Ġsco perto
R eg
E N
ĠP isa
in ten
Ġpot ente
ĠPro f
it Ã²
Ġsor ta
ĠRa ffa
ra mente
Ġmedi evale
Ġv eli
ĠDi ego
Ã§ o
ten e
ĠO gni
Ġcomposi tore
Ġannun ciato
ri t
ĠMa y
ĠRe al
Ã¼ n
g ere
Ġp l
Ġs how
Ġ192 3
Ġ: :
Ġbat ter
g y
ĠMo to
Ġscri vere
C amp
Ġcontrib u
ĠTay lor
ĠCen ter
ĠLomb ardia
k ins
Ġad d
enti tÃł
Ġpre mi
Ġcomp uter
and ra
Ġnec essitÃł
Ġmo v
Ġep isco
ĠVir gin
le x
a pertura
Ġ6 7
Ġcensi mento
et ano
bb y
Ġv anno
Ġabbas tanza
Ġindipend ente
Ġlegg era
Ġmaggior anza
re mo
ec t
Ġfan teria
Ġlega to
Ġchia ma
ĠE manu
Ġri feri
Ġcer im
ĠLa zio
righ t
Ġrin no
ĠStre et
tre tti
ĠC ass
Ġaere o
ĠSalva tore
Ġpre feri
Ġ19 25
ĠS ir
Ġghia ccio
u almente
Ġdefini to
Ġo lio
Ġcommer cio
Ġs on
ĠW at
Ġsp edizione
Ġso ggetti
ĠD ia
u tore
Ġdig itale
ĠBiblio teca
Ġ energia
no w
b eri
Ġchil ometri
Ġsuccessi ve
Ġpro sp
Ġotten endo
ft ware
ĠPh il
Ġconf ini
Ġmanifesta zione
ĠLu c
Ġdom en
ĠLa ura
in es
Ġspor tivo
ĠNa pole
Ġbian ca
Ġaere i
ic ano
ĠSte ven
d amente
Ġ- --
h ar
ĠDa vis
Ġsegre to
Ġ ...
ambi ente
Ġcli ma
Ġstu denti
L u
b ell
ĠCala bria
Ġc ard
ĠNuo vo
ĠSc uola
ws ki
Ġos c
Ġ7 2
Ġpor te
ti po
196 5
Ġsu r
ĠC V
tan d
Ġs tri
ov est
l ando
Ġtrova to
Ġs ce
H a
Ġcol p
Ġcontinu Ã²
Ġd ando
ne i
Ġ Ã¨
r ente
tu ri
Ġraggi unse
ĠLi ve
Ã ª
Ġutilizza re
Ġd anne
onn ello
Ġdis egno
ĠB is
Ġmanten ere
Ġsc or
Ġ19 11
Ġpia tta
Ġum ana
va zione
20 20
Ġdichia rato
Ġsol uzione
oc key
ĠFi or
Ġver itÃł
196 6
Î ±
Ġsigni ficato
ĠFerdin ando
vo cato
ĠC ic
Ġgir oni
ffici ente
ĠMinis tero
Ġinter ess
ĠConte a
Ġclass ica
Ġdis putato
ĠV ers
Ġf onte
a zioni
s y
ĠS om
Ġsec ondi
ven zione
Ġmon tagna
ĠP en
Ġb eni
M e
acqu es
Ġaggi un
Ġin edi
196 1
T er
ĠA ni
la mo
g ente
x a
Ġcan ad
Ġbat tuta
Ġe uro
Ġtr enta
ĠN ick
Ġtrib Ã¹
Ġvari etÃł
ĠK ra
Ġpreval entemente
? ''
b ol
Pro duzione
ĠB ran
v re
v arono
Ġins erito
ĠV escovo
Ġand Ã²
R oma
Ġmod alitÃł
ĠO ut
A frica
S i
Ġmeri to
Ġann uncia
ĠG ard
uss ioni
f ro
p us
tor s
ĠDo ug
al do
Ġs tanza
Ġcos tu
le g
ĠAl pi
Ġospi ta
Ġte st
Ġ192 2
res se
gh eria
ĠIn dia
Ġfo glie
Ġf ec
Ġ ultima
chi ar
ale m
Des crizione
Ġfum etti
Ġavven ne
ord ano
M S
u tato
ĠP om
iterran eo
ĠM ir
Ġrigu ardo
Ġrisp osta
Ġste mma
ĠT ed
ud ere
le tta
ĠPorto gallo
v est
Ġpossi ede
tta vi
Ġconc erti
Ġpreced enza
195 9
Ġa perta
Ġri t
asp etto
. -
Ġcon corso
Ġlan cio
es istenza
Ġregistra to
ĠCal cio
Ġs olle
196 4
ĠGi anni
Ġcam era
Ġle ggi
ĠD am
ĠIn s
ĠE ric
Ġatta cchi
ĠCam po
al es
Ġ19 17
Ġcon vento
ĠF abri
land ia
Ġlasci ando
Ġan tiche
Ġsoli to
ing a
g eno
Ġot tanta
Ġo per
un da
sti ci
Ġtran s
lassi fiche
Ġ192 1
Ġno bile
ĠI mma
Ġdis tr
Ġsu on
Ġsta tale
Ñ Ĥ
ro w
ac ca
Ġesclusi vamente
Ġgi ung
ĠW olf
Ġset tanta
ĠB lu
Ġco ord
Ġna ta
Ġocc as
Ġdis egna
Ġman dato
Ġven du
ell y
ti re
v ante
ĠT hi
Ġass ass
u er
ans ione
on ico
w ork
ĠOs car
l ese
Ġs anti
Ġe qu
teri ormente
ĠTo kyo
Ġassol uta
Ġins edia
Ġpensi ero
ĠÄ Į
Ġvitti me
R A
Ġsc amb
Ð¾ Ð
Ġa zi
ĠK at
ĠG od
c ina
Ġnatur ali
Ġcol tiva
Ġten uto
O pere
Ġper se
Ġbra sili
ĠC ru
Ġn era
Ġpi eno
gam o
tra tti
am ico
Ġpilo ti
G e
Ġperm esso
Ġinc lude
G er
ĠRa y
Ġnoti zia
Ġvolon tÃł
ri ma
196 3
al om
ĠA uto
u cc
ĠA cc
Su per
lo p
Ġdiv entando
Ġf ol
ĠC SS
Ġacc us
ĠColle ge
ur ale
ĠDemocra tico
Ġcaratteri zzato
Ġ7 7
Ġsos te
Ġa ppo
ff o
ĠAr thur
ĠSi ena
ĠLeon ardo
trut tura
w i
Ġarri vÃ²
ica to
Ġcompag no
Ġinf lu
ĠIn g
Ġvic ina
ĠHar ry
Ġconc etto
Ġforte mente
Ġp om
Ġpres a
ĠL ec
196 2
Ġdi sa
Ġsc al
ĠH ard
n s
Ġme zzi
Ê ¿
D ie
Ġp ala
f ero
vers ione
Ġracc onti
ĠR ub
Ġs ter
ĠL ang
Ġferrovia ria
Ġacc esso
Ġfra m
Ġper icol
ĠA eroporto
Ġs org
ĠLe one
ĠN ato
ff e
ĠA sia
ĠRo ger
issa rio
Ġsov rano
ĠBo y
Ġcolle zione
Ġcomunica zione
ches ter
Ġ Â°
ess ero
ĠCarat ter
ĠInf ine
ĠCom peti
Ġnorm ale
ĠIn c
G o
_ _
fon so
Ġ1 01
195 8
Ġcol oro
ĠV III
Ġfir ma
á ¹
Ġquesti one
Ġclassifica ta
Ġreg is
las h
Ġmi ra
Ġa do
l lo
Ġ1 000
Ġcer ta
I C
ĠPar co
ĠAn ni
Ġdoc umento
Ġm unici
Ġvideogio co
Ġcominci Ã²
Ġ7 1
al is
Ġricer che
Ġp ed
Ġrela zioni
ĠL ord
Ġ19 10
ĠCat ania
Ris ul
ĠB and
mo to
con om
ĠU p
Ġra p
Ġtrasfer isce
Ġapparten enti
Ġter res
ĠS ede
ĠDistrib uzione
v ina
Ġdes ig
Ġrelig ione
Ġindustri ale
Ġvanta ggio
Ġcaratter istica
ĠP es
Ġra gione
ĠEx p
ĠInf atti
lo w
Ġman ga
om onimo
ĠZ o
io res
ĠA re
Ġmo le
Ġas col
ĠG alleria
Ġdi chiar
Ġim pi
Ġat tes
Ġins tal
ĠC ard
ĠE ar
ĠTom m
Ġrim asto
ĠPi Ã¹
Ġb ru
inca rico
ĠBar cellona
f ri
Ġcor ona
ĠCla r
ĠPi ero
ĠT utti
Ġcondi zione
ĠKe vin
ON E
in da
Ġpor tata
Ġcompag ni
Ġus cita
Ġri lievo
Ġlater ali
Ġfin ali
ĠNo ve
Ġpor ti
au x
Ġuni versi
Ġnucle o
Ġpes ante
Ġcomp et
ug i
Ġtal volta
Ġprev ede
ĠL y
cia ta
Ġrus sa
Ġw eb
or me
ris on
ĠCat erina
Pri ma
es tri
ui rono
eri ti
ĠW omen
Ġsess anta
gu erra
Ġes se
in se
Ġesp on
ĠB ag
ĠPi emonte
lie vi
uo va
ĠIs ra
ĠPatri ck
ff ico
ĠLi ga
ĠMod ena
os la
ul es
Ġmin or
Ġebre i
Ġpun teggio
Ġrappresenta to
ci d
195 7
Ġsop rann
Ġtra d
Ġpubbli ci
Ġmet al
zi ani
Ġcres cita
Ġquo ta
il ton
Ġai uto
ĠC ec
ĠS k
Ġsu ono
Ġav versa
ĠW o
Ġ*'' ''''
ĠChampionshi ps
ir si
cor si
Ġvo le
gu ardo
am pi
ver y
Ġdichia ra
Ġprincip io
bi ti
ĠRom an
f eo
Ġchia ve
x t
ĠH al
ĠMon ti
Ġm uto
Ġpro grammi
ĠN et
ĠYo ur
ĠCh o
Ġper i
ĠCos Ã¬
ĠP D
ĠO ra
ĠA bb
ĠSoci ety
ĠOno rificenze
b eth
Ġe vento
V I
emble a
Ġeconom ico
Ġaffres chi
Ġma ri
Ġsoprav vis
ca zioni
Ġal ti
4 00
Ġgoverna tore
Ġsemi finale
Ġmusic isti
Ġconten uto
âĢĿ .
ĠD C
Ġcol onne
ĠM are
Ġf eder
Ġtelevisi vi
Ġ7 8
Ġminis erie
Ġh o
Ġp ec
Ġna z
Ġcaratteri zzata
Ã Ĺ
al tezza
ĠL is
Ġfis sa
ve va
ss ero
ra ma
lo gia
Ġpo esia
ester n
ĠGo od
one y
ri ttura
Ġdiver so
Ġv ul
Ġacc anto
Ġcomp rend
Ġmar mo
olog iche
) )
h el
Ġfid anza
Ġdip artimento
f ino
ĠCom pag
ilo ta
ol tÃł
ĠB org
g ers
Ġpresti gio
Ġforma ta
e vento
d ge
A F
Ġcon gi
ĠEl ena
Ġalcun a
Ġdi min
e ve
inis tro
ĠTra s
ĠLe wis
Ġ ela
ut en
rest ling
Ġa ma
R I
Ġpromos so
Ġaggi ud
ion al
or tun
ĠAn th
Ġe ven
Ġgiovani li
d t
ul li
occ asione
ĠPhi li
Ġ x
Ġsal ute
Ġ ut
Ġ19 16
c enti
Ã Ł
Ġfonda tore
Ġness uno
Ġvesco vi
Ã¡ s
Ġten uta
Ġven dita
Ġsov ra
ĠReg ione
ĠTab ellone
Ġs ent
ĠFri ed
Ġm ia
Ġpre fer
ĠFor ce
and ro
Ġ( '''
ĠRe ggio
Ġt uri
g ani
ĠHol ly
Ġreg ionali
Ġcom pare
Ġin ga
Ġcan to
Ġriguard anti
A I
. "
* *
Ġsig la
Ġmar cia
peci e
im arca
ĠT ec
er ona
Ġcombat tere
Ġav via
ĠP un
b ale
i da
m ica
Ġgu erri
ph er
Ġus are
ĠV la
is tere
vis a
Ġasp etto
' ,
Î ¿
S P
M us
Ġtran si
Ġ0 2
bb i
c oni
ĠSp ettatori
ĠG as
z ar
ĠA ca
ĠSavo ia
Ġmanc anza
ĠAt tualmente
Ġsoste gno
Ġcon dotto
tic s
G re
la g
Ġmet tere
Ġesp erienza
. ),
Ġs vizz
Ġco re
ĠPa ci
P G
Ġfenom eno
er t
chi vio
ly n
ĠMed a
Ġsor p
ĠSo vie
Ġreligio so
ĠGre go
ell enza
ĠSim one
ĠG h
ĠLe o
Ġproveni ente
ĠEmi lia
Ġapp unto
Ġaffron tare
A b
ĠComm issione
Ġpo tuto
O ro
Ġc en
gam ento
ĠT an
Ġsf rut
Ġfondam entale
graf iche
ĠM edia
Ġdis ta
z en
sa i
mon ia
Ġpubbli cÃ²
te c
Ġc l
um entale
Ġm and
F o
Ġ7 4
Ġs to
ill es
Ġsegre tario
Ġvin ta
Ġmon umento
Ġad atta
Ġprinci pi
gn ano
Ġspor t
ĠNo v
Ġsfi da
titu dine
Ġord ini
A ustria
Ġsp ec
ĠAnd erson
ĠWil son
ĠTex as
te in
ĠEmanu ele
em ia
Ġlingua ggio
ĠVene to
Ġc ug
Ġes ordi
ur Ã²
er ano
Ġarri vare
ys tem
Ġ7 3
ĠBl ue
Ġrifi uta
Ġracco glie
Ġn ar
tes se
Ġameric ani
U R
Ġsucc essione
Ġcor si
on io
ĠT en
Ã Ī
Ġrealizza re
Ġcomporta mento
Ġess ersi
Ġg al
" ).
or y
l ler
Ġver tic
Ġcontemporane a
ĠPo co
Ġle tto
ĠSe zione
b as
on to
Ġdel eg
Ġcor o
Ġar te
n ano
o per
Ġfa ceva
Ġrec ente
Ġper dita
ard ini
Ġcomp ar
T ri
Ġspi ri
ĠMar gh
ĠMar ino
ĠC B
ĠR in
Ġind ossa
c ona
Ġan teriore
lus so
Fil mografia
Ġpubblica ti
ell ino
Ġfin almente
os hi
Ġsp alle
In ghilterra
Ġa fric
Ġpar lam
in amento
Ġn er
ĠH y
195 6
Ġpelli cola
Ġsved ese
Ġv iss
ĠAr n
Ġfac ilmente
Ġte mi
can estro
ĠDi p
Ġdemo li
Ġne o
ĠE do
Ġp ens
Ġvo ci
M il
tta to
l Ã©
I m
ill y
ĠSer vi
ĠCon fer
B a
Ġperson alitÃł
ren di
Ġrego la
E T
Ġnor ma
Ġutili zzando
ĠMa ggiore
ĠP it
ĠG ame
ĠEli sab
195 5
Ġaddi rittura
en zio
Ġcer care
ul so
Ġrip et
ia t
ug osla
Ġprima vera
r endere
in elli
Ġregistra zione
ha i
veg ia
graf ie
per te
tes t
Ġprevis to
Ġpos t
Ġdo tata
d s
ha il
ĠFranc is
Ġ19 00
Ġpor tale
Ġmat eria
ĠCent rale
va ria
Ġtratta mento
ĠAl an
C as
gli eria
Ġorig inariamente
Ġam pia
Ġatti va
ĠM ala
ba ch
Ġre ci
Ġrim as
Ġinci dente
olog y
Ġresta uro
Ġpres entano
G ruppo
Ġdesi der
ĠSovie tica
ĠMar t
Ġinterpre ta
Ġf ede
Ġsoli tamente
ĠFo x
E C
imp ero
Ġcons eg
Ġsp ic
ĠCaratter istiche
Ġsinda co
Ġs tili
ĠGo verno
ĠE ss
ĠB ry
ĠV e
dov ico
m el
Ġgen erazione
rag ona
Ġsac ri
Ġindi vid
Ġchi usura
R C
Ī Ĵ
in na
car lo
ĠLa dy
Ġs lo
ĠJ r
Ġbritann ici
ĠS ala
Ġe vol
Ġparrocchi ale
C lassifica
Ġs atelli
P h
Ġcompre so
ĠS um
ĠRom ania
Ġqualifica ta
tag ne
ĠE cc
end io
O tto
ent ini
ĠTran s
Ġdisponi bili
Ġc uc
ĠFed erazione
mi li
vol mente
Ġn u
Ġre ca
ĠTomm aso
Ġar mate
Ġde ca
ĠMed iterraneo
ĠAs h
ĠP ass
Ġgen eri
ĠS ca
Ġbiblio teca
Ġre azione
Ġpat ria
Ġstes se
ĠLu is
Ġv ento
Ġinc ro
ug ia
Ġper de
Ġes pri
isti ci
Ġruo li
Ġconten ente
du ttore
ĠE ast
in z
ĠF ino
ĠRa ven
al ta
ĠSta zione
ĠR ena
ĠT ito
C an
Ġper ciÃ²
Ġmoder no
Ġv uo
Ġden aro
Ġc anti
Ġri mp
y r
ch ini
ce p
ĠBor go
Ġsod dis
Ġbor go
ist Ã²
Ġo ve
ĠNat ale
Ġscon osci
ĠDan imarca
ĠFab io
ĠS enato
gli ari
ĠBa viera
ccia io
cola to
s so
Ġqualifica zione
ĠR ose
Ar g
Ġd ro
ion s
Ġcirc uito
Ġecc lesia
archite tto
gh ese
b en
ĠIn d
n es
ĠPro mozione
ab e
ĠNapole one
ĠS us
ĠS tory
ĠSta te
Ġ8 1
Ġlaure a
Ġesten de
f am
Ġtra ffico
ĠCorri dore
Ġartisti ca
ind ustria
ot t
Ġdes tro
o ks
Ġtecn ologia
Ġa bita
Ġ190 8
Ġcolle gio
Ġsu olo
H ar
ĠGu est
Ġsoprav vi
p ra
Ġorg ano
Ġclass ico
Ġat tu
v ine
Ġpare te
ĠMa uro
Ġin door
p es
ec onomia
Ġcapi tolo
Ġlavo rato
re z
ĠG un
Ġre cita
ĠP alla
Ġgener ali
S critto
Ġdiff uso
Ġ8 5
Ġspi rito
d L
ĠCa vali
Ġdo dici
Ġinter ni
ĠI van
Ġindividu ale
ĠSo le
Ġindica re
ĠM anto
ĠUni versitÃł
Ġness un
Ġan tici
en io
Ġvisi bile
S er
Ġre sa
and re
ĠSta dium
li ce
ĠTo wn
Fran c
Ġlegg er
mini li
y u
Ġcamp an
Ġgra ve
do wn
Ġpote vano
met ri
pre so
ĠCo rea
Ġv ac
Ġdivis a
ĠPar lamento
Ġv s
in anza
ĠTri este
v ino
ĠCos titu
Ġsal vare
us sia
Ġpre mia
Ġforma re
acc esso
ĠM ann
Ġtrasferi to
de c
ĠL ing
Ġcon ti
Ġorgani zzato
ĠArg entina
C la
Ġeff ica
Ġcann oni
Ġgi rato
Ġd ona
Ġsvol to
ĠO f
Ġca v
Ġstudio si
ĠThe atre
Ġriconosci mento
ang olo
gra ph
Ġoland ese
Ġpar ziale
cchi e
Ġpopo lazioni
Ġim pa
Ġgi ardino
Ġrib elli
ĠG r
Ġtip ico
Ġucc elli
O pera
l um
ĠT ut
ug e
Ã§o is
Ġpar lare
ren ce
Ġpres tazioni
iglio re
ĠEn tra
Ġ9 9
ĠH un
ce ano
Ġeurope e
Ã± a
ĠNove cento
is mi
eri te
ĠS on
Ġdemo cra
Ġcat ena
ĠDo wn
19 14
Ä ±
Ġpit tura
pp ie
gi ani
ĠNor vegia
Ġla bora
Ġgiappon esi
Ġor to
Ġmis terio
ĠLit tle
pag ne
Ġnoti zie
enta ri
ĠY amaha
ma ge
Ġrivol uzione
Ġ7 9
an ime
ga ti
Ġas ia
Ġintito lata
ĠSul la
ĠDani ele
tti ca
ĠAr ena
un no
Ġcommerci ali
Ġmov imenti
ĠBar bara
á ¸
ra tion
Ġscri ttura
Ġr um
Ġtutto ra
ĠRo ad
in ce
Ġdiff usa
ĠCas ti
Ġa zione
fica zioni
Ã ¥
ĠY u
Ġ9 5
Risul tati
ord on
Ġeff etto
Ġling u
? ?
Ġli qui
Ġaggi ung
v ang
Ġ ja
pe vole
ĠL yn
Ġm ona
Ġso cc
Ġc ali
ĠI tal
ĠSta tes
Ġr endere
S erie
ĠZel anda
e tichetta
zion alitÃł
and y
Ġnas con
Ġf ru
ĠCol um
ĠO ro
Ġno vanta
ĠAr chite
for man
195 4
ĠAlcun e
ĠB M
Ġto mba
Ġf asi
ĠK h
el ia
Ġs anto
ĠR uss
Ġte s
Ġlon tano
Ġdocumenta rio
ĠB amb
Ġroman zi
ĠGener ale
bur y
Ġbas ata
Ġf usione
t ran
ĠO ggi
el and
Ġispi rato
È Ļ
Ġcontes to
ĠMess ina
ĠVirgin ia
C ampionati
Ġm el
Ġb om
Ġrom ani
Ġreligio se
m edia
Ġgu erre
Ġabi tato
Ġspos ato
esp erienza
Ġa ustrali
Ġpro vince
ĠRegg imento
Ġinc om
Ġ zio
ĠAug usto
Ġestre mamente
allo ra
Ġc imitero
Ġ .
ĠM ia
ĠAndre w
ĠD y
Ġconserva to
Ġseg uire
r ini
ĠCom itato
ess ere
ĠRisul tato
Ġti ro
ĠN in
Ġprincip essa
Ġriti ra
ĠGro up
ca tori
ĠY a
ĠGener al
ĠM emo
i x
Ġtelevisi ve
Ġtro vÃ²
Ġas so
ĠS or
Ġps ic
un ale
Ġs for
195 3
Ġa zzurro
p rono
Ġ8 2
ĠC ron
Ġs Ã¬
ĠT ennis
ett Ã²
Ġc la
Ġcomm issione
Ġprovinci ale
Ġb ella
l un
ĠJ acques
ĠBer gamo
G ra
Ġsa pere
de z
Ġinizi arono
ĠMus ica
ĠAl fonso
Ġreligio sa
Ġcompon ente
ĠE uro
Ġd anno
Ġpres bit
ĠMor Ã¬
Ġar civescovo
ĠWin dows
ĠR ick
ĠCandi datura
Ġqual cosa
ĠO x
Ġelet tr
esi e
ĠG em
Ġepisco pale
T re
ĠMat t
Ġsta ff
Ġz ero
Ġrego le
Ã ī
ĠDis tretto
Ġcittad ino
ĠP is
issi ma
Ġpa esa
Dire tto
Ġp assi
Ġresid enza
u tica
ĠMinis tro
ĠDis ney
ura zione
Ġide e
ent rata
Ġcul turali
ĠPa ra
Ġassol uto
pp rima
ur ne
Ġcas t
ĠMargh erita
Ġcre a
etta re
Ġcon tad
ĠL un
ĠD ig
ĠK er
L E
Ġin fortun
Ġcol or
Ġso lare
isti tuto
ĠF ron
Ġlar go
L et
ĠD er
ĠHo ward
Ġti ene
Ġsu gger
Ġcar te
ĠL on
C ri
Ġes tratto
enzi ali
ĠD in
Ġconos ce
im pianto
ensi va
Ġins egna
issi mo
zu ki
Ġlegger mente
par te
Ġbomb ard
ĠZ an
ĠL ind
detta gli
Ġsin te
Ġprod ut
Ġavven uto
ĠE voluzione
Mad onna
es tero
Ġca pito
omina to
ĠAl do
ĠFir st
ĠIni zialmente
ĠGiu lia
ĠUm berto
A v
Ar te
Ġtrasm esso
ĠD r
c am
Ġa pre
ĠMc C
Ġorig inali
zz ese
Ġbra ccio
Ġstori che
ur n
u v
ĠSco zia
ran gia
o di
Ġpre ci
I V
Ġrapi damente
di ti
Ġgra vi
ĠB ona
cc ol
F L
enta ta
Ġcostitu isce
ĠM ass
Ġ8 4
enda rio
forman ce
s mo
Ġrec enti
ĠCom ics
ĠMondi ale
E r
Ġv elo
Ġindica to
Ġ190 9
Ġ8 00
pri o
Î ½
ĠS tr
Ġul teriori
Ġcell ule
ed y
Ġlung hi
Ġinvia to
E d
Ġci bo
Ġfuggi re
os tino
and ia
b ini
v ani
Ġc alo
Ġten ente
A merican
ĠMol ti
ĠK enn
M ic
f ano
Ġf ilo
s ka
ed uta
Ġfam osa
Ġteat rali
Ġsim boli
Ġrealizza ti
Ġall ontan
Ġ12 5
ĠCon gresso
Ġcre ata
ĠDre am
Ġ end
c ani
trut ture
Ġgi uri
ĠI sab
ĠF is
ĠO b
Ġas tr
Ġas si
Ġvic ende
Ġlegg ere
ĠS id
hi p
Ġha bitat
ona ggi
v Ã¡
f ac
Ġdip inti
In dia
el io
Ġacc redi
h en
Ġrif l
Ġso ftware
r ino
ĠLu ciano
Ġt reni
Ġcol onnello
I r
Ġoff re
fic Ã²
bal di
om ma
Ġchi uso
f ine
Ġris ta
Ġpasse ggeri
ĠEli za
ĠQu ali
Ġambi enti
Ġcomple to
a go
Ġ: ''
Ġproprieta rio
zion ata
d ra
e qui
ĠD R
Ġmar chio
ĠU s
Ġ9 6
Ġbas ilica
Ġcinqu anta
ed ette
ONE OS
ĠC emento
i p
lo ck
Ġimpi anti
Ġricos truzione
ĠLa go
Ġmic ro
ĠAle ks
19 13
ĠL ONEOS
Ġco i
ĠP onti
Ġmeda glie
O T
Ġcanad ese
ĠI sole
ĠS en
Ġaere a
Ġm ise
ĠS cri
Ġpor tando
Ġt ron
Ġo gn
Ġstu dente
Tra cce
Ġcre ati
ĠTo p
da te
ĠSe bbene
Ġes ercito
Ġo b
Ġci tato
Ġasp etti
un zione
a eroporto
Ġa rea
Ġa bilitÃł
Ġcar cere
c ello
Ġlega ti
Ġna vata
Ġarti fici
gi ano
ĠA tene
n ess
t ture
Ġdim ensione
Ġra dic
ĠVic tor
Andre a
ĠG usta
an alisi
Ġvo to
Ġdiplom ati
Lo ve
Ġf arsi
met tere
ana ger
Ġes tin
Ġrip resa
th y
Ġartico li
ĠC lassifiche
ĠO p
Ġrelati vamente
Ġpe zzo
ĠM iller
ĠMo re
ru zzo
e qu
Ġbiso gno
Ġartisti co
us alem
Ġdramma tici
Ġatto ri
Ġdi o
Ġpre si
Ġdis truzione
ĠSoci alista
Ġsp et
ĠÃ ģ
Ġper du
Ġgu ardia
T este
c ino
ĠB io
am in
v emente
ĠN as
Ġsom ma
ĠE du
ica ta
Ġper icolo
ĠW W
ĠL una
Ġ he
Ġprod urre
ar m
gn or
ĠV incitore
Ġal te
ĠAssocia tion
b on
Ġterm ina
195 2
Ġrelati va
Ġdoppia to
Ġpro ssi
la del
E P
or um
Ġ11 0
Ġpro mo
Ġno tare
tra zione
ĠRo ber
ĠR ud
Ġme te
i bi
Ġli mite
van za
Ġcor pi
Ġacquista to
X X
Ġc ru
ĠBra d
lis mo
Ġdiver sa
Ġfec ero
Ġfis ico
Ġs tretto
ĠB un
ĠAnth ony
ĠEs p
ĠM ani
ĠE P
Ġraga zze
ĠBatta glia
ĠEn ter
in sieme
Ġbas i
g et
ĠSteph en
Ġscompar sa
Ġsar anno
ĠH art
ĠP ilota
Ġsotto p
ĠCol l
ĠIn stitu
isto la
ĠF ul
P e
ĠC ad
D u
ĠReg ina
Ġdisp one
ĠHa w
Ġric co
Ġca pace
Ġquin ta
ĠD ick
ell ini
n ica
ĠR h
Ġdefini zione
ic itÃł
ven tura
inter vento
ĠS et
Ġcandi dato
ĠB all
Ġcon duce
Ġcomp resa
Ġno i
Ġlega ta
ggia mento
Ġsp osta
Ġpi ena
Pre mio
ĠPro duzione
Ġto tal
Ġs icili
Ġripor tato
Ġsci enze
u tion
pi ta
ĠFerra ra
Ġar ma
ĠA k
Ġfoto grafia
Li ve
Ġc ris
Ġquad ro
S I
ĠO ff
ĠPro g
r ur
Ġester no
j an
um p
Ġorig inario
ri do
w en
ĠEurope i
Ġass unse
Ġam bito
bi e
ski j
Ġvia ggi
ann y
zi ana
is m
Ġto tali
ĠO d
D er
Ġgi unse
s tro
ĠT w
Ġpro por
Ġne ut
re ggio
ĠDe b
Ġris orse
in ante
Ġaut onom
asa ki
ĠAn ti
bo la
ĠK ong
ere o
Ġra mo
S oci
ĠD ur
Ġna zioni
ag na
enzia to
ĠG ara
Ġspeci almente
ĠG ari
Ġprecedente mente
olo re
Ġspa da
Ġt um
Ġdov uta
Ġprog ressi
Ġpit tori
Ġsta bil
m ing
t tr
etti va
Ġpag ina
s sa
C am
Ġabi tati
Chi esa
Ġdes critto
Ġan alo
ĠLu cio
it ano
19 15
Ġpare ggio
Ġta vola
at trice
ĠBru ce
ester no
im on
for mato
Ġad destra
qu isi
Ġse pp
ĠMari e
Ġam pio
or f
ĠA na
ĠTr ento
Ġin si
Ã ¦
ĠMo vimento
Ġmodi fiche
ĠPas qu
w art
M A
Ġv ale
Ġcar ne
Ġcar ri
via zione
e f
Ġprom uo
or te
Ð º
c ale
Ġdi viso
Ġpass ando
Ġdi tta
pi te
da frica
Ġpare ti
ĠBar tol
ĠRy an
ĠVic enza
ĠQu arti
mos so
Ġcol pito
Ġsos tan
ĠAll en
da zione
Ġ9 8
n g
Ġrifer isce
Ġcamp ioni
ĠCompag nia
W e
Ġlimi tata
m is
om etro
ĠV ig
ĠOr chestra
ĠE st
Ġs inistro
Ġscri ve
T u
ĠV as
Ġcic li
ĠAr ri
Ġa ero
ran ti
ĠR id
19 50
ĠB ia
zz ini
ĠComun ista
ĠEs sa
Ġdenomina ta
tro p
195 1
ĠBill y
Co ppa
Ġf ili
ono re
Ġsub Ã¬
od ia
acc ordo
fica te
ĠFran z
Ġass unto
ĠVer di
ĠHolly wood
ĠLu dovico
ĠV ati
po la
Ġsigno re
Ã§ a
p lo
Ġacca dem
Ġes ib
om onima
V al
ud ono
ul lo
ĠL P
Ġdol ce
ĠUl ti
f an
re ale
ĠG alli
Ġm uore
b rio
Ġness una
ĠG F
Ġscul tore
Ġcons ente
ollegam ento
Ġdes crizione
o pp
Ġte si
ĠE conom
arti ene
Ġtrasfer imento
Ġan ime
s ol
ĠFonda zione
Ġav ver
and one
t tan
Ġarchite tton
Ġdis se
et tero
di re
Ġelem ento
V III
en di
Ġvol to
ĠT on
Ġimp rov
Ġdopo guerra
a bi
ĠIn tanto
I o
at t
mira glio
Ġcerim onia
t trice
ĠQu attro
Al bum
Ġtras form
Ġacc or
Ġdet en
ti sh
: ''
Ġ9 1
ĠTer esa
Ġgiovan ile
Gio van
ĠCon serva
ĠFabri zio
Ġb r
ĠJ ar
Ġsess uale
ĠR enato
Ġda pprima
Ġsco la
ran e
Ġex tra
o biettivo
Ġm ente
gre gazione
ĠFer nando
ĠMan uel
ĠEn d
Ġcon i
tro duzione
ord an
Ġbas ati
Ti tolo
Ġes istono
Ġaiuta re
V o
ĠTur chia
ĠG ene
ul d
ĠP L
Ġten ere
J e
Ġscon tri
ĠS etti
eri al
Ġconcl use
ia mo
ĠFin landia
Ġarti sta
Ġprigioni eri
ere i
ĠTer ri
ĠT esta
Ġdisco grafica
ri tÃł
Ġb on
Ġ190 7
19 12
ĠGri ff
Î ¹
Ġattra vers
ĠBos ton
m ale
Ġna zione
Ġmaggior mente
ell er
ĠEdo ardo
Ġfin chÃ©
ĠDa vide
pres tito
ĠD oc
Ġinc re
tr ale
B lack
Ġcri tico
ĠE gitto
ĠG ordon
Ġve icoli
Ġsf ondo
Ġviol ino
in ando
f ul
Ġmoder ni
Ġ egi
Ġtem porane
b ano
Ġ6 00
m ona
ĠT un
ĠN an
Ġfru tto
Ġd entro
Ġbian chi
ĠN icol
for ni
ĠG P
Ġrius cendo
Ġban diera
ĠGu y
Ġri cche
ĠDistrib uito
Ġcosidd etto
ĠD om
ĠDar k
uni versitÃł
Ġpa gine
ĠO m
ĠRo b
Ġraffig urante
ko la
Ġall en
ĠDo ppia
Ġ190 6
te a
ĠRoc co
ĠDoug las
Ġre pubbli
ta mento
iste ma
al f
ste in
Ġter ro
Ġassic ura
ĠP lan
Ġmass ic
le menta
ĠFranc esca
o ut
U N
c ana
Ġfam a
ĠBro ad
Ġm ess
et nam
ĠD ella
eri re
Ġconsa c
Ġsopravvis s
Ġqu ei
ĠF an
ĠGiuli ano
ĠGa etano
c one
Ġna vale
Ġarg om
ĠHen ri
T S
Ġag rico
ĠM ul
b ona
v ing
ĠCam er
Ġgior nale
Ġcoper tina
ĠO ccid
Ġrisal ente
Ġconsi gli
F inale
ud endo
Ġcor n
8 00
Ġad er
Ġdomen ica
ĠMa h
ĠCon c
ĠIsra ele
Ġmar chese
Ġriconosci uto
Ġvitti ma
Ġdial etto
zzo li
d Ã¬
ĠImma gine
ri ta
Ġriti ene
Ġquad ri
ur y
b one
ĠSi to
uni or
H L
Ġagg re
ha us
Ġvic enda
Ġrivol u
A pp
ĠHam ilton
con tra
ĠH or
ĠSeg re
enso re
Ġmed icina
ha ra
ĠGabri ele
ent s
Ġpen isola
Ġsel va
ĠC attedrale
av y
ĠMar sh
Ġcent ina
b org
Ġc ollegamento
en ko
Ġnecessa ri
Ġdec enni
Ġman os
O s
ri chi
C dL
Ġprop one
Ġpatri monio
Ġf ri
Ġprofond itÃł
Ġris c
z on
Ġ--- -
Ġ9 3
Ġscienti fico
Ġcosidd etta
d Ã²
u tori
Ġul teriormente
Ġec cezione
Ġvia ggia
Ġpr elim
ced es
ĠBri tish
Ġcap elli
Ġperc ussioni
ag no
Ġpo p
Ġorgani zzata
Ġspor tiva
Ġm ang
Ġno t
ĠF anta
Ġtradi zionali
ĠElisab etta
ry s
ĠN ar
Ġass ume
Ġorig inaria
ĠGold en
Ġus ati
Ġfem minili
Ġambi ente
ĠS tori
ĠD ante
Ġsper im
Ġtedes che
cia tori
pend enza
Ġ ic
v ica
ĠJohn ny
ĠPed ro
ĠP enn
ĠI mage
c amp
ĠGiro lamo
Ġv ino
ĠRos sa
Ġg rig
pa ti
da d
Ġven duto
ass ion
ĠPrinci pe
Ġt era
Ġ190 5
Ġinc luso
Ġfa cili
Ġm issioni
Ġvari ante
Ġ9 2
Ġta ppe
Ġdec isi
usalem me
Ġ8 7
ĠNor man
Ġv incitori
Ġconten uti
or chestra
ĠMa j
Ġs m
b atti
Ġcostitu zione
Ġchitar rista
Ġ å
Ġtor ri
Ġtri on
Ġmusic ista
Ġl umin
itud ine
or mi
Ġauto mobili
ĠA ur
Ġv as
p is
ĠP ho
Ġ8 6
p lay
Ġv iola
uo vo
at s
Ġac us
ĠO ld
k an
ic ia
cia re
ĠTri b
Do ppia
ĠManto va
O L
Ġuni vers
Ġar co
ĠRic on
ĠBern ard
ĠSac ro
Ġor chestra
An n
Ġimp edi
Ġaff in
ar mata
ĠCon n
3 00
Ġcan cella
T om
m pi
ĠLu cia
Ġripor ta
Ġre se
uo ri
Ġanim ale
ĠAmm inistra
Ġcos tella
ĠMa gn
Ġsp e
ĠAli ce
Ġinter venti
ur ch
con ti
B u
pi ano
p ha
ĠJ am
ass edio
Ġpa ura
ĠGrego rio
Ġdiam etro
ĠNa zioni
ĠC lo
Ġproc essi
ĠBr un
ĠCarol ina
c end
Ġindi ri
Ġma gn
ĠRom ani
Ġgiud ice
Ġcampan ile
gg endo
K a
glia ta
ĠSo fia
un k
ros se
A rea
Ġparro cchia
ĠD omin
to mi
qu es
Ġamministra tiva
ĠP C
Ġim bar
J a
Ġpre d
194 5
Ġseg nale
ĠJim my
Ġre stitu
ut s
ic tion
ĠM r
zion a
Ġcos te
Ġ8 3
it ta
Ġmet alli
Ã¶ n
Ġbat te
Ġb otte
do w
Ġdefini tiva
Ġun gher
us si
inv asione
ĠAnd y
Ġsequ enza
Ġscud etto
An na
ĠC ari
ĠI sa
Ġstra ord
bi an
ĠHe art
Ġli ve
Ġsvol se
ĠS yd
ĠSquad re
Ġpass ione
ĠAlf red
vil tÃł
Ġsci enza
Ġinterpre ti
Ġintro dotto
end er
Ġru b
te se
C ro
Ġgra du
uri ositÃł
t Ã¹
egu Ã¬
Ġarres tato
ph ia
i po
Ġ1 18
ci lio
Ġpot Ã©
ĠBamb ino
b is
% )
Ġf estival
ric ol
Ġmo rire
Ġc esti
it al
ĠB ene
ĠMod alitÃł
Ġtr eno
ond er
m ino
ĠOlimpia di
Ġarri vando
Ġnor veg
ĠEliza beth
li ga
S ha
Ġc lin
Ġcon dotta
Ġaffi data
Ġpre zzo
Ġelet torale
Ġcro ci
Ġpre para
M er
is toria
Ġdest inato
Ġsostitu zione
n amento
ar on
ĠPopo lare
ĠC ann
Ġso tti
ton ia
Al to
ĠW ell
Ġsigno ra
Ġpossi bili
el et
U l
Ġdesi d
ĠF iglio
Ġcorrispond enza
ĠPer ugia
americ ani
so ri
Ġresponsa bilitÃł
Ġas sai
k istan
Ġabband onato
ĠCa gliari
Ġvi va
vin itÃł
ĠJ ay
C he
C al
ĠK ara
ver na
Ġinte g
am ba
ons or
gg ero
ĠTa i
w ick
Ġsta zioni
Ġebra ica
Ġsc ia
Ġso gno
Ġconsid er
Ang elo
Ġm uro
Ġp se
Ġalle ati
d ico
Ġc atti
w ar
Ġco ver
ĠAn ne
Ġ ener
d ri
V ia
ĠN eg
o tta
Ġdis egni
Ġusci re
est ina
Ġsepol to
Otto cento
Ġric ca
Ġpri vato
Ġ15 00
ven ire
im mag
abb azia
ĠSt one
ĠH it
ol do
Ġsconfit te
ĠRoc ca
Ġbac ino
ĠTe o
Ġimpieg ato
ĠP in
ĠPro v
Ġal beri
Ġpor tarono
ĠR omeo
Ġvoc ale
ĠOx ford
ni k
ar ci
pe z
Do wn
ĠUn ione
ĠB y
Ġre st
Ġban ca
Ġci ma
ĠD all
g s
s cia
Ġra ss
m m
ĠA ff
ar chia
z ant
etro c
ĠMarc ello
f u
A D
ent al
ĠAT P
ĠS qu
Ġries cono
Ġmo bili
Ġta gli
ĠHis tory
olo gi
Ġlegam e
ĠB ang
gli oni
ĠLu ci
ĠGer usalemme
Ġg ente
ĠN u
Ġs h
19 39
Ġfam osi
Ġdistru tto
ĠW restling
Ġso t
ĠT ru
Ġpos te
Ġtraspor ti
6 00
Ð »
ĠTele visione
Ġsal va
Ġall un
Ġchia mati
Ġdis chi
Ġviol enza
ele zione
ĠCh am
Ġfrequ enta
ĠSc ar
S p
o g
Ġvole va
si ma
A sia
dio cesi
Ġmor ta
ĠCle mente
Ġscienti fica
Ġcres ci
Ġs esso
Ġseg nal
ĠWil d
y an
Ġf erito
B i
Ġprev edeva
ĠB ack
ro so
ĠEmi lio
ĠMili tare
Ġsacerdo te
Ġela bo
g enza
B ro
Ġcatto lico
ĠU go
Ġrealizza te
ĠGu ardia
Ġdefini ta
ĠSa v
C ome
Ġes per
ĠF os
ĠT od
a h
Ġcristi ana
en os
F ir
Ġoccas ioni
Ġcri tiche
Ġsl alom
ura mente
y ama
Ġavven ture
ĠFel ice
b ir
f oro
Ġg all
Ġclassifica ti
ar to
m issione
Ġcon sole
ĠN ati
ot s
Ġir re
ĠG or
Ġpo tesse
Ġciascun o
ce ae
Ġb is
Ġco pertura
ĠPa v
vang el
Ġim per
Ġaccom pag
cra ina
ĠYe ar
Ġra dia
ĠLiv orno
Ġtem p
194 9
Ġtasti ere
er anno
Ġf la
B er
it ura
ti m
Ġcolle tti
Ġquotidi ano
Ġla tina
Ġfrequ enza
Ġscher mo
Ġconc lude
lop edia
Ġaff ari
inf luenza
Ġdisputa ta
Ġmor ale
Ġf as
Ġri gi
Ġint elle
Ġstan no
Ġass or
ĠIr landa
Ġom onimo
poli s
Ġvelo ce
Ġpresenta ta
os tra
Ġopera tivo
Ġpre zio
Ġno zze
ĠCamp ione
ĠMar s
C O
p la
Ġqu egli
W il
Ġlavor Ã²
Ġri a
u cazione
ĠL ie
th ers
r la
Ġdetta gli
ĠGi Ãł
tti co
ho use
Ġin nova
Ġr ing
Ġapp osi
Ġl os
Ġscon f
A P
m ed
Ġutilizza te
ĠFran Ã§ois
ĠFili pp
Ġori zz
U SA
Ġfond Ã²
ĠDisco grafia
Ġazi ende
Ġd anza
Ġb ul
Ġmin imo
R om
s tr
Ġco pia
ĠCon tro
Ġinfer iori
ia re
m be
ĠK on
Ġdenomina to
Ġra gg
ec ento
ten d
g imento
ĠRi ver
ĠM ig
ĠMo ri
ord io
ĠA y
Ġcondanna to
Ġmate matica
er ne
Ġmili ardi
ub le
" :
Ġlega te
Ġtar do
ĠS tor
du cia
Ġ /
ĠC un
ili a
cer to
Ġb ilan
ĠS ass
ĠTe ch
os pedale
Ġ18 60
Ġ emo
Ġs erata
Ġtor nei
ĠB ald
k ar
ĠFer n
v ice
ing ere
eg as
Ġricon osc
and r
Ġ8 9
ĠP ino
Ġperi fer
Ġsub ent
Ġsp ar
un sero
Ġca tego
Ġdiven uto
Ġriman ere
ĠPa via
E le
Ġs anta
co lari
Ġcomp osti
ĠEn zo
Ġreligio si
Ġpiatta forma
Ġad at
Ġprogramma zione
Ġinter ne
Ġaustria co
Ġesp lo
Ġfir mato
vent us
Ġtasti era
Ġsvizz ero
ĠF rat
Ġma ga
Ï Ĥ
Ġa pertura
194 3
ĠT ag
Ġcontrib uto
Ġca ra
un der
Ġd ar
ĠAr civescovo
D S
Ï Ħ
un iores
I A
Ġdic endo
ĠG ua
is hi
Ġconf igura
Ġterre moto
Ġfortun a
19 40
p ino
194 8
Ġpron uncia
ona ti
ĠPro du
Ġpri gione
b rano
os ess
ĠK elly
c la
tan e
Å Ļ
S tu
pi Ã¹
ĠMed ici
Ġass istente
pi de
Ġins er
Ġra ggio
Ġpre da
Ġspa zi
Ġciascun a
D urata
Ġsu ff
Ġra zza
Ġipo ti
ĠK al
f in
Ġtem por
Ġvet ture
ĠAca dem
Ġ190 4
Ġf ondi
Ġdec ennio
en ario
z ona
Ġus ando
P r
ĠMar che
O ne
el ig
an im
visi Ã³n
Ġrin uncia
ile y
Ġbamb ina
ĠDi e
ĠS ic
ĠF ire
Mil ano
ani mazione
Ġto p
Ġconsi gliere
C C
A c
Ï ģ
Ġsuccesso re
Ġem erg
Ġdesider io
ĠM un
ĠRicon osci
ĠRe ale
Ġra gioni
Ġcons ent
v ente
ri ck
ĠSo li
ci pa
ĠChia ra
ani e
Ġfores ta
ĠDa ve
ĠSigno re
ĠB ella
ĠB ull
ck er
ed Ã¬
Ġsele zione
ĠMedio evo
ĠCo le
Ġ9 4
Ġfron ti
Ġg enti
ni ght
Ġri dotto
Ġrappresent ante
ina udi
Ġg es
''''' ,
ĠK id
Ġapp a
Ġstatu e
res co
Ġgra di
alizza zione
atten zione
os amente
ĠVol ume
Ġtrasforma zione
van ia
Ġri duzione
Ġchi usa
all one
Ġra mi
Ġc ane
ĠMar ch
ĠRos so
ĠBe at
Ġgio cÃ²
tra ccia
Ġm il
Ġradio fon
Ġspeci fico
Ġfar lo
ĠK la
Ġcam pagne
Da vid
Ġag enti
E D
ĠH ome
Ġucci de
Ġcomun emente
ĠC S
egn Ã²
Ġan dato
Ġtra g
Ġes ig
e voluzione
ĠLe op
val lo
Ġperio di
K e
Ġconfer mato
Ġsol di
Ġle one
Ġcon g
Ġforte zza
'' ".
E li
Ġriv esti
ch im
Ġapp artiene
Ġdichiar Ã²
ĠW ol
un ione
Ġten ne
Ġos pedale
ĠH D
pi do
Ġfos sili
ĠCan ale
Ġmeto di
oc lip
Ġperf etta
Ġspieg a
ĠClar k
ha w
mi e
Ġprepa razione
Ġp ano
Ġsan tuario
w ig
ĠJon athan
ĠS y
Ġd enti
p to
d Ã©
Ġde bole
Ġ Ã©
Ġstudia re
ch in
Ġcer cando
Ġabbandon are
ĠDu ca
m inale
Ġbre vi
Ġsor mon
Ġam iche
Ġconserva zione
ĠEs so
ĠMi x
ĠMa i
Ġpes anti
Ġsupp or
Ġinter vento
Ġ ib
Ġbri ll
Ġdis tur
d etto
edi e
Ġli cenza
Ġdov rebbe
stra da
ĠBartol omeo
go lari
Ã ½
m ere
er ve
Ġnat ale
t ente
ĠB oni
Ġporto ghese
c elle
Ġeseg uito
Ġpri vil
Ġaccompagna to
ĠSan remo
Ġco ppie
ond ere
Ġforni re
Ġinver nali
ĠMil an
Ġconosc ere
Ġpalla canestro
ĠEn g
Ġfeder ale
Ġal tezza
Ri torno
z ina
Ġdeter min
Ġdescri ve
ĠN ich
Ġacqu is
cri tti
Ġcontinu are
Ġdis corso
ur nal
ĠDi f
Ġdes ign
c arono
olle y
us ton
Ġmusic al
Ġvaria bile
ĠTut te
pri lia
ĠCh an
ggia ti
Yo u
D isco
ĠPic tures
L ib
ri ana
Ġa umento
ĠGon z
Ġso tter
eg ua
gi ana
ru pp
ĠFlo rida
ĠAlessand ria
Ġ*'' '''
osi zioni
ĠBian ca
I L
h ol
Ġc eduto
Ġes empi
ĠD ub
go le
Ġval uta
ĠA th
Ġsf u
Ġsi ti
S il
for za
ĠS ystem
Ġinter essi
ĠJ ason
ĠOli ver
Ġimp rese
ĠPo wer
Ġver si
Ġriusci rono
Ġp end
ran ge
am er
ĠSam uel
ci rca
Ġfo otball
ĠCro ss
Ġelettri co
qu ista
Ġru g
ĠF ame
b s
fran co
Ġcomp or
Ġdisting u
Ġf iam
Ã¤ n
u al
Ġclassifica to
ĠFried rich
A quila
ud ia
Ġli c
Ġprog ettato
t enti
Ġos pit
Ġte tto
as tica
Ġcristi ani
194 7
ĠP Ã©
ĠJ ordan
Ġcilind ri
Ġprec is
c re
Ġgior nali
Ġ igno
Ġchi rur
i va
Ġopp ortun
y es
ĠL ight
Giovan ni
C i
H z
tain ment
si e
Ġper dere
Ġmus ul
Ġris ali
Ġm ul
Ġbas a
ĠM it
M od
ĠM Ã©
s in
v ico
Ġg a
Ġan alisi
Ġsc and
c tor
H er
Ġg amma
Ġar rangia
Ġdo ttr
Ġdis per
P ar
194 6
Ġg el
ĠB rand
ĠE van
ĠP ir
Ġrelati vi
Ġfamili ari
Ġmer ci
Ġintro d
I T
Ġgu ar
19 36
Ġcomm issario
ĠCamp ioni
ans as
pi ra
up ero
G eo
ĠVi k
Ġb org
Ġchim ica
ĠSal erno
S anta
ĠPor t
ĠW er
E gitto
ĠJ i
ĠBern ardo
Ġg hi
tec tive
ĠS con
Ġmac chine
gi bile
ĠCris tina
ĠSu dafrica
ĠZ h
Ġqualifica zioni
Ġri tratto
ĠG la
Ġblo cco
Ġd ens
ĠV ill
Ġele vata
Ġmas chio
tor ali
alo gia
B S
ĠBow l
Ġon line
ĠSh er
'' ",
Ġelim inato
Ġlar ghe
B l
Ġconsegu ente
Ġrappresent anti
Ġtor rente
Ġinter c
ĠM ill
Ġ190 3
Ġm uta
ĠI o
Ġ zo
ĠP esca
eff etto
Ġcambia re
ĠL ud
Ġja zz
Ġmag ne
ĠCas e
Ġcinemato grafica
Ġtip ica
Ġun ita
Ġcomm emo
Ġmat tina
ĠAl ta
Ġterres tre
Å Ħ
f eld
ĠSt ella
ĠA qu
Ġprodu ce
Ġdi vinitÃł
ch an
cor re
Ġri si
trib uzione
Ġrius cito
Ġritro va
Ġris to
ĠPa ola
ta ggio
occupa zione
Ġsupera re
Å Ł
em an
ĠCorpo ration
sta gione
dal ena
ĠSara h
N el
ĠT it
Pa ul
Ġf inisce
Ġ io
Ġcon o
u fficio
Ġv asta
G C
et tura
ĠSyd ney
ac co
Ġpun tate
ĠReg ia
ella te
Ġlabora torio
us h
en cia
v ana
Ġcor ris
Ġvic ini
Ġconfer ma
m bo
ĠL en
ĠDi visiÃ³n
ri glia
ĠLet ter
G a
s et
ĠSo und
Ġp etro
es chi
L ato
ĠEle c
d ini
ĠF ol
resci allo
Ġper si
ĠCostantino poli
Ã ¯
194 2
Ġg la
he ad
19 20
Ġpot enti
Ġconsidera ti
B at
Ġcomprende va
Ġ19 01
Ġspa ziale
ĠCamb ridge
mina to
pa ggio
ria to
Ġamici zia
Ġabb at
Ġse para
S quad
I sola
Ġp ato
Ġgui dato
Ġele vato
ano va
r ina
Ġipo tesi
Ġcon soli
ce i
Ġa ria
mon t
ĠA pol
Ġm itra
ĠG T
ing en
ĠChristo pher
Ġco raggio
Ġsorp resa
T ro
m entale
Ġricor dare
vo ri
Ġd olore
Ġmessa ggio
ĠAi res
" ;
ster dam
do ve
Ġcaval li
ĠGari baldi
Ġdiv or
ter na
ĠCom o
Ġmus iche
Ġmeccan ica
ĠS Ã©
ĠO vest
Ġester na
mo ra
Ġindivid ui
Ġgi unge
Ġconta va
p arti
emi x
tre tta
M as
ĠB lan
Ġ190 2
Ġproc la
Sin golare
Ġstrani eri
Ġpar l
ĠP F
ĠRuss ell
se a
Ġper dite
ru zione
Ġprop osito
ĠMat the
G ui
Ġda te
Ġfran chi
Ġatten zione
Ġdiventa ta
Ġed itrice
Ġ ka
ĠI stituto
Ġcavali ere
Ġdest ino
ĠMo ore
Ġrim asta
ck y
ĠDu omo
Ġleg ale
Ġpor tano
ma d
Ġins eg
es ordio
Ġter reni
Ġu tile
all er
Ġinda gini
Ġcesti sta
N i
ĠPu glia
D ue
ĠB elle
P ers
z oni
Ġcostella zione
Ġrappresenta ta
ĠC olo
to s
Ġnot tur
Ġproc ura
cca re
Ġvir tÃ¹
ess ion
Ġmone te
H onda
Ġcri min
cun o
uss ione
M iss
imp resa
Ġge omet
C os
Ġricon os
Ġimp ossi
col Ã²
ĠPra ga
Ġven detta
Ġos si
Ġins erita
ĠC ile
ĠSe a
Ġall esti
Ġlar ga
ĠN ad
Ġleg itti
ĠInstitu te
ent in
Ġmin er
Ġparti ti
Ġli bre
x y
I M
T ot
à ¤
Ġre ttan
lo ad
Ġrip rende
Ġraggiung endo
Ġle ttura
19 38
ĠDip artimento
ĠR et
Ġb ic
Ġa di
Ġistitu zioni
B en
ĠGra m
f re
ĠF iat
ani ma
194 1
Ġinca rico
ĠF em
Ġb occa
ĠA f
Ġrifug io
ĠCapp ella
Ġbel ga
Ġcons er
ĠBe ach
ĠA h
ĠNova ra
Ġad ia
Ġindipend enti
immag ini
f red
Ġeconom iche
Ġistitu ito
te o
se o
Ġconquista re
ĠK le
Ġgui data
V ene
Ġprof ilo
ĠAd riano
Ġco gn
ho u
Ġ18 48
Ġfed eli
ĠCol onna
Ġarche ologici
19 16
Ġedi tore
Ġsempli ci
Ġrient ra
Ġt v
Ġ13 0
ĠChar lie
Ġnos tra
ĠColum bia
ĠSci enze
ĠE inaudi
Ġcor se
Ġtra guardo
Ġes er
s ioni
Ġli mit
Ġde putato
Ġat tuali
emp io
Ġcatego rie
ĠCent ral
ĠT ig
ĠTer za
fam iglia
k el
L C
ar ne
Ġri viste
Ġnos tro
Ġy ard
am iche
ĠK ris
ĠAlf redo
ĠCul tura
p est
ĠCamp ania
Ġ10 5
Ġpermet tere
Ġtrasfer ta
ĠH ong
p el
ri torno
Ġug uale
Ġaltre t
Ġsos tiene
Ġsp onsor
ĠPar t
indi pendenza
ĠC N
eri enze
Ġcorrispond ente
Ã© ra
ĠGre at
Ġeffettu are
Ġspagno li
Ġb allo
gra zione
Ġapp assion
Ġim pianto
r re
ĠL ine
Ġcas al
Ġintelle t
us so
ĠR ol
Ġp ale
Ch ar
Ġdiscip lina
ĠLa ke
19 37
Ġs ani
ĠC it
gam ente
Ġdedic Ã²
Ġtrasferi ta
Ġri tar
Ġfac ile
Ġforma zioni
ĠS uo
ĠK am
ĠH and
ĠCas tell
19 35
ĠN ig
ĠOr gani
ĠF C
Ġperson ali
Ġpar zialmente
ĠGian carlo
Ġvi g
Ġsottos pecie
ĠM id
Ġsegu Ã¬
Ġcontra sto
Ġcav alleria
Ġcomple tato
Ġscamb io
Ġti ll
Ġa gi
Ġrelati ve
par to
ĠRiconosci menti
ven ne
Ġar m
Ġli g
Ġoccid entali
ang u
Ġec ce
Ġul teriore
Ġgiudi zio
tes to
ĠA ga
ĠR eno
b os
Ġt ensione
c is
ĠB ron
ĠS era
Ã¤ r
Ġcorris pon
Ġa pr
f ice
ten sione
Ġc ra
e vano
Ġpubbli che
Ġdi viene
Ġseg n
' m
Ġent rato
ĠOri ente
ĠBar b
ĠDe ad
ĠStef an
Ġis lam
Ġm u
Ġt anti
An d
ĠMo on
Ġs asso
Ġci viltÃł
ve zza
Ġs ab
Ġvi gore
Ġraff or
in verno
ali zione
T op
bietti vi
anti c
Ġfra se
inf anzia
d om
ĠEnter tainment
Ġtenta tivi
à ¸
Ġsu ona
Ġsegu endo
ĠAr te
Ġatle ti
ra mi
F I
ĠSin golare
a ggi
de a
J u
z ine
Ġfalli mento
Ġnote volmente
r ne
ĠE mma
b ino
L ar
Î µ
D C
Ġcon ven
ten ente
ĠSal to
Ġcoinvol to
ĠMar si
ĠBar ry
ĠFi eld
ĠC res
bo urne
amp e
Ġcele bri
ĠU CL
Ġguada gna
ĠB et
Ġvinc itrice
le tte
a ereo
ĠW y
Ġp ena
i i
al bero
ĠM eg
Ġdiffer enze
Ġnucle are
b ase
Ġn omin
s itÃł
B M
n ese
Ġar mato
la tion
orr or
itali ano
Ġat tre
ni ta
ĠF ro
L eg
Ġsegre ti
om icidio
ĠCon tin
ĠN ero
Ġarri vo
m und
Ġvi vono
Ġdi menti
Ġde putati
Ġacc ol
Ġfi umi
bo x
Ġcre de
Ġprofession ista
ĠF le
ĠSh in
p he
Ġrappres entano
an c
ĠSer ge
Ġfi la
ĠCan ton
g ran
ĠM ino
Ġelet tron
Ġch io
Ġlater ale
Ġco ppa
Ġconquista to
ĠRaffa ele
ĠL ast
A ustralia
ĠL ista
Ġven ire
Ġ0 4
Ġno bil
Ġqu at
ĠCor ona
ather ine
itt ente
es ecuzione
ĠM uss
ga ra
Stati on
Ġsa ggio
Ġfi ducia
. ).
Ġl omb
Ġdove vano
Ġem er
Ġinsegn ante
tili tÃł
ĠO ver
ck s
Ġspetta tori
Ġpes ce
19 18
R ed
Ġil leg
Ġco ppe
ĠVinc ent
Ġorizz on
ti me
ĠM itch
ĠI mpero
ĠBo ys
Ġsca pp
g ionale
es is
Ġâ ĪĴ
19 34
ĠF eli
ĠMas ter
ras trutture
vin colato
ĠAcadem y
Ġso ggior
ĠPremi er
Ġtotal mente
Ġviss uto
Ġdefini tivo
Ġsco prire
il et
ĠF all
ĠAmministra zione
B ri
Ġn eri
app ro
C at
Ġca da
Ġte xt
ena tori
âĢ ł
Ġber sa
Ġaumenta re
er os
Ġpo esie
Ġpensa re
es el
la va
Ġrec upero
r utta
lo va
uni verso
ĀĀĀĀĀĀĀĀ ĀĀĀĀĀĀĀĀ
Ġgu ardi
Ġsosten uto
Ġri ven
Ġclassifica te
ver Ãł
O ri
T M
Ġidenti tÃł
et re
Ġarchite ttura
ĠH ugh
ĠO k
ur ano
Ġveg et
Ġlun a
Ġc lan
ve gli
use i
Ġinizia ta
ĠNi kola
vie w
ĠVi etnam
ĠMa estro
ico la
Ä Ľ
ĠF un
ot el
fic ano
Ġes istente
endo la
Ġpo dio
Ġsetti mo
Ġospi te
ĠU K
Ġcostr uiti
Ġc ento
Ġnecessa ria
oni e
Ġ0 3
ĠW ind
Ġlimi ti
ĠPasqu ale
ĠH um
Ġins etti
Ġ18 0
Es ercito
ĠS L
ante s
ber ti
Ġprossi mitÃł
Ġdi agn
Ġpri vati
Ġrecupera re
shi p
ĠMia mi
ĠGar y
Ġp esi
ĠA bra
ĠM ura
ĠM organ
Ġaff id
ĠE va
ĠG ino
ĠEdi zione
ĠR ang
R ic
Soci etÃł
ĠH on
Ġstra dale
forma zione
Ġcambia mento
impor tanza
Ġbar one
Ġfigli e
ĠVi to
Ġar ro
Ġevid ente
Ġtestimoni anza
alizza re
Ġcinemato grafico
ĠPers onaggi
tt Ã²
gg ono
Ġarti colo
w asaki
19 30
Ġca use
ing lese
Ġri forni
Ġ189 5
S t
ĠMi ra
ĠSc ala
Ġar bit
ĠGeorg ia
d an
to m
Ġproba bile
v edi
Ġsc udo
mi la
ĠR un
Ġcalc istica
ĠBan ca
Ġpazi enti
ĠCar ter
era tion
ĠI an
ga ria
Ġdotto r
ci di
Ġri pa
Ġg rosso
va ri
l ess
Ġelettr onica
Ġfem mina
t ona
ol es
ĠMeda glia
t rando
Ġf lusso
Ġinaug urato
' .
j amin
Ġvideogio chi
Ġfac oltÃł
Ġcin esi
n io
Ġfat tori
pieg o
Ġan te
Ġdov rÃł
end one
ĠDe v
mos fera
Ġdiri ge
Ġ189 8
ĠAl lo
ĠVic toria
Ġm isto
gli enza
Ġdimostra to
Ġer etta
Ġlavora tori
Ġseg ni
ĠVec chio
O l
Ġricor do
Ġinten de
uman itÃł
Ġmod ella
Ġpubblica zioni
ut ando
Ġp ul
Ġri dotta
Ġsoddis f
N omination
Ġcapi re
Ġpar ente
ĠJer ry
ĠCor n
Ġper dendo
ĠMo ra
Ġconfron to
Ġtran ne
e pi
Ġstabil Ã¬
to p
il s
Ġm ito
rac usa
ci Ã³n
ass ass
ĠC R
Ġesp erienze
Ġtele f
Ġ189 0
Ġbat tendo
ĠC O
os h
Ġeseg uita
ĠD OC
ĠHer bert
ĠG ine
ĠL lo
ĠG ale
ali e
hi e
I t
v arsi
Ã ®
Ġess eri
Ġconc lusione
Ġfin estra
ĠCo oper
Ġmis ure
Ġtor nato
ĠPa per
ĠG ames
Ġcontrol lare
Ġin telli
Ġsper anza
ver se
T erra
Ġbritann iche
Ġde vo
Ġag ente
ĠK Ã¶
Ġcug ino
ĠAr ts
Ġfin estre
Ġfantas cienza
pa ta
Ġchi use
c era
h al
Ġpre vista
Pre mi
Ġd ors
Ġsp ese
ĠPar ker
Ġva pore
Ġnote voli
Ġpra ticamente
Ġucci der
Ġvol uto
at ra
et z
ĠFri uli
dim ir
pre sidente
dic esimo
Ġstabili to
Ġrelati vo
Ġp on
Ġp ug
ĠAl tro
19 31
Ġb inari
Ġf ia
Ġ yo
Ġdecora zione
ĠPia cenza
c ura
Ġco inci
19 11
ggi ano
impor tante
ĠP etro
h on
9 00
Ġvec chi
Ġdiv entÃ²
ĠA ch
ĠGio catore
Gi useppe
p ali
za re
Ġcol lina
Ġgra fica
Ġt onn
ĠAm sterdam
Ġambienta ti
p ta
ĠB om
em is
Ġrid urre
ĠComun itÃł
P arti
ĠA gn
Ġad ulti
19 33
Ġfer mata
Ġsa cche
Ġalla r
g ruppo
in ess
Ġsa ga
ĠMer cedes
19 32
Ġdom anda
Ġstudia to
ffici ale
ĠMig uel
Ġmon tagne
Ġfini re
x elles
Ġaffin chÃ©
it ando
Ġdeci dono
Ġspor tivi
i tore
E G
Ġmin uto
er ma
Ġaffi dato
po ra
P ari
Ġresid enti
ĠAll enatore
Ġrin asci
oro ugh
r ell
Ġcan ali
un te
Ġprote ggere
Ġmo da
Ġto wn
zia ta
ĠPi ano
ĠF lor
Ġposi zion
americ ano
Ġes ecuti
ĠBu enos
19 17
Ġben ed
Ġir landese
ĠN omination
Ġcostu mi
y on
zia to
Ġsu pre
che z
Ġpoli zio
ro ri
âĢ ľ
Ġfasc ista
Ġperc en
shi re
ĠNel son
ĠTre viso
ĠBlu es
ĠIn sieme
Ġregg imento
por ti
gare t
Ġbian che
zz ino
ĠM eri
ĠBan k
ur go
cola ta
Ġproto tipo
Ġc ran
Ma ria
ĠBu da
Ġspetta coli
Ġcuc ina
g os
Ġv este
via mo
Ġorganizza zioni
Ġv ica
Ġlavo razione
ĠL ater
A li
ĠOlimpia de
Ġsu gg
g al
Ġtecn ici
Ġatte sa
Ġungher ese
Ġassum ere
Ġavversa ri
ĠM unici
Ġletter aria
Ġran go
194 4
Ġdep osi
ĠW ho
ĠCh er
Ġcambia menti
Ġg alleria
Ġcat alogo
an de
Ġcon dotti
di er
Ġscri tte
ĠHit ler
pi ro
Ġ186 1
T C
Ġoccupa to
ĠEug enio
gen ito
Ġattrib uito
to wn
ĠGiovan na
" '''
Ġpri va
Ġri uni
Ġform ano
ĠL im
ĠJ ess
ĠK re
ĠMon za
ĠDemocra zia
mo bile
ĠDe ut
esp ettatori
Ġqual unque
od ici
Ġsemi finali
Ġricor r
Ġasp etta
F ord
di ge
Ġeffettu ato
Ġann uale
Ġmiglia ia
org ano
P alazzo
Ġbelle zza
ett y
Ġpo poli
Ġlib erazione
W al
v oro
te cn
Ġt ende
ĠRa pp
Ġmed esimo
ere bbe
Ġsco zzese
ĠStudio s
ĠR ag
ĠFam iglia
Ġres p
ĠVis conti
ĠAl to
ĠS la
ĠB ass
ĠS erra
ĠRe pubbli
Ġsosten ere
ĠS lam
ĠH anno
Ġaposto lico
Ġmerc anti
p os
Ġprof ondo
inc ol
Ġschi er
ĠL isa
ym ond
Ġloc omo
Ġseg uita
Ġtra ma
B ig
ĠP t
se i
Ġesemp lare
za ga
igh ts
C ittÃł
Ġspor tive
Ġsa p
ĠHar ris
Ġriti rÃ²
Ø §
Ġreali zzÃ²
Ġtab ella
Ġsca ten
is so
Ġcir colare
Ġeseg uire
Ġv ed
Ġcatto lici
Ġdi batti
Ġdisc esa
g ici
Ġvide oclip
ĠRe ich
Ġing resso
ĠS tri
Ġam ica
ĠBas ilica
B ill
Ġadotta to
p etto
E m
ggi Ã²
Ġ18 70
Ġsco ppio
ci ale
ĠAr c
ĠLu cas
Ġnorm almente
Ġapplica zioni
ĠW oman
Ġmanifesta zioni
Ġsal vo
in anze
Ġav rÃł
ĠMon umenti
Ġimp rendi
Ġpse ud
equi paggio
Ġstrani ere
Ġnos tri
n d
Ġo tta
ĠL ug
E urope
Ġsper imenta
assa to
Franc esco
ul to
Ġprogetta zione
ĠB ud
Ġcompre si
Ġcan tata
Al essand
ĠChris t
Ġmona ci
ia ta
ĠL uogo
ec co
ĠBian chi
ĠBo bby
Ġdip l
ĠM and
ter ie
Ġde co
Ġin no
fer no
R ad
V illa
d etti
Ġorto d
Ġprop osto
an ello
ci ando
Ġcom anda
ĠEcc ellenza
For mazione
ĠN atur
Ġmo ri
era re
Ġvisi bili
Ġ189 6
Ġclass ici
ĠTi po
Ġve icolo
Ġruo te
b ine
Ġposs ed
ter si
ĠBe a
ĠC lasse
Ġin sta
Ġpes ci
Ġrimas ero
ĠG l
aut unno
ĠWay ne
eno re
w ald
Ġcer cÃ²
B est
ĠSte wart
ĠCostitu zione
Ġbo tan
ili brio
Ġv ar
Ġl Ãł
Ġri ass
ĠE ver
pon imo
ĠF r
Ġps ich
Ġd uo
Ġdistru ggere
Ġcri tici
ĠOr dine
Ġretroc essione
Ġl enta
o ke
ar l
em y
ri ere
ne a
Ġper formance
Ġrus si
n ico
Ġani mata
ĠRaven na
Ġm anager
19 19
ol ly
Ġraccol te
ĠH end
c s
li ght
A V
z one
Ġo biettivi
ĠCor rado
ĠJu ventus
v ard
Ġcri minale
Ġvari anti
ol lo
ĠSanti ago
Ġprofess ionale
Ġveli volo
Ġv etta
Ġar mati
ĠFor t
ĠSe i
Ġfe udo
Ġdens itÃł
Ġc ere
ĠK ings
eli qu
Ġbrasili ano
Ġnorveg ese
er te
Ġori entali
ĠM etropoli
Ġs varia
Ġmi tologia
ĠCompeti zioni
Ġes istenti
ĠGall es
ĠQue en
ĠMal ta
Ġspa ra
Ġcoll ana
ĠPo ichÃ©
ĠRos ario
Ġf atte
Ġprelim inare
ĠMo z
Ġespon enti
Ġma gia
Ġcol onia
pi razione
Ġsu fficiente
Ġperm ise
Ġfiloso fo
ĠD ion
ad y
ĠBer g
uc ch
Ġuni versitÃł
ĠRic ci
d ar
zz ar
b es
ĠEd die
hel m
D E
Ġmoto cic
Ġforn isce
ĠBas ket
Ġp istola
tu a
d ue
Ġmom enti
Ġrimp ia
S tra
u zzi
po ol
Ġcostr uite
Ġsf rutta
ĠPaci fico
ri al
Ġind is
Ġpa gamento
ĠMa ra
ĠMarsh all
Ġdec re
Ġv etro
i er
co ppa
Ġveg eta
di ale
bb ie
Ġospi ti
Ġre fer
ĠCar ra
ĠB ac
Ġpi ede
Ġnon no
gi orno
ĠSi racusa
Ġu b
o tti
Ġappari zione
vi glia
bo y
Ġsotto line
Ġaut on
Ġpresid enza
Ġrichi este
ĠGran t
Ġs esta
Ġsc orre
B I
ka i
ĠTor onto
Ġcavali eri
Ġterm inÃ²
Ġz ampe
Ġtradi zioni
Ġv ampi
Ġcostitu iscono
Ġdetermina to
ĠGi or
ĠVati cano
Ġstre ttamente
ula r
Ġscul tura
Ġri to
ĠQu indi
ĠBo ok
p y
Ġfores te
lica zione
Ġaggior nate
ĠTh or
Ġtratta va
F e
ĠUn gheria
Ġpri vo
Ġ oma
l la
ĠB ase
ipo tesi
Ġimpegna to
f io
sta r
val ente
egn ano
c risse
Ġer ede
Ġrappresenta re
Ġsuon are
ĠPo i
ugosla via
ĠB il
gi u
Ġav vocato
ĠAn cona
Ġpun te
ĠS yl
ilet tanti
Ġprof onda
Ġcomm ission
Ġut enti
ĠI T
Ġconsidera zione
Ġmalatti e
ur us
ĠCro azia
ĠCh ild
Ġrice vere
p t
ĠChar lo
Ġorganizza zione
Ġdecora zioni
on ic
ĠK or
Ġ*** *
ti ce
Ġdivis e
E p
lo v
Ġroman e
Ġparlam entare
Ġdistr utta
7 00
Ġgior nate
Ġti f
Ġrisol vere
Ġtraccia to
Ġpro lun
Ġpre ghi
Ġsos tanze
tr Ãł
ĠK y
Ġchi ude
tati on
Ġdip ende
ĠG ab
S am
ĠF itz
si m
Na zionale
an zi
j ect
Ġsche ma
bur gh
h at
Ġdis pera
ĠCin qu
Ġ18 80
ĠSebasti ano
ĠNa vy
Ġbon us
Ġsinte ti
ĠPhi lip
ed itÃł
is tori
b la
ga ri
B r
ĠVer so
arti colo
Ġurb ano
Ġ æ
ĠJos h
J PG
ĠIsab ella
Ġ uova
atri ci
bb a
d itÃł
Ġpes ca
ĠFa ir
li sh
Ġa fro
ĠLu cca
Ġsotter ran
Ġsvilupp are
bo ok
Ġcir cola
vil la
Ġaggi unta
Ġ189 9
ĠAdam s
ĠGabri el
Ġsac ra
ĠPlay Station
Ġcon ce
ĠW ars
ĠDe ath
Ġsuddi viso
au tori
ĠBer na
Ġro ves
Ġspiri tuale
ra eli
ĠG ot
Ġin ti
Ġconcent ra
Ġord inato
ĠA vi
hi r
Ġdiven nero
ono ra
ĠLe i
ĠTim es
Ġmar tire
Ġrep arti
ym ph
ĠBru xelles
ĠEd itrice
ĠDon ald
Ġpola cco
ĠHe in
ĠConfer ence
19 29
Ġmil anese
in itÃł
er lo
Ġsviluppa ta
ĠD ario
Ġbos chi
ĠCh urch
ĠGine vra
Ġindi etro
Ġqual cuno
Ã± o
Ġent rata
ĠBer lin
ĠGil bert
Ġend em
Ġri pri
Ġpopolari tÃł
Ġprodu ttori
Ġimp on
na ti
Ġfondam entali
ĠTar anto
Ĥ ¬
ĠPe chino
ĠDe an
Ġriman gono
Ġdef inisce
Ġcentina ia
Äģ n
V ita
Ġan zi
ri m
Ġfenom eni
Ġcambia to
Ġ189 7
Ġrichi ede
Ġser ve
Ġs ente
Ġfamili are
Ġdim issioni
Ġcontin uo
ĠL Ã©
Ġb it
Ġp one
ĠA posto
por re
ni er
ĠW ater
erra to
Ġord inÃ²
uo co
le tti
Ġcontin entali
ĠN ess
ĠBry an
ĠCon ti
Ġsc uro
ro me
du cendo
D el
ĠCo urt
ĠPa rad
Ġsostitu ire
ĠE th
Ġindividu ali
ĠP elle
ĠA S
ĠO ber
ri tto
ĠP ot
Ġrifi utÃ²
Ġro tta
ĠF ish
L P
g ang
we et
ĠN am
ĠWar ner
Ġartifici ale
ĠB ec
ĠTer zo
ĠSp ring
Ġdes erto
Ġv isse
Ġp ann
Ġmiglio rare
ĠO re
ĠFor tun
V ic
Ġriman endo
al ti
M P
Ġn etta
Ġsocc orso
Ġf ati
Ġve dova
ĠC l
ĠM oro
ala ta
G alleria
Ġsom mer
ĠV es
Ġim pri
ĠBri gata
Ġdi a
Ġobbli ga
Car lo
Ġacc um
etro it
Ġpo lem
Ġdi e
ĠJ ud
ĠZ i
- '''
ĠWh it
Ġimp ed
ĠLiber tÃł
ĠGi usti
Ġgra vemente
Ġvi te
ĠN er
Ġb us
Ġpotre bbero
ĠG allo
Ġgio cando
Ġattacca re
G irone
ĠMarc el
ĠLaw rence
ĠC ant
Ġel en
Ġsil enzio
di zioni
ĠRi p
ĠA ut
Ġc rona
Ġpor tati
Ġconvo cato
Ġsor elle
phi e
il er
Ġriv ale
ĠInter net
Ġstudi Ã²
Ġcomp one
E uro
Ġcogn ome
ĠP rato
ĠTer me
Ġsostitu ita
ĠD im
ĠBen jamin
Ġricor dato
Ġ188 9
S m
tt one
Ġdif endere
Ġpers ino
p ani
ĠCristi ana
Ġcorrispon de
tal lo
Ġcolla bor
Ġriten uto
ĠSemi finali
Ġcres cente
ĠF l
enzi almente
''' |
Ġmag istra
Ġpian ura
ĠD iam
b l
roso ft
Ġriti rata
ĠAl ess
c tions
h y
pa ri
% .
b ru
Ġgra tu
ĠNico las
ĠGre g
Ġbi zant
Ġj uniores
Ġm uni
Ġdiven endo
inter vista
incol n
u z
Ġpelle gr
ĠP ale
Ġs enatore
ĠRa ymond
ĠXX I
ĠParte cipa
ĠBroad way
al ph
Ġmone ta
Ġ189 3
ĠR S
ĠCla ude
Ġrisp ar
Ġesc l
Ġtonn ellate
ĠSil ver
Ġom osess
G B
ĠStra da
con to
S port
Ã© r
ĠFor za
erona utica
ppo la
Ġb ir
ĠPer Ã¹
uri tÃł
Ã¡ r
mos sa
Ġsceneggia tore
Ġschia vi
y ne
Ġmedi e
vol ution
Ġ10 2
ĠMar vel
19 27
Ġinc iso
Ġletter ario
Ġen orme
P ia
Ġdirig ente
ĠSta ff
Ġ189 4
ĠW inter
Ġb esti
Ġass enza
Ġucc isi
ĠB asso
Ġsal vezza
Ġris ca
Ġpor zione
Ġsol dato
Ġarri vato
Ġ3 50
Ġsal to
Ġcattura to
inci dente
l Ã¬
Ġasso ciato
ch itÃł
Ġgrig io
ĠPad re
etti vo
Ġecc essi
ĠA A
da va
ĠJane iro
Ġon de
isto ire
ĠCas tro
m edi
Ġmo tiva
Ġ16 0
Ġprend endo
A ra
ell en
ricol tura
tr um
Ġfed erazione
Ġdisposi tivo
Ġ* :
Ġimprov vis
Ġquat tor
Ġidenti fica
Ġa udio
Ġra dici
ĠColom bia
M ag
ĠStu art
Ġdiff use
ĠPre sid
du ca
u co
ĠMar tina
c en
ando la
ĠBol zano
D I
Ġrichi esto
ĠJ unior
Ġas tero
Ġriti rato
ĠTh at
Ġt enn
Ġdisc ussione
Ġacc edere
es imi
ĠNic colÃ²
ed erazione
Ġstra ti
L A
Ġo biettivo
Ġpres entÃ²
ĠFo ur
ĠA z
ĠMan s
Ġli re
Ġo li
19 21
Ñ ĥ
Ġclassifica zione
ĠComun ale
unta in
Ġven dite
Ġaggi unto
Ġconsegu enze
s ky
M ari
p ul
ch us
ÅĤ a
ĠRena ult
Ġpreci pi
americ ana
Ġs ba
fo re
mili ano
sa to
Ġ0 8
Ġc emento
Ġvic inanze
in etto
pi re
ĠSil vio
col ti
ĠE vento
Ġassocia zioni
Ġmaschi li
Ġrisal gono
Ġpazi ente
Ġpubbli cita
Ġsti ma
uri go
in troduzione
Ġvuo to
ĠMan chester
Ġtestimoni anze
Ġan ten
ĠGeorg es
a do
Ġa um
Ġel eg
Ġsupera to
Ġcom itato
Ġide ale
Ġinterpre tazione
Ġt entÃ²
Ġb ass
An data
Ġprof essione
S co
Ġtut ela
ĠT ali
ĠF AC
ĠBuda pest
cia zione
Ġvilla ggi
F u
Ġin ta
19 28
ĠHe ad
ĠD ami
ĠN FL
Ġeffetti vamente
tr Ã©
ĠF ontana
ĠMo unt
G ian
Ġli tri
Ġ14 0
ffici enza
ĠB j
Ra w
an k
un zio
S ch
Ġs fo
ĠW el
ĠGirl s
Ġ189 1
ĠCos worth
kov Ã¡
ĠWW E
t onda
ĠV ie
Ġpermet tendo
ĠAn s
ma ck
Ġfe at
ĠDe f
Ġv asto
Ġrivel ato
19 26
Ġregistra zioni
ĠDire ttore
A ni
ĠSu zuki
ĠNum ero
cc ini
Ġcre ando
Ġsitua zioni
Ġfrequ enti
m pe
Ġni ente
ĠR emix
Ġsc eno
ĠVir g
Ġri tra
ĠS ed
Ġd anese
At l
ĠP le
Ġe pi
Ġaffron ta
Ġcompag nie
Ġset tori
emis fero
Ġseg nato
ĠRi f
Ġtip ici
Ġ3 000
Ġprodu zioni
ĠWal ker
Ġinizi ano
Ġdest inata
ul le
Ġpa ci
ĠIn no
Ġospi tare
ĠGon zaga
ĠErn esto
ly mp
Ġplay off
Ġdipl oma
ĠâĢ ĺ
Ġsin gola
Ġsovie tico
19 22
Ġogn uno
M en
Ro y
Ġsos tanza
Ġcu pola
ĠV olley
P ol
ĠA us
Ġf uso
f el
R E
v ane
Ġco alizione
19 25
Ġris contra
Ġassegna ta
Ġsce gliere
Ġmon tu
ĠStan ley
am ici
Ġan trop
25 0
Ġmet allo
ĠFilipp ine
Ġ0 9
Ġchi edere
ĠJ es
ba y
ass ia
u ver
Ġconserva ta
ĠN BA
Ġb oss
Ġd orso
Ġingegn ere
w itz
Ġoccupa ta
ĠMuss olini
ĠMa gno
ĠCh art
le z
ĠGra y
Ġmanten ne
Ġer rore
Ġsenti menti
D io
tor ni
mi x
Ġquar anta
ĠMauri ce
g om
zz aro
Ġperman ente
ĠPro prio
Ġlimi tato
Ġre tti
cia ti
ĠV all
Ġpi emonte
Ġspeci fica
ensi ve
B ra
en berg
Ġacc usa
Geo grafia
pe i
ggia te
Ġteo rie
ĠT s
Ġmon ti
Ġre pubblica
aggi unta
uss emb
Ġsic uro
Ġsali ta
ĠSpeci al
Ġutili zzo
Ġgre ci
ĠDan ce
ĠSette cento
ce an
Ġpar lamento
Ġmet tendo
Ass emblea
ĠW im
via mente
ĠBM W
Ġric ordano
ĠMas ters
ĠGra ham
uten zione
ĠC P
id er
Ġsqu ali
vo ra
Ġeconom ici
Ġnasc osto
M ac
Ġrego lari
d ing
via to
ggia menti
V ir
Lo u
Ġim peratore
in esi
Ġdivis ioni
Ġin tanto
Ġm ill
Ġil lum
ĠW it
Ġcollabo rato
Ġrico perto
ĠPietro burgo
Ġnaz ista
alizza ti
Ġs en
Ġproba bilitÃł
ustrali an
Ġconsecuti ve
Ġgi unto
Ġdef in
Ġsta bile
ĠU dine
Ġcons u
Ġsu bi
Ġb ran
end s
Ġaccetta re
P lay
ĠGi ri
ass onomia
Ġf lu
ĠBian co
C ha
Ġlan ciato
ĠLu isa
Ġdu bbio
am mi
Ġner v
li che
ento re
Ġpoten ziale
id entitÃł
Ġconvin to
ic ino
ĠSil va
M r
Ġ188 5
Ġun dici
ĠAm bro
Ġincl usa
ĠParte cip
b ec
Ġpubblica te
Ġposi tivo
A lex
Ġ186 6
Ġto uch
Ir landa
zan tino
ĠSebasti an
Ġsu ss
Ġcomb usti
ĠBab y
M ich
Ġc ampion
ĠW es
ĠG ol
m bi
Ġpe ggio
ĠB ara
Ġs ant
th ing
Ġferrovia rio
Ġlibre tto
zzur ra
ĠSer bia
orig inale
Ġli tur
ĠV ari
ĠP isto
Ġsc orta
Ġintra p
Ġaffer mato
Ġpan china
Ġ12 8
d ette
kes pe
Ġtel espettatori
Ġb ro
ri es
ĠS tro
ĠJer sey
V ol
tis mo
P ala
he d
ĠUn ion
ag ente
Ġalterna tiva
Ġesordi to
ĠMic rosoft
ko va
Ġtempor ale
Ġsuddi visione
ĠPesca ra
ccia ta
ĠCe ca
ĠA ven
. :
ĠÅ ½
ĠPo polo
Ġang eli
Ġfir mÃ²
Ġdiffer ente
Ġterritori ale
Ġnavi gazione
per s
bini eri
Ġclassi fiche
Ġstaff etta
ĠVer de
Ġdebut tato
mon ica
ĠHo uston
ĠWe b
Ġmagn itudine
w al
ĠColom bo
k os
D ata
Ġas c
Ġal tra
ĠGu er
. ;
Ġcons umo
Ġdipend enti
Un gheria
ĠCa v
erci zio
Di zionario
Ġis raeli
Ġse zioni
ce vano
Ġvolon tari
con tri
av ventura
ĠJo han
esp ressione
ĠFur ono
Ġl ong
ĠBu ff
Ġro ccia
ĠGriff ith
du ci
est ino
V it
ĠClass ic
ĠEs si
Ġgiudi zia
ĠCir c
ĠUni te
Ġdoc ente
Ġpre occupa
Ġcent rali
ĠCristi ano
Ġscio gli
... ''
li te
ĠTe od
Ġide a
Ġpermet tono
Ġmar ti
Ġtrasferi rsi
Ġquesti oni
19 10
Ġp is
Ġmoder ne
ane a
ĠTom my
Ġdo tati
x on
Ġrec entemente
Ġeven tuali
Ġr eliqu
Ġ0 5
g us
Ġes ibi
ĠLi ke
Ġli ceo
Ġg usto
Ġincl udono
Ġfonda tori
! '',
ĠMon ica
rea k
Na poli
ĠMur ray
Ġesp l
n ella
ĠG ru
G rand
Ġistitu ita
Ġacus tica
ĠW ork
Ġtran qu
ĠVla dimir
ĠPa ce
Ġampia mente
ba ta
ĠAd ven
Ġric om
Ġpos teriori
alle anza
Ð ²
Ġfred do
ra ry
ĠF en
ĠS at
Ġri va
ĠCo p
Ġ __
ĠD rag
Ġautonom a
ĠD or
Ġpos tu
di an
Ġar mata
Ġtra dotto
C N
Ã °
Ġa per
Ġsigno ri
ri de
ro e
Ġcomun ista
Tot ale
ĠMatthe w
Ġnor me
Ġ0 6
ros sa
da g
Ġspeci alitÃł
Ġsca vi
Ġan z
Ġnego zio
Ã¨ ne
T O
ĠP etra
Ġper fe
ĠK ur
eo ple
Ġfram menti
r ena
ĠD anny
Ġom onima
Ġf eriti
cu it
enzia ti
ti de
Ġsu s
Ġcol pa
ĠW all
ĠMa ga
Ġgen ov
Ġcolle zion
Ġunivers ale
ĠR and
fis so
ĠJ un
ĠJa zz
ĠMer c
re tta
ia ti
Ġinsi gni
Ġpar tendo
ĠAng eli
ĠJaco b
Ġpa io
ĠRen Ã©
ana g
Ġcambi Ã²
Ġdisp utÃ²
zz oni
Al ta
ing endo
Ġseg nÃ²
19 23
Ġfran co
Ġt enore
Ġmili ta
on ese
ĠIndi ana
abi tato
Ġdeb utta
Ï ĥ
Ġ189 2
Ġpromuo vere
es tr
L ond
vie to
Ġv or
ĠMar ÃŃa
Ġmon umentale
Ġgaranti re
ladel phia
Ġdi d
Ġpa gare
ĠP ac
Ġspia ggia
ĠDi ana
ra q
co ck
ĠVa rese
ce a
ĠK un
Ġtess uto
ĠTemp io
Ġarchite tto
Mic hael
Ġpi las
ĠBat teria
Ġric ord
ĠLlo yd
onda zione
ĠBill board
ion a
ĠReg io
al th
ero e
Ġrim asti
zu ela
Ġmodi ficato
ĠAr chi
Ġarche ologico
Ġes tra
ĠGar c
ĠLec ce
e cc
an nata
Ġsta tus
udd h
Ġriconosci menti
Ġes tate
Ġsco pri
Ġaggiud ic
qu et
Ġdis astro
Ġvers ante
ĠG amb
M onte
Ġtr ent
Ġfed ele
ĠRa p
ras h
Ġinfortun io
L it
ĠMor te
Ġritira rsi
Ġlarghe zza
ĠEs istono
Ġospi tato
ing hi
Ġinvi Ã²
ĠRi voluzione
Ġis tru
issi mi
V II
Ġmasch era
Ġaff a
ĠLat ina
ĠI N
Ġlo go
ĠCh risti
om bi
ĠAtl anta
Ġman utenzione
las t
ĠP ere
ĠFAC up
alo ra
Ġaccus ato
Ġmostra to
ĠKa te
Ġ188 4
Ġcontin ente
Ġcompi ere
ĠS tal
Ġminis tri
Ġvertic ale
is er
ĠIni zia
an esi
ĠGer man
omp son
od es
Ġarri vano
t teri
Ġdetermina re
ĠW ag
Ġ10 3
ĠCamp bell
w ich
un ga
Ġesord io
ka wa
ĠBu ck
at tle
Ġmon umenti
k m
de i
c ul
Ġfed el
P ic
land esi
go b
ĠG Ã¶
ĠBa ker
ĠI gna
m entali
Ã« l
du zioni
Ġfe ud
Ġri val
Ġfr utti
ĠF ase
ĠR ig
ĠO h
M at
Ġprec isione
Ġguada gn
Ġval utazione
oni ere
estre mitÃł
io do
Ġrapp er
Ġcur va
ru denza
ffici enti
ĠDe i
ĠR em
Ġal bero
ĠZ urigo
Camp ione
acqu isto
Ġrista mpa
Ġa pri
Ġseg nando
Ġscar sa
Ġsovie tica
ĠLig uria
ur u
los ione
ĠN A
Ġori enta
ĠS ia
Ġcos cienza
ĠMad dalena
is crizione
Ġcor tile
Ġ188 2
enni fer
ĠDio cesi
Ġinca ricato
v enza
ici di
ĠMar garet
Ġani ma
Ġruo ta
ĠK r
g ol
Ġelim inare
ĠA G
Î »
ĠM ind
Ġsic uramente
ĠAl li
G old
Ġtemper ature
Ġ18 88
M el
Ġmodi fica
ĠD ri
Ġ10 6
Ġcap isce
M ario
id es
on ali
dic esima
en ia
Ġra ramente
ĠAr ms
autori tÃł
eg ato
pi ti
Ġbatta glie
Ġproprieta ri
ĠCoun ty
ĠAn cora
ass enza
ĠTur no
ĠC G
v etta
Ġconc luso
ĠAndre as
ĠH ell
Ġborg h
b ad
Ġimpedi re
Ġpi etre
Ġbrill ante
ggi ante
asso ciazione
Ġim pre
ar li
cic lopedia
ĠV ice
R S
ĠBo e
Un itÃł
Ġprofond amente
ch essa
Ġpercen tuale
Ġpo trÃł
per torio
ĠTa k
re tt
ĠC ia
mina ta
Ġde vas
ĠVal ley
T ur
for mi
Ġsepa razione
Ġrip arti
ĠAg ostino
p alitÃł
Ġ10 4
Ġel ico
chi esa
ĠF onti
Ġcos tretta
Vene zia
ca ri
tes sa
Ġpiazz amento
vi to
Pi erre
om bra
ĠBul garia
ĠG and
ĠT utto
Ġintro dotta
ta rie
D ani
st one
Ġappro fit
19 24
Ġveli voli
ĠK ath
ĠColle gio
ĠK an
ĠT es
Ġpaesa ggio
k k
Ġ Ê¿
Ġanni versario
ĠW right
Ġ0 7
ĠSu pp
Ġinter o
T I
Ġporti ere
al ba
ĠMe ta
ĠSum mer
ĠEvan s
Ġem i
Ġmeccan ismo
Ġimpri gion
ĠD NA
Ġsol uzioni
ĠEs pa
Ġri preso
Ġspeci fiche
ĠAc t
Ġmar ca
ter zo
ress ioni
all enatore
ki j
Ġotten uti
Ġsasso fono
ĠRa im
Ġmal va
Ġdedica ti
Ġacc ia
Ġim magine
ĠRim ini
Ġre perti
Ġsconf isse
ina rie
Ġcaus ato
Ġmed ici
ĠLar ry
ĠS inistra
Fran cia
g as
ĠAng ela
Ġsuper sti
Ġacc essi
ĠJ ugoslavia
Ġm isti
un ciato
Ġmo bile
Ġtrib unale
ĠM ys
ĠF ree
ĠJo urnal
ĠS it
Ġdi vide
P ara
Ġne w
Ġusa te
Ġcal endario
ĠMar in
Ġpassa ggi
eni x
Ġ188 1
Ġseg ui
Ã¡n dez
U E
Ġsovie tici
Ġb igli
Ġdramma tica
p at
ĠO ttavi
Al le
era te
Ġta glia
Ġcon v
ĠL incoln
Ġaposto lica
ĠV egas
ĠH ur
L os
li to
Ġgi ardini
Ġpresenta zione
Ġ188 7
Ġvir us
Ġne ve
Ġal t
Ġsp ontan
en go
Ġindustri ali
Ġm ille
i j
Ġripri st
ĠCol la
ten o
Ġser p
pen sa
ĠNin tendo
Ġconc esso
ĠTh ompson
ĠCharlo tte
c ch
AT O
Ġ18 59
ĠN ac
Ġpres ero
Ġassegna ti
Ġc essa
Ġan cor
ĠRus so
Ġal lievo
c ali
Ġliqui do
Ġrug by
ĠG enti
Ġsta vano
Ġfunzion amento
Sec ondo
Ġabb iano
Ġps ico
Ġci fra
el ati
Ġprecis amente
ign or
oc chio
ĠR oll
ag u
ĠK no
an us
u ba
Ġaffi da
ĠCar m
in y
ma tiche
Ġdisposi tivi
Ġdial etti
l ini
zz ina
ĠB ros
ĠSec ond
es ercizio
ĠO tta
Ġdoppia ta
ĠDal las
Ġv io
riti rato
Ġcre Ã²
ĠPa blo
ĠTer ry
ĠÃ ĸ
Ġcontad ini
Ġscel te
Ġgu ari
ssi mi
ro lo
Ġcom and
B el
Ġsp in
ana to
rat ona
ĠWil helm
Ġaggi unge
Ġci tata
op in
Ġso cio
ĠNa v
ĠEl li
Ġval or
O li
ĠSte mma
Ġper duto
ĠGarc ÃŃa
res to
ten s
Ġesp ansione
Ġimpossi bile
Ġconosci uti
ress ion
d one
ĠCor s
m era
Ġracco gliere
ber ger
om inale
Ġgi unta
Ġconcorr enti
Ġinaug urata
As socia
C E
l li
Ġna zion
z el
or m
tan bul
Ġvol er
Ġ11 1
ĠMar ti
Ġdro ga
Ġro tazione
ĠTi p
Ġinc lusi
Ġtras formato
ĠSpe zia
x el
ĠE ttore
Ġsconfi ggere
: :
Ġbatter ista
Ġterm in
ro poli
ĠM atti
Ġrivolu zion
Ġle zioni
ĠJu lia
Ġmitra gli
Ġ10 9
uel ta
kespe are
Ġot t
d ero
Ġb ib
Ġmanten endo
ĠGran di
Ġdottr ina
Ġ188 6
Ġpassa ti
ĠDe p
at tamente
V V
al di
Ġelet torali
Im peratore
Ġpseud onimo
ĠD omini
Ġtro feo
O h
Ġar ca
Ġappar entemente
Ġsatelli te
T R
ĠSi ria
ĠC lin
Ġ186 3
ĠApp le
ge o
Ġfidanza ta
ona te
me a
F er
Ġum ane
Ġcombatti menti
b ari
Ġtip icamente
ĠC atto
ĠD etroit
Ġterm inato
Ġsi gnor
ĠVo ti
ĠW TA
ra rio
Ġsin tesi
Ġscritto ri
g iche
Ġsci ol
W orld
Ġro cce
ĠGu inea
Ġ11 5
in en
Ġta sso
ĠAb d
vel and
che tti
ĠH as
Ġapp li
m essa
ĠAug ust
Ġcalo re
Ta xa
ĠK now
ĠAleks andr
Ġcono bbe
' "
el y
sa y
Ġin quad
is ia
Ġfat tore
Ġmari tti
Ġ7 00
Ġinizia re
ĠF on
Ġregistra re
ĠPhili ppe
Ġpri vate
m po
P A
ĠRi zzoli
Ġa zienda
Ġ10 7
Ġtes oro
ĠNew s
Ġfer ma
Ġlu ci
Ġrisol uzione
Ġcanta utore
Ġconfigura zione
Ġstre tta
ĠS cor
M al
Ġannun ciÃ²
ĠTerri torio
ela go
r ÃŃ
ĠEp isodi
Ġperman enza
zi Ã²
Ġf ul
Ġconqu istÃ²
lin es
Ġsconfit ti
Ġcostru zioni
ic ana
ĠFre der
Ġal lievi
mb ria
ĠMic hi
Ġtu rismo
ĠI sola
ĠT ib
ĠBa ch
Ġappro fon
M useo
ber go
Ġveri fica
a f
ĠJ ac
ĠR ie
Ġacc ordi
Ġfantas ma
ĠB BC
Ġdefini re
pres ente
O rig
it rici
Ġca de
Ġindica ta
vo ca
fa el
ĠV il
ĠH om
Ġs onda
bb re
ass alto
ĠL ion
Ġinver nale
Ġara bo
Ġcolle ghi
et tando
Ġbi zantino
Ġritro vati
ĠS as
ĠAr mata
Ġvol ere
Ġtra zione
Ġrivel Ã²
pi d
ĠY am
Ġritor nÃ²
ff Ã¨
Ġesp li
Ġmos tro
Ġc atted
Ġma ppa
Ġgiu ris
em ber
ĠPub lish
tic al
ĠKenn edy
ĠT wo
Ġscri ttrice
ĠEdi tion
Ġprigioni ero
ĠFor te
Ġh ard
ĠCam illo
ig ante
ĠSegre tario
Ġfis iche
ord ia
cca ta
idd le
re am
pp y
Ġmos trano
Ġ1 19
Ġcann one
el enco
ĠS per
ĠXX X
emb ri
Ġstabili re
Ġdisting ue
Ġrec Ã²
Ġincon trÃ²
L I
p sia
Ġre parto
ĠD ino
Ġnobil tÃł
Ġpro dotte
Ġp atto
Ġsvilupp Ã²
P eter
Ġsor te
ĠSpi rito
Ġalp ino
ensi vo
Ġsvol gere
ĠB eck
iss ero
Ġdi resse
tar lo
Ġri gore
vis e
ĠPh illi
ĠGall ery
dor f
i la
Ġsem brano
Ġcompi ti
ĠCapit ano
M igliore
ĠP el
Ġro ttura
o kie
Ġdo ver
Ġne oc
c ile
way s
ĠSlo ven
ĠM inn
ĠD ennis
Ch ris
Ġmete or
ĠAr m
Ġger man
Ġsperim entale
Ġg od
p ti
L uc
Ġnut ri
Ġsco perti
ĠS I
zza tore
Ġanz ichÃ©
ĠA R
gra ti
? )
is tando
Ġman uale
Ġmis sili
F onti
istitu zione
K o
Ġ3 60
Ġrip rend
im piego
ĠT ir
Ġris erve
Ġcor ti
ĠMitch ell
cor se
ĠM V
Ġstra to
Ġnem meno
yl vania
ĠR ug
ed s
Ġam b
ĠT ul
d ino
et teria
ĠCla udia
Ġtro pic
Ġcompar sa
ĠA gli
Ġbra ccia
ĠQu al
ĠRobin son
Ġtut t
ĠAd ria
tand osi
Ġm anti
ĠMo vie
Gi ro
x x
vol to
Ġdif ensore
G en
W A
ĠK urt
Ġdecis ero
ĠServi zio
ann el
ĠPu Ã²
ĠFin al
Ġminis tero
for t
ĠU tili
ĠM Ã¼
Ġpre dec
ĠFer r
m ers
J ack
ĠC A
ĠSpor tiva
Ġfin Ã¬
Ġinizia tiva
Ġmar gine
f asc
Ġper sa
Ġos sa
vo ce
ĠS Ã¡n
ĠMar tini
ĠR ati
ĠNa zionalitÃł
Ġcontrib uito
Ġaustria ca
ĠSp arta
Y amaha
A bb
f l
Ġpom eri
Ġrec ensioni
ĠSoci ale
Ġ186 2
Ġ18 75
Ġinsedia menti
Ġri tratti
Ġpro pag
Ġorganizza re
ko viÄĩ
esp ansione
ĠCru z
Ġn ic
ĠR ico
s v
ele y
ĠSu b
ĠSche da
ĠAga in
C S
ĠMac ed
ĠR oland
ens Ã¬
usti ce
F in
egu endo
ĠE ff
sta gioni
ĠCol onia
ĠNew ton
Ġcamp ana
el in
osa uri
re tto
Wh at
Ġb inario
ma tici
ĠRa in
ĠK ay
Ġsc ambi
Ġin de
Ġraccol ti
ĠNe il
Ġcad ere
or bita
Ġbiso gna
ĠSh ar
ĠFerro via
ĠSe an
ĠLu ke
ĠS chi
Ġer rori
Ġattrib uita
val le
n ar
Ġar ci
ĠG ala
Ġincor po
Ġesig enze
ĠMar occo
Ġom icidio
emb ro
Ġmat rice
C ampionato
at mosfera
asc ar
gg y
am miraglio
Se zione
ĠJohann es
Ġand ando
Ġquin dici
ĠR alph
ho p
Ġdec lino
Ġimpieg ati
Ġmis tero
Ġb ron
Ġam ante
Ġarti glieria
menta zione
Ġes a
Ġrifer imenti
ĠTr entino
ĠRe b
Ġstabili mento
S he
Ġben chÃ©
Ġte ologia
Ġfel ice
pu b
Ġoccup Ã²
Ġdichia razione
ĠR ice
Ġinf ini
Ġsc ol
omina ta
Ar mata
ne z
ĠPar ty
Ġsent enza
ura re
Ġ18 78
tter o
Ġtratta ti
ĠD ilettanti
Äį i
Ġde a
ĠSu pre
Ġinga ggiato
t d
Ġs ha
mon te
Ġmili one
ĠA rea
p eri
ĠAr my
Un der
H en
t tino
Ġel etti
ĠAn to
Ġposs ano
Ġviaggia tori
ra ce
Ġcos tretti
ĠMa k
ĠSch mi
Ġsegre ta
re tti
ĠD J
Ġener ge
Ro bert
ĠMassi miliano
Ġcel este
Ġbos co
amp ia
ĠLud wig
ev ali
acc usa
ĠOccid entale
Ġchia mate
ĠV end
Ġsetti ma
Ġdo wn
Ġin tu
ĠS ua
Ġta vole
ĠA L
Ġrisp onde
e z
amp ton
Ġnarra tiva
Ġauto bus
ĠJa pan
Ġcomposi zioni
Ġbri gata
Ġconta tti
p ina
Ġcandi dati
Ġg amb
ggi ando
ĠK as
tri c
rag ua
ĠN ino
P res
ĠSigno ra
Å¡ a
Ġdiscend enti
Ġpara d
Ġ11 2
Ġ10 8
ĠSo ul
Ġa prire
ĠNo w
na zione
Ġgesti re
ti op
ĠA ustin
ĠH ero
ba i
Ġdescri tta
ven uto
ĠA sti
ĠLeon ard
Ġan teriori
ä ¸
ĠK O
Ġaccompagna ta
ĠCa iro
Ġpen ale
ĠNet work
u ff
ĠVal erio
we ight
Ġterm inata
ĠQu ar
Ġproi etti
pet tore
Ġro ssi
og le
Ġt un
Ġf iore
Ġchi esto
ĠE rik
R osa
ĠC entre
vilu ppo
á¸ ¥
Ġchia ramente
Ġb las
ĠCon tra
Gu est
Ġappar so
Ġa cido
ur anti
Ġconc re
Ġconfer enza
Tor neo
G ia
di ana
isti to
ĠHar rison
ĠTa ka
ĠMo tors
Ġb ari
Ġconserva ti
Ġcompi uto
sa via
ver n
c ann
ĠHun ter
s io
) ===
Ġtrova vano
Ġfini to
Ġcontra sta
ĠHu go
ĠEconom ia
Ġproseg ue
Ġass iste
ĠGo ri
Ġcoloni e
Ġre quisi
Ġdi vid
zz eria
an esimo
Ġpat rio
Ger mania
Ġess enzialmente
Ġcele b
ĠSpor ts
Ġb ensÃ¬
Ġsopp resso
Ġproseg uire
ĠBo oks
ens on
ula zione
pi ani
ĠThe o
ĠItali ani
Ġraff red
graf i
Ġeffica ce
Ġsab ato
Ġdis tretti
Ġvali da
eg re
Ġse ggi
Ġvit tori
Ġauton omo
ĠSand ro
Ġispi razione
ĠM igliore
Ġg atto
Ġconsidera re
Ġb olla
ĠNo t
ĠS atur
va ra
Ġo pin
Ġrego larmente
Ġrend endo
menta re
Ġvesco vile
v esti
esso ri
ĠDu cato
Ġt ene
ica zione
bo ut
Ġm ie
d ano
di g
ccia to
ĠN acque
Ġar ra
ĠHe avy
ĠPhi ladelphia
ĠR as
p osizione
os lova
Ġsca cchi
ĠK han
k on
Ġta glio
Ġinizi ali
Ġnov itÃł
v aro
eg ra
ĠK ie
ul sione
Ġe tichetta
rand osi
ĠR Ã©
Ġimp ar
Ġconf essa
Ġassocia zione
v vero
ĠS C
c ta
g enti
ĠA M
C asa
tu ry
ĠD ir
ca va
Ġaffer mÃ²
AT A
zion ati
Ġos ser
Ġsoci eta
Ġfum etto
ĠE v
ĠCom uni
Ġtouch down
È Ľ
u ve
ĠM edi
Ġappa iono
Ġse ason
ĠFerro vie
Ġin cora
on imi
Fir enze
Ġs erial
Ġdest inati
Ġven ga
Ġdedic arsi
ĠD oro
at us
end um
Ġosta coli
A ragona
Ġsp inta
ta ssi
Ġr en
Ġesper imenti
Ġaff ili
ori entale
Ġtal ento
Ġoma ggio
Ġs ati
Ġpa v
ĠÂ« ''
Ġun isce
Ġal ban
Ġcad de
Ġbas si
Ġolimp ica
Ġmon as
Ġcura to
ĠF ly
Ġcer vello
chi esta
Ġind icano
s ylvania
Ġs edi
en cer
Ġca riche
ten i
ĠRe te
Ġbar occo
ina e
Ġriusci re
ede o
ĠIS O
a ppo
Ġris chi
Ġdi r
Ġb ord
Ġsac ro
edi to
Ġpen et
ing ham
Ġfe b
ĠOr lando
Ġam or
ĠSim p
Ġquarti eri
Ġaccredi tato
v Ã¬
ĠFor lÃ¬
Ġamministra tivo
con s
Ġ186 5
Ġca ta
Ġcontra d
ĠSha kespeare
ĠCavali ere
ĠBro ok
ĠN ostra
Ġsc ende
Ġcomp rese
Ġpart ner
Ġat ter
ĠW ith
Ġsim met
ĠRo th
Ġrilas ciato
Ġcollo cato
ĠP asc
Ġatle tica
u in
ĠP olo
A mb
ni g
Ġmanif es
r eria
ĠDy lan
Ġvaria zioni
A osta
Ġcons enso
Ġbu oni
Mar co
Ġabita zioni
ĠS li
era rio
Ġvic ine
Ġcom pagna
Ġm oni
on es
Ġriconosci uta
ĠApol lo
at su
ĠSci ence
ĠMos tra
Ġinca richi
R itra
et tore
peti zioni
Ġambi entato
vi ano
alizza te
ĠAn asta
ĠSe x
di es
ĠBo o
Ġstrate gia
V ari
ĠSp r
s erie
Ġc ens
ĠM S
ĠDo g
Ġaere e
Ġacc en
Ġlegg ero
Ġritorna re
Ġfu tura
ĠY an
Ġmon taggio
Ġb ur
Ġabb ond
ĠC are
R ich
Ġprov viso
k t
mp ere
ho f
Ġcit y
Ġa prÃ¬
Ġtecn ologie
Ġebra ico
Ġm essi
Ġsom igli
Ġpio ggia
ĠSuper coppa
Ġdeco rato
Ġes attamente
Ġdimostra re
o las
ccol ma
Ġsoci alista
" '',
ic ento
ĠC uore
ĠG am
Ġam mi
ed ucazione
ĠBo x
ĠM ina
Ġcomple tata
Ġforma ti
Ġdi cio
Ġsovra pp
mo la
Pri mo
ĠCham ber
Ġdisco grafico
Ġrettan golare
Ġro bot
c lo
Ġs essione
ĠB enn
ĠRu olo
K ing
u an
ĠF ig
Ġcir con
Ġfar Ãł
Ġ18 76
id en
Ġprop oste
Ġtri an
ent ine
Ġmed esima
ĠZ en
Ġbombard amento
Ġ18 71
Ġpers eg
Ġconc essione
tar ra
ĠE ag
Ġra zzi
n amenti
itali ana
Ġmi x
Ġdecis amente
Ġvesti to
ur ali
ing le
ĠNor m
Ġv edono
ĠCu ba
ĠCir cuit
zz arono
Ġadatta mento
Ġstrani ero
ĠL amb
ĠB ond
Ġelet tro
Ġes am
g irone
Ġv ille
Ġspa reggio
ĠAc qu
T r
ali zio
ĠE ri
Ġedi toriale
ĠAch ille
Ġd urÃ²
pi enza
P R
u lari
ĠArn old
ĠBat tle
C y
ĠD onna
ĠErn st
Ġtrasm issioni
ĠGo ff
odi erna
ĠSil ves
ar elli
egu imento
Ġconvin cere
ĠSan tuario
Ġbatta glione
Ġcostitu zionale
ĠMani f
u alitÃł
Ġattrib u
ĠC eci
15 0
Ġcran io
Ġpro ven
ĠFam ily
Ġcal do
Ġfra zioni
ĠVene zuela
ĠL ui
Ġcomb inazione
P C
Ġ186 7
ĠD ro
ĠColle ction
Ġviol on
Ġu fficio
Ġdim esso
ĠPr ussia
Ġw estern
Ġfun e
Ġpartecip ando
que z
Ġir ri
Ġdibatti to
J ames
ĠW ang
Ġros se
Ġs v
ĠSo cc
Uni vers
Ġconqu istando
Ġpron to
ĠNa ta
ĠA C
Ġti ra
A uto
etta ta
ĠMad re
Bl ue
Ġbo bina
ĠW ard
ĠJess ica
ĠK ansas
Ġsepa rati
Ġparall elo
Ġvol l
Ġponti ficio
Ġli ga
ussemb urgo
Ġro ccio
ĠK n
Ġfrequ entato
A qu
Ġin qu
Ġchia ra
p ero
ĠTod d
ĠA tta
Ġdo ppi
Sta gione
ĠMol te
Ġ á
man da
Ġ18 00
na re
Ġes ecuzione
Ġcolle gato
ĠFrank lin
Ġtem pera
fic ia
ĠE as
ĠFo to
Ġv olle
a quila
Ġcapito li
ĠA dige
lu ca
tim ologia
ing egn
Ġ18 79
Ġg inn
fic arsi
Ġripor tata
tu te
ĠV ista
d oro
Ġt on
eso ta
ĠCre ta
Ġpartecip ano
Ġg rano
ĠLetter atura
ĠI vano
Ġarri varono
ĠW alla
Ġacc ettÃ²
Ġricon quista
li se
ĠA ccademia
Ġsotti le
Ġsta re
Ġlib eri
Ġdep osito
ĠRober ts
G ro
Ġco perto
Ġtela io
Ġnomin Ã²
Ġcommemo ra
Ġcas sa
Ġatta ccato
Ġba ia
ĠV alo
Ġgi ra
ĠVo ce
m arsi
ĠS oc
ick s
Ġero i
ĠC E
fa ci
1 20
Ġfer mare
D A
ĠGu ardi
Ġent rando
Ġre mix
atti vo
ir s
ĠRi ta
Ġotten uta
ĠC C
Ġricor di
Ġj o
ers en
Ġlavor ando
ĠMemo rial
U r
ĠM essa
ĠOr der
ar ini
Ġvoc ali
M in
ĠBer t
Ġta volo
Ġcol pevole
Ġdif ese
ter nita
Ġpia tto
ĠV era
Ġaustria ci
Ġsfor zi
Ġc ub
ĠPar ro
ĠCla y
Ġk W
cip elago
ĠF at
ĠMa ggio
ĠAir lines
vis ioni
ĠK ol
ĠNicol Ã²
or ra
ĠBor bone
Ġtend enza
Ġastr onom
Ġtra m
ĠVar savia
S anti
u ati
ĠE t
ĠDe vil
ĠCre mona
Ġre pertorio
Ġincon trano
ĠC enni
ĠGre gor
ĠRod olfo
el or
Ġabband onata
B as
Ġsettiman ale
Ġaus ili
Ġpart Ã¬
Ġdiven uta
Ġabb re
Ġdu cato
Ġpro ie
Ġes perti
Ġtele fon
mack Down
Ġricostr uita
ol ina
is ioni
ĠI ron
Ġ17 0
o ggetto
ĠB ed
ĠS z
Ġcontin entale
bur n
ĠDemocra tica
ĠPo p
Ġfin landese
Ġcittad inanza
Ġpos e
Ġla tte
j on
Ġrico gni
pp ure
Ġesecuti vo
di mento
ĠZ ona
ens tein
Ġsegn ala
ia o
R ai
Ġat mos
ĠR ally
Ġoff r
ena ta
Ġrifug i
Ġsa ggi
Ġrip rendere
ĠS istema
at ina
av vento
u en
Ġris ve
Ġaffres co
D as
g ui
ĠAr turo
Ġelim ina
appo ggio
Ġ11 4
Ġess er
Ġcircola zione
Ġraggi unta
Ġoland esi
corr ere
Ġtro viamo
Ġposs edeva
ta bile
ĠPos t
Do ppio
u zzo
ĠGian franco
ĠL Ã³
at on
k ers
ĠLing ua
Ġam pie
ĠSh ang
ĠA ki
ĠBatta glione
la d
Ġproc essione
Ġg ri
Ġgi uria
le ans
Lar en
ĠEng land
gli endo
ĠB rig
'') ;
Ġcontra bb
Ġfidanza to
Ġtrag edia
ĠAss unta
ent rato
Ġprov ved
Ġcal colo
ĠGi ud
Dis tribuzione
ver de
To ur
Ġopp osto
Ġprom essa
Ġcre ature
ĠJ ung
Ġgui dati
ĠPia zz
ĠStar s
Ġp anni
ĠPelle gr
Ġprima rie
ĠEss endo
D al
Ġra cchi
Ġletter almente
ĠP esi
Ġpreferi to
Ġ13 5
ĠF A
ĠF ras
ĠCar mine
Ġabbia mo
Ġvo li
ol an
Ġfl ui
ĠT hail
u ke
Ġpala zzi
ĠPer ry
ĠM ack
Ġcaratter istico
ĠF ight
ĠHar old
ĠReg ionale
Ġcard inali
ic us
ĠE ro
Ġp etto
off erta
ĠSÃ¡n chez
ĠWar ren
Ġdors ale
Ġ18 77
Ġtro mba
Ġvegeta zione
ĠJ ustin
Ġban de
a umento
B ad
Ġprop ose
M or
Ġpro stitu
Ġaffer mando
Ġsciogli mento
Ġlegam i
ĠPe te
Ġsco prono
ĠLan cio
Ġ eter
ĠJ ennifer
us sa
Ġ188 3
Ġr urale
is ten
Ġpec uli
Ġparti celle
g one
H i
h in
ĠSto ccolma
ĠMc K
Ġm ala
ĠC F
A ca
tal li
ucch ero
Ġavanza ta
abe to
Ġbilan cio
ĠC all
Ġassol uti
ĠNac ional
ĠJo an
ĠK ent
g un
sp ed
zia ti
Ġcresci uto
ib ilmente
Ġrisal enti
Ġim mi
ab side
Ġsfu ggi
w ic
Ġb alla
ĠS ag
rosse to
G M
en ico
Ġmanti ene
W ar
Ġt uo
Ġ186 4
ĠBlo od
ar chi
Ġprop ulso
anim ale
ĠAl g
Ġnati vi
Ġpubblica re
Ġmano vra
L uigi
s olo
um ero
Ġseconda ria
ĠAtti vitÃł
ĠR um
za to
ĠH ockey
Ġpla tino
ĠRa il
Ġamministra zione
Ġpola cca
ĠDra ft
Ġ enti
os tini
Ġra me
Ġter zi
Ġc enti
Ġcomp rom
Ġprofession isti
D ia
Ġesp osto
Ġconver ti
Ġpassa ta
Ġinteressa to
Ġe va
uta mente
ĠCol in
int ento
en ari
n arono
col lo
ĠAr mando
ĠS ony
assa ri
risp rudenza
Ġs tro
ar le
ĠOri entale
Ġrit mo
Ġeffettu ata
Ġc ed
Ġseg ua
Ġfla uto
Ġp lu
Ġcristi ano
Ġameric ane
Ġindi ano
Ġprend ono
ĠA N
u pe
Ġd ette
Ġpra tiche
Ġdig itali
ti pi
Ġesp lora
Ġ'' ''
ut t
ĠJaco po
Je an
sa ka
Ġrib atte
ĠHot el
Ġsu ici
ĠH ad
ĠGonz Ã¡
ĠLe gge
Ġforni to
ĠUn itÃł
Ġp all
ĠS os
Ġsotto posto
Ġmos se
Ġrin chi
Ġ18 50
Ġnego zi
Ġsupp lementa
Ġurb ana
Ġvali do
ĠCas ale
Ġav essero
Ġ9 00
anag ement
ĠAm y
ĠLin da
ĠL ussemburgo
gue z
Ġinedi ti
Ġimp egno
Ġsu icidio
Ġaccia io
ĠZ ero
ĠEdward s
Ġb ack
tri ca
Ritra tto
I mp
ta tore
T E
Ġper altro
Ġcomp rendere
P an
ĠB au
Ġcatted ra
Ġconcent razione
Ġass istenza
Ġcollo cata
Ġtu bo
Ġragg rupp
Ġfa cevano
ten a
ut ano
ĠSimp son
ĠÅ Į
Ġvendu ti
Ġpremia to
ĠE S
ĠIs tanbul
ĠD S
Ġscul ture
Ġcon na
te au
inc ro
Ġsposa ta
ĠL ione
ĠLeop oldo
ĠSp esso
ĠCo ur
Ġacc use
ĠLis bona
Arg entina
Ġrisali re
Ġsf era
Ġgeo grafica
n Ã©e
v ini
ĠW as
19 09
ĠN y
ho ven
Ġcrimin ali
Ġpre dica
Ġmini ma
Ġsal vata
ĠA mi
ĠM em
ĠVit torie
ĠEdi tori
da ri
fri ed
Ġsuddi visa
M ed
Ġm uti
fe at
Ġcre dere
Ġsosten itori
Ġmat tino
Ġchi es
Ġacc el
Ġfun er
Ġcan na
zz ante
ĠIn de
Ġbom ba
Ġ ..
Ġglo bale
ĠExp ress
R os
u es
Ã¨ res
Ġm era
Ġcali bro
Ġatti vi
ĠA prilia
ter y
ĠSp encer
Ġ*** **
Ġf ung
ĠG ir
ere k
ĠVin ce
Ġcostu me
A ir
o f
ĠGi ann
ĠH anna
Ġelim inata
Ġprima to
Ġrivol to
% ,
ĠSe attle
Ġun Ã¬
Ġli ti
Ġdin torni
ĠLa ure
Ġelim inazione
ar resto
Ġc ella
ĠIn n
Ġcri teri
ĠJo y
Ġ97 88
Ġapposi tamente
el f
Ġf oc
Ma x
ĠG olfo
la h
Ġtur co
Ġmor f
E sp
Ġappar ve
le tt
Ġcon versione
Ġtip ologia
Ġpreghi era
Ġur ban
Ġer etto
ĠLib ro
si mi
ĠLe vi
Ġpoe ma
ĠMon f
Ġi per
Ġosserva re
Ġinnamo rato
b et
ĠCh uck
Ġdiv entano
ĠBe atrice
Ġf Ã¼r
F ri
Ġesp ressione
mo uth
ĠRug by
Ġda vvero
zza tori
Ġd etti
ĠBi bbia
Ġ12 1
ĠBas ili
Ġintra pr
Ġf ib
ĠH os
Ġposi tiva
Ġpad rone
pp en
Ġsin tomi
e zione
ĠT as
Ġit alo
ĠGonzÃ¡ lez
ĠR ib
ass ero
Ġbo x
Ġde por
ello w
Ġpresbit ero
Ġeconom ia
Disco grafia
Ġtera pia
we en
Ġsf id
an ca
Ġalimenta re
Ġcomprend ente
Ġal a
ĠCle veland
ĠT ron
Ġes por
Ġcapp elle
Ġesp resso
ĠN eri
Ã¸ r
E mi
ĠFa bb
D ra
Ġform ale
Don ald
ĠG y
ĠCa pri
Ġderi vato
ĠColl ins
inis mo
uss ero
Ġ* "
ga wa
Ġingegn eria
Ġsorg ente
ĠA udi
ĠBe au
f ere
v edere
Ġs ag
Ġconc lus
ĠCar r
ĠTra ttato
Ġric chi
ĠGra ce
ĠHis tori
Ġrapi da
es tensione
Ġtradi mento
um b
Ġcli enti
Ġservi ta
Ġrin for
ci e
ĠN es
ver pool
ĠLÃ³ pez
Ġpo veri
u ka
Ġc ardia
gli sh
Ġcontem po
A G
ĠBona parte
ins egn
Ġc ani
n ell
Ġver te
Ġcomple tare
ĠF ine
Ġfarma co
Mus ic
ĠPr inc
do ra
Ġg ino
ĠGo ogle
ĠCom mer
Ġfavore vole
Ġcominci arono
gro und
go w
Ġcer tamente
Ġaver lo
ĠG las
Ġdef unto
Ġsostan zialmente
ar c
ĠCas t
Ġpun k
ĠBun des
ĠRe y
Ġdip arti
Ġpalla volo
ĠScon fit
Ġcontribu Ã¬
Ġ11 3
asci mento
ĠDen is
Ġdra go
Ġinc endio
Ġpref ettura
ĠSer vice
Ġanti s
Ġrisul tano
Ġes istenza
Ġco di
e vi
ĠC odice
Ġmassic cio
cra ft
Ġa mo
Ġim mobili
ĠBene vento
ĠEm ily
v elli
G ood
it te
Ã© mon
Ġrappresent anza
ĠWolf gang
os ia
ile a
Ġconsidera te
an go
ĠHe p
app ar
Ġm ission
ĠK it
Ġacc olto
H igh
Ġtran via
Ġpar lato
Ñ ı
ĠMet al
ĠSetti mana
Ġsco perte
Ġriconosc ere
ĠAl fa
ĠBern ardino
ĠCha p
Ġsed ic
ĠS ymph
ba bilmente
Ġes tiva
po i
Wil liam
ĠCinqu ecento
Ġpro ssimo
Ġte ste
ĠBu ca
Ġneoc lass
ĠM end
qu el
ĠD od
Ġcri mine
a gg
Ġparlam entari
ĠGard en
ĠRu ggero
ĠTor res
ĠEurope an
Ġtre dici
ble don
Ġo ut
Ġ11 7
Ġregistra ta
Ġopera re
ĠTh is
ic ale
Ġdedica te
ĠS cip
Ġfasc ismo
Ġecclesia stica
Ġ( âĢł
ĠTur ner
ĠSp ec
ĠUnivers al
ĠAm edeo
Ġmisterio so
N OT
v enta
ĠKe ith
Ġprosp ettiva
ĠA nato
Ġalle ato
Ġesten sione
Ġo ttavi
ĠPal ma
U omo
dag ascar
Ġna vali
Ġeffettu ate
ĠAug usta
Ġc ena
ĠMol to
Ġamministra tive
Ġto ss
Ġcirconda rio
Ġaddestra mento
Ġov viamente
ĠI g
ĠBro thers
Ġdisputa te
Ġcer cano
ĠM ang
ĠT enn
Ġcontinu itÃł
ĠGi ordano
Ġritro vato
Ġperson almente
ul teriore
ĠP s
ĠCa ccia
ĠSuper iore
ĠFran chi
ĠPo la
Ġopera i
Ġsess uali
Ġfronti era
a vanza
ĠA ran
ĠQu in
i dae
ĠM am
Ġa boli
Ġdiscend ente
Ġgi ura
res tia
Ġmanten uto
C H
Ul ti
Ġbas se
ĠFa ce
b ello
ĠRes istenza
Ð ¹
ĠSanti ssima
Ġeste so
ĠTech n
Ġcal da
Ġmiglio ra
Ca p
el emento
ĠHill s
ia di
Ġvaria bili
ĠT imo
Ġed uca
ĠPenn sylvania
l inea
ĠH els
Ġma resciallo
Ġtesti monia
Ġconsa pevole
Ġambi entale
ĠArti st
Ġpari tÃł
Ġ186 8
Ġver sa
ĠHein rich
ĠF esta
om me
ĠAless io
c to
Ġrass egna
fo ra
ĠBia gio
f r
is truzione
ĠAl ber
C ir
Ġpun i
ĠRa fael
zi g
tra s
ĠDa ys
pa tia
Ġpresso chÃ©
ris h
Ġpor re
B R
N or
ĠMari ano
ĠC uriositÃł
tu dine
Ġ18 49
ri go
ke e
Ġcorrispond enti
Ġco perta
ĠNan cy
Ġcad uti
Ġ11 6
g ina
ra i
tra to
Ġsti pu
Ġfranchi gia
ĠCor so
Ġcada vere
ĠMaga zine
ĠR uth
bert y
ĠSco tti
Ġ18 72
Ġpano rama
Tor ino
ĠCompeti zione
P D
Ġgiuris dizione
ĠH orn
Ġcam mino
Ġform almente
Ġ entitÃł
ĠOr leans
Ġag on
ĠW end
civ esco
a viazione
Ġd uro
Ġincontra re
Ġpat tu
dro me
Ġricche zza
Ġto l
ph on
Ġdom inante
is ero
ĠIn forma
Ġb atti
Ġord ina
G P
ĠRepubbli cano
Ķ Ģ
ĠSte in
ĠSloven ia
alo ghi
ven a
pe a
Ġban che
C re
tr ona
Ġparrocchi e
u ga
Ġpubbli citÃł
ĠMo ham
Ġmunici palitÃł
F am
ĠR elig
Ġan ello
Ġpre te
li x
ĠA ustralian
Ge orge
Ġespri me
Ġcon cezione
or go
Ġpresenta re
Ġripro d
ĠBos co
Ġ za
Ġg ay
ĠCh ang
Ġcolp isce
ĠTy pe
v ette
res te
Ġavvic in
Ġcen ter
A tti
ĠMar te
Ġcond urre
ĠMi k
in ia
tiop ia
Ġinfluenza to
ma t
Ġseg nali
Ġdeleg ato
Ġ2 20
Ġso gni
ĠC um
Ġass omma
Ġ etta
Ġcomp oste
tagon ista
olog ical
Ġcarb onio
du cono
gi Ã²
Ġsconosci uto
ĠR enzo
ĠWim bledon
gh en
Ġmolte pli
Ġesord isce
ca p
Ġav versario
d os
ĠR at
tro ppo
sv g
Ġsignifica tivo
Ġ( ),
ĠVal encia
Ġgesti to
ini zia
An no
ĠDon at
p ur
Ġme zza
Ġdeci mo
man s
Ġsco prÃ¬
ĠSlo va
Ġimpieg o
ĠC ristian
Ġarg entino
Ġraccol to
ĠS ib
Ġsoff er
ĠU FC
ĠPi an
pr endo
Ġline are
Ġing lo
ĠA cco
mina ti
Ġrego lamento
Ġbass ista
ĠS F
Ġspec chio
Ġma estri
f ilm
Ġnegati vo
Ġtenta to
Bill board
ĠW is
Ġracc om
ĠW he
Ġutili zzano
ĠGiusti zia
ul ta
Ġpa vimento
ĠRe yn
ĠH unt
t ele
Ġacc ettato
ad or
Ġprote ine
ĠG enn
Ġlibera re
le tto
ĠS po
Ġcorr enti
Ã¶ m
Ġsov rani
urre zione
Ġ18 73
Ġnorm ali
ĠLoc alitÃł
ĠD um
Ġgrande zza
P I
ĠMo untain
ĠCh annel
Ġfan ci
ĠM TV
Ġfoto grafie
Ġscapp are
Ġconosc enze
Ġrifi uto
Ġester ne
Ġqu e
cche tti
Ġnecessa rie
Ġinsedia mento
ĠS ad
Ġbas ate
ĠUni versi
ĠMc Laren
ĠTro phy
ĠBri tann
et ts
Ġto ponimo
Ġgen i
lina zione
ĠP am
ĠCarol ine
ĠQue ens
ĠPun teggio
b ald
in go
bb s
Ġcell ulare
Ġrad ar
NOT OC
ĠU N
on ici
''' -
Ġli gne
Ġreg isti
d ers
Ġed ili
Ġh orror
e co
um inio
Ġrinasci mentale
Ġspeci fici
1 000
Ġna vate
cche tto
Gio chi
Ġcontemporane i
che a
ĠIn dica
ĠFo re
Gran de
Ġavven imenti
Ġripro duzione
Ġf res
ĠE lio
Ġparente si
Ġm onaco
Ġcandi datura
tati vo
mp olino
Ġsom mitÃł
du ti
esti one
Ġsenti ero
ĠCra ig
Ġester i
Ġfarma ci
n era
ĠPes aro
Associa zione
ĠX a
men zionato
Ġdi alogo
ĠJ orge
Ġprogetta ta
zz etto
Ġmassi mi
Ġp le
Ġ18 74
Ġreci pro
Ġsco pi
Ġpresenta va
Ġfron tale
s vincolato
Ã³ r
ĠQu ad
Ï Ģ
ĠM ali
ĠH il
Ġdi let
Ð¾Ð ²
tr ong
Ġlegg eri
Ġmol ta
Ġassocia ta
Ġpomeri ggio
ĠCom ando
ĠCom mon
Ġucc ise
ĠMur phy
Ġcostitu ire
l s
ĠBoe ing
cann oniere
ĠG rig
e us
us hi
ue z
ide o
Ġdi ed
do u
land s
Ġletter arie
vo cazioni
ĠL ane
Ġ12 7
Ġli ste
Ġcontrib uti
Ġeser cita
Ġsvol gono
Ġargom enti
fic andosi
Ġ omo
ang er
min io
tu ti
as io
Ġtess uti
Ġcolle gata
ĠGen ere
Ġc ec
ĠSo p
Ġcolle ge
Ġinizia tive
Ġven er
ĠBel grado
Ġdramma tico
Ð ´
ag en
r li
Ġprovo ca
Ġabbandon Ã²
Ġperfetta mente
Ġ186 9
pro duzione
org ani
ĠNi k
Ġcontes sa
ĠSus an
ĠCon gregazione
ĠK in
Ġsub isce
Ġspet tro
ĠD ell
min ente
er ry
ĠKa wasaki
ĠM es
ril lo
Ġsoprann ome
oc itÃł
Ġden uncia
ĠT ara
Ġurb ani
Ġdel itto
ĠOr s
Ġcol line
Ġsopravviss uti
Ġconsenti re
Ġâ Ĥ¬
ĠC oro
Ġdi visi
as cita
Ġto mbe
Ġpal co
Ġfas ce
B lo
p ing
ĠChrist mas
Ġvac ante
Ġaltri menti
inter pre
Po li
Ġotti mo
B L
Ġ4 50
V A
ĠP assa
ĠF Ã©
ĠPho enix
Ġtema tiche
Ġreg ni
Ġveloc emente
go rit
urs ioni
ĠColo rado
Ġconten ere
Ġcre atura
ĠMaced onia
ĠChallen ge
Ä Ĺ
ĠGi b
Ġriconos ce
io ra
ĠMic ha
ing he
ĠZ im
ĠGio ca
ĠEli te
Ġo cchio
Ġsot tra
ĠKa i
. '',
vide o
Ġscompar so
ma zia
opin ione
ĠA ge
ĠCa va
Ġbom be
ĠV inci
O ra
ĠRe in
an u
gli eri
Ġreali zzando
Ġt ris
Ġv eter
atri monio
Ġorizzon tale
Ġcollabo rare
Ġc ha
an ga
Ġn ere
ĠCat al
Ġimp os
ĠSin da
d ina
Ġsta gionale
ĠW estern
Ġcinemato grafici
w ers
ĠF ara
enn es
ĠEle onora
ĠLit u
Ġro vine
ĠAll an
P u
Ġsem inario
R ock
s ette
ĠCin que
Ġcon duttore
Ġcompleta mento
O ceano
u tico
Ġme zz
H el
ĠP eople
ĠBat man
ĠSto ck
Ġp eli
w ing
Ġconvin ce
Ġfol k
R R
Ġdis tante
av versario
Ġcostante mente
ĠPro c
Ġriun ione
ĠMinn esota
Ġrend ono
om or
ind isi
ill on
ĠSass onia
Ġcomple anno
Ġmerid ionali
ĠG ay
ĠH ern
Ġidenti ficato
Lit tle
men ia
pag no
Ġgro tta
ĠM ono
ĠMa zz
Ġappari zioni
D r
Ġmanos critto
Ġdest inazione
Ġresponsa bili
ar ts
ĠMeri d
ĠS Ã£o
Ġtrasforma ta
Ġchi edendo
% '''
Ġedi to
ĠTele vision
E E
ĠRom ana
b oni
Ġsu oni
bo w
ĠPla ce
Ġristo rante
egu ono
Ġdistrib uita
ul si
app ella
Ġdiff icili
n is
Ġcolle zioni
Ġperdu ta
D R
Ġa risto
ĠLug ano
po ta
Ġcoinvol ti
e y
m arono
Ġind ic
in us
ĠCat alo
ĠInno c
O ut
S im
el etto
ac ci
Ġradic ale
n ic
Ġun der
Ġinteress ante
Ġprivil eg
Ġpres um
man uel
ĠAm burgo
Ġ hi
Ġent us
Ġdimos trÃ²
val li
Ġus ano
Ġdisc re
Ġacc er
av olo
zion are
Ġispi rata
Ġe voluzione
ĠCen tury
Rad io
ĠDon ato
Ġven dere
Ġsed ici
C ra
cc arda
Ġtro mb
Ġconcl usa
ĠK ill
ĠCo w
ĠK ane
enso ri
ĠC L
ĠSte el
d amento
Ġh ockey
Ġp et
es ione
Ġin nal
ĠWell s
o lio
ĠCar tag
cci olo
Ġconseg uito
ĠPrinci p
Ġcomplessi va
Ġrapi do
ĠEar th
Ġdioc es
ĠSemi finale
Ġinflu enze
ĠSe icento
Ġaut onomia
C er
ĠSi de
ĠEurope a
Ä Ł
Ġ14 5
Ġver di
ĠCar ro
ĠThail andia
Ġdom es
d ella
Ġappro vato
ĠMichel angelo
ĠFac oltÃł
Ġ18 30
ĠNico le
Ġfis so
cia te
ĠH at
Ġpia ce
Ġsoff itto
ĠInd ustri
k as
Ġcolo razione
Ġsbar co
ĠWat son
Î ¼
Ġcolpi re
Ġ ×
Ġre visione
Ġdebut tÃ²
Ġterres tri
Ġre tta
Ġc ano
Ġa bbra
wa ii
B ab
Ġbomb ardi
ĠLun go
Ġcondi vid
Ġcattura re
Ġveget ali
ĠVal entino
ĠC ON
ĠCun eo
ĠMa dagascar
á ĥ
ĠG hia
ĠD onne
ĠNich olas
Ġricor so
a gi
Ġrip oso
ti enne
Ġa ge
ĠV uelta
tere o
ĠG et
cin que
C olle
Ġpar enti
ck le
ĠCoun try
I F
Ġp las
inten zione
ĠCavali eri
ĠD ragon
Ġsca rica
o ceano
ve cchia
yo ta
Ġm ammi
Ġvi ale
po di
gi an
ĠPro gramma
Ġraggiung ono
Ġcro llo
Ġcond usse
s ci
ĠC assa
Ġcon gregazione
Ġespl osi
Ġcon cor
Ġtesta ta
ĠWar ri
po lare
ing u
Ġsepp ur
ĠBla ke
Ġins u
Ġfu cile
ĠC atherine
tta re
Ġmar chi
ĠLo tus
Ġver ranno
cio Ã¨
ĠU omini
Ù Ħ
Ġa p
ĠFranco forte
V en
ĠRo gers
ĠNa vi
s ton
ĠJa ke
ĠR etroc
Ġdi cia
N L
s amente
Ġconc esse
ĠMor ris
ssi me
Ġcompl essa
Ġn udo
Ġ13 1
ĠEs ord
Ġapplica zione
Ġfrequ entemente
Ġmusul mani
Ġb ecco
edi tore
ĠCas al
z ard
ĠB eth
Ġris truttura
Ġscel se
eg ro
ĠWag ner
v etti
fi te
Ġpoten ze
Ġr all
Ġsotto mar
Ġcaus ando
esp losione
et tori
Ġsci enziato
ĠK Åį
Ġpu b
Ġpas torale
Ġp ioni
ĠCon go
Ġlan ci
sta d
ĠRic er
â ĶĢ
f ar
ĠR ese
Th is
Ġguar ni
Ġtel ec
Ġp x
Ġdi mora
ĠE tichetta
ĠScip ione
Ġrec l
Ġpartecip arono
a ve
Ġosserva zione
Ġre azioni
Ġ17 5
C ast
ri j
ĠE vangel
ĠFla vio
Pa olo
Ġacquisi to
Ġcin ta
id el
Ġrius cita
R O
Ġm osa
ĠTre k
Ġevid enzia
ĠFi ume
ĠAl on
Ġsci enziati
Ġaustrali ano
ĠA u
Ġabi ti
ens ion
Ġconten gono
ta h
r or
Ġmal grado
ĠEntra mbi
ĠArchite tture
ĠCann es
ent Ã¹
ĠBuca rest
A le
ĠAt tra
em po
Arg ento
c ast
ĠL ung
Al b
Ġprote tto
ĠGian luca
ter anno
Ġappro ccio
Ġperf etto
Ġb ol
Ġar re
Ġbu one
Ġopp osizione
eri ffo
Ġgesti ta
ĠM ale
Ġs torio
ĠG im
ree k
fal one
ggi e
Ġvo gli
ĠWalla ce
ĠS amp
arte tto
Ġosserva zioni
ĠAn t
ĠFran ca
D en
Ġmos tre
lo t
Ġd ormi
Ġaff onda
Ġdiscip line
ĠSav ona
Ġre dazione
Ġda tato
atur ing
ĠN era
ĠG rosseto
ĠEdu ardo
re i
ord en
Ġro und
Ġsegu ono
vi es
Ġgiov entÃ¹
Ġf olla
ant ha
os co
Ġun ici
Ġblo cchi
Ġs eno
Ġal tare
Ġproced ura
ĠR eso
Ġsa bbia
s al
Ã¡ Å¡
Ġgamb e
I mma
Ġvol ante
Ġquali ficato
Ġm es
Ġaff lu
Ġcontinu ato
ĠB Ã©
ha d
Ġc ollegamenti
ĠL egnano
zz etta
ĠInter pre
ĠBo ris
Ġpromos sa
is che
ĠW onder
ĠSanto s
an ge
Ġver tice
en ces
Ġgu ard
V inc
ers hip
Ġdisp osti
om on
ĠSil via
Ag ostino
Ġcan tanti
abb and
Ġdec ine
ĠCri tics
ĠM ath
A A
it ter
vis ti
Ġgio i
ĠS esto
Ġsor ti
Ġ'' -
Ġfrequ entare
Ġfiam me
ul u
Ġ15 5
old s
Q ue
re en
Ġtip iche
b ati
ol s
ĠMon ten
or si
ĠDemocra tici
Ġintro duzione
ĠAl ba
Ġmemo ri
Ġmotocic li
li ch
Ġan ali
ĠE c
Ġcontra pp
Ġcorn ice
ĠSid ney
ĠCar p
ĠAd el
in anti
Ġtrion f
Ð ¼
Ġad egu
Ġav enti
Ġpossed imenti
er ing
Ġtra ck
sia mo
ĠHo p
ĠF rom
ĠCasti glia
Ġsoggior no
ĠDa i
Ġcomin ciato
ĠA p
ĠI TA
ma co
ĠLa voro
ĠK os
gh an
1 01
Ġal ias
ĠOli vier
Ġpiane ti
v ro
Ġpiemonte se
Ġnor man
Ġriven dica
ĠNi zza
Ġeseg uiti
Ġp in
Ġv asc
Ġes o
R L
Ġcre d
ĠE k
R etroc
Ġdis s
Ġsucc edette
Ġapparten eva
Ġarri cchi
ĠA risto
ĠMel bourne
Wh en
ĠCon cilio
Ġsta bilitÃł
c il
Ġun irsi
ando le
ĠPa p
Ġdetta glio
Pr inci
Ġamm esso
rac le
Ġattraversa to
ĠCli ff
Ġ12 6
Ġapparten gono
b orough
en zie
ĠJose f
Ġbombard amenti
ĠTai wan
ĠF igh
ro l
Ġeste sa
ĠSing a
Ġang olo
Ġm entale
á »
Ġclin ica
X T
Ġg esto
P la
Ġpri m
Ġavven tura
ĠJuli e
Ġcontinu arono
res ta
Ġmos tri
Ġun icamente
M emo
ĠI d
ĠP il
ĠSp os
Ġlo gica
ril ler
is io
Ġinter vista
ĠMart ÃŃn
ver io
g aro
Ġ18 40
Ġimp osta
Ġavvic ina
Ġpresbit erio
Ġcanti ere
A ri
ĠLe Ã³n
P or
u res
in ki
Å Ľ
Ġn ono
Ġcom ico
Ġpol vere
Ġ istituto
Ġcarro zzeria
ĠGoff redo
oc chi
ĠF as
Ġpro vare
ĠAd rian
ĠAla in
Ġper dono
vers amente
ĠR AI
C entro
con te
ol in
im ent
Ġimp lica
Ġvis u
ĠFo unda
Ġpilas tri
Ġa bate
Ġ12 2
ĠBo u
ĠCamer on
ĠAlessand ra
b ane
ĠW u
Ġbar ca
on esi
ĠA meric
Ġvel oci
Ġolimp ico
Ġnomina tion
Ġdipend ente
archite ttura
ĠDif esa
Ġopera tiva
Ġid ra
u tati
fi da
Ġcirconda to
Ġred dito
ĠSinga pore
ĠBra b
Ġdep ressione
Ġinter net
Ġbat tesi
Ġnas tro
Ġchi udere
haus en
Ġ( ?
ĠCro ci
Ġf erite
ca tion
ĠMarc us
Ġcor ro
Ġimp eriali
ĠR ing
Ġdecis ioni
ĠFri tz
b ody
Tu be
Ġf ontana
Ġv ag
tar y
Ġincl use
p ica
Ġsta tali
Ġcomprend ono
1 25
Ġdeci dere
Ġper ce
Ġparti giani
Ġstudio so
ĠPla tino
ĠTra pani
ĠHel en
Ġfedel tÃł
c ela
Ġgi alla
Alessand ro
ĠPi et
ĠBer to
Ġetta ri
olog io
Ġspos are
Ġnucle i
ĠP ack
Ġconfli tti
Ġ''' (
Ġ18 15
Ġcarica ta
ĠN P
Ġscienti fiche
ĠDeut sche
Ġdiven ire
c ard
Ġs chel
ĠF S
Ġes perto
Ar chivio
B re
Ġes ilio
ĠMoz art
ra ch
ĠPo tenza
oso fia
pi di
gra phy
uf ac
don esia
Ġcan ne
Ġfrequ ente
Ġtron co
Ġuniversi tario
Ġre citato
ĠCas tle
Ġmatri moni
ĠRese arch
Ġlo g
Ġcollega ti
Ar ti
Ġaccadem ico
ĠJ in
Ġagg ressi
R egno
zion amento
Ġcom andi
Ġcar r
ĠVol ta
Ġriserva to
s chi
p elli
Ġm ens
Ġlocomo tive
ĠG alla
Ġpre es
ĠLig ure
ban k
Ġsacerdo ti
ĠL amp
Ġindipend enza
Ġguardi e
cher Ãł
Ġucc ello
Ġlenta mente
trÃ© al
W est
Ġtel esco
Ġdown load
Ġno di
us te
Ġedi ficata
Ġgioca te
ĠA aron
Ġvener dÃ¬
c ene
Ġmili tante
Ġm ista
Ġ2 10
ĠSi viglia
ĠPres enze
ĠWe bb
T ab
Ġer ba
ĠRe ed
Ġver tici
ĠVal eri
1 10
unta mento
ĠL ic
Ġcons istente
ĠAs colti
m esse
Ġdistin ti
Ġla pide
al ato
ĠU craina
Ġstri scia
ul k
Ġel o
Ġet n
Ġconcorr ente
Ġdi avolo
Ġpo ver
pe o
ĠFron te
in ing
ĠK night
Ġsal vato
ĠO lymp
Ġotti mi
onn y
al titudine
g ener
an cio
Ġdicia ss
a di
Ġan dava
'') :
Ar t
M C
ppa rato
Ġform ando
Ġinten zione
Ġcer chio
asc esa
Ġlu po
ĠGale a
ĠT icino
ho ut
O m
ĠMarsi glia
in ts
ter no
J im
b elli
Ġcul ture
gna to
Ġore cchie
ĠMag ic
so p
ĠPro ject
ĠDig ital
ĠVer celli
enta zione
ĠPi eve
Ġsvol te
ĠSal is
Ġaffa ccia
ĠEs ercito
ch y
ĠL ars
Ġk iller
Ġprotes ta
Ġscand alo
C ardinale
Ġtransi zione
Ġmer cati
Ġdiffer enzia
Ġsequ el
Ġglo ria
E st
Ġcompet enza
Ġdied ero
ĠUE L
Ġre almente
ĠLitu ania
Ġsali re
ĠO ak
Ġra zze
ĠGi ra
j in
Ġsconfi gge
ts burgh
Ġcl ero
ĠSu bito
Ġinvi ta
ĠMar zo
end endo
Ġprote tta
Ġtour nÃ©e
Ġp ane
Ġmiglio ramento
t ento
Ġcan tato
Ġappari re
ĠSha w
Ġcompa ti
Ġcer amica
der si
Ġvec chie
ĠMas on
ĠS A
Ġpre dis
Ġterro risti
ĠRapp res
ron imo
Ġtro varono
Ġservi to
Ġmostra re
al y
ĠBri dge
Th omas
Ġaffian cato
Ġmed ica
Ġvice presidente
ming ham
vi ale
Ġsp arti
ĠMon tal
ena ghen
im ar
Ġver amente
do po
S pi
Ġdescri tti
ĠAlle anza
ĠTor nato
ĠEd gar
gua y
otta vo
Ġastero ide
P un
ĠK iss
ron ic
ĠCla ire
Ġann ul
ĠS assari
un es
ĠLiber ale
Ġsc ale
Ġ12 4
E ste
ĠBeat les
Ġbatter ie
Ġs tor
ĠBu on
ĠPÃ© rez
ĠK ri
ĠFin alista
ĠJ esse
ĠEurope o
J ose
Ġspi e
ĠGram my
di tore
Ġsor vegli
vis to
ĠCo ast
Ġripor tare
j ana
ko ta
li era
Ġde tective
Ġ18 53
Ġ5 000
do ppia
Ġri entro
Ġrisca tto
Ġ2 25
Ġeffettu ati
hi re
g ando
Ġum an
Re al
ĠGenn aro
ar n
Ġcompa iono
ĠSer ena
oss erva
ĠKar en
s or
Ġgi usto
Ġcan cro
Ġispi ra
Ġara ba
ĠFI FA
ner Ãł
Ġtemporane amente
ĠMan u
th o
Ġsepa rate
ĠRin ascimento
u ci
Ġazi end
Ġan ato
ĠIr ene
Ġcirc ostante
Ġguerri eri
f ond
ĠSc ene
H S
ĠM Ã¼n
Ġmedi evali
Ġmar ziali
va da
S emi
U fficio
Ġquad rato
A more
Ġser bato
ĠM om
ĠSta mpa
? '',
Ġsem ic
Ġben zina
Ġinnamo ra
ĠGal ile
r un
Ġnon na
P hi
per ia
uri e
ĠSa k
Ġgiung ere
gg s
Ġcircos tanze
Ġin er
Ġser ia
ma ke
ĠN ATO
Ġero e
Ġcosti era
H y
as tri
Ġcomun ali
Ġlingu istica
Ġotto mano
Ġcres cere
Ġmos sa
Ġsp ir
Ġtab ellone
Ġsa per
O P
é §
ĠJuli an
A la
M os
Ġp ru
ĠN athan
Ġinf il
Ġs hi
Ġsfor zo
Ġa go
Ġdo tate
Ġfred da
ĠSa y
ĠCi pro
Ġchim ico
p osta
ĠB etty
ĠEl enco
eg al
Ġgradu almente
ĠT esti
po cal
ĠAn tio
p osi
Qu arti
Ġdetermina ta
Ġfinanzia ria
ĠP y
pit al
ĠPat ria
ĠMo tor
Ġopera zione
j or
Ġcontrol la
Ġsormon tato
Ġdis sol
avanza ta
ĠLi verpool
ĠP are
Ġgiud ici
ut ente
Ġcenti metri
F re
v ese
ice o
Ġintellet tuali
Ġperifer ia
Ġser ver
g onale
Ġacqu istÃ²
ĠF onte
Ġpa usa
ĠMonf errato
ĠA V
ĠSalva dor
ĠRaim ondo
ĠCo ok
es ame
ĠR esta
ĠTh om
Ġsosp ensione
Ġtif osi
Ġpi rami
ĠLos t
lo go
Ġcroci era
T y
ĠR andy
Ġistitu ti
ĠJ en
ĠY ang
Ġchi unque
Ġnomina ta
Ġc ala
Ġdecisi vo
io li
ri va
ĠCatto lica
ĠP od
16 6
ĠPr ince
Te atro
ĠB omb
ĠHer mann
Ġin tre
Ġv ela
ĠMan ufac
Ġsugger isce
C onte
ĠP ina
osci uto
c aro
Ġriv ali
Ġfr utta
tr onomia
fa ccia
ĠB ent
Ġcaratteri zza
f ani
m ir
ta ru
Ñ ĭ
Ġsub sp
ĠFounda tion
Ġun ito
Ġbotte ga
s ten
ĠHol mes
F lo
S un
w ana
Ġsin gole
Ġindi ani
ĠCos tru
ĠCeci lia
ag enzia
Ġeserci ti
Ġg amba
ris ce
La w
a cido
g endo
ĠG hi
Ġmodi ficata
ĠHar vey
Ġquad rati
Ġguerri ero
Ġ12 3
Ġdisputa re
uge ot
Ġav anz
Ġp lan
ĠEspa Ã±a
Ġs guardo
ĠMan f
Li fe
Ġvor rebbe
Ġesp ressi
d onia
ĠRa chel
ĠSquad ron
ĠLa zzaro
Ġappro vata
Ġgenov ese
c eri
Ġpic co
ĠParti te
ĠO le
Ġinten so
R M
ĠAn tar
ĠTito li
ar ro
ens en
Ġprima ria
Ġsp edi
Ġgiornal isti
Ġinterpre te
Ġsp alla
ĠCon test
Ġsvol ti
Ġcore o
ci ti
Ġcomp ren
ĠCos enza
Ġpu li
Ġrefer endum
ĠB od
ĠPo int
Ġti mp
Ġlaure Ã²
Ġrival itÃł
Ñ Į
Ã³ w
ĠGre co
ĠPe a
ĠTr initÃł
Lou is
é§ ħ
Ġfabb ricato
es empio
Ġcor ta
ÃŃ k
em ann
Ġven isse
Ġinterpre tare
Ġpropag anda
C es
Ġspeci alizzata
Ġcon gresso
Ġfar f
Ġcora zzata
Ġg etta
lino is
ĠTer amo
Ġpat rono
Ġpre ten
Ġorgan ismi
ĠZ u
emb ra
Ġai utato
ĠTa ke
o ul
Ġz u
ass egna
Ġmemo rie
Ġdotto rato
UR SS
d eri
ĠS M
Ġbor sa
ar ina
ĠHo ff
ĠT ang
ĠVers ione
f ilo
ĠN ash
Ġ24 0
di r
Ġrec arsi
te che
is ca
ga tore
esta zione
ĠS truttura
ĠSc ud
ĠV id
Ġar r
las ka
colo re
Ġp asti
bi zione
esse e
ĠN ina
Ġ18 57
ĠSing le
Ġt ener
tur ing
ĠIT F
Ġespli cita
C inema
sta dt
ett ano
Ġsop rano
ĠChi eti
Ġcer cato
zio so
ĠFo ggia
ĠCam pagna
ĠMa in
ĠEr cole
Ġvendu te
u ccio
ri amente
Ġcir colo
ub io
orn ale
ĠGio ve
Ġribelli one
ĠLater za
ĠSi x
ĠKla us
ĠRom agna
ĠVen gono
ĠTor na
Ġven dic
ĠG ang
m ol
Ġc land
Ġcor de
Ġto sc
R ec
Ġfo gli
ĠGlo be
ĠPubbli cato
Ġs cato
ĠPoli zia
o b
it Ã©
Ġdiven terÃł
Ġcoloni ale
ĠA tto
Ġsconfi ggendo
Ġ13 2
Ġdis putati
ĠJam ie
en burg
sti c
ĠCh ina
Ġmate matico
ur ce
ĠPublish ing
cy c
Ho w
Ġman uf
Ã¶ l
ĠS Ã¬
Ġfini ta
Ġne uro
ure a
Ġav ente
ĠP asso
Ġucc isa
Ġprofess or
ĠFa usto
zzur ri
ĠPri mera
sec onda
ĠCas tella
ĠBen g
ĠMe zzo
Ġb iografia
Ġrinuncia re
ĠS ty
Ġw e
di tori
p one
Ġd ono
Ġindividu are
re o
ĠComp le
Ġsos ta
tt y
Ġquarti er
Ġrest ano
ol ine
Ġla ghi
ĠG el
Ġim mer
ĠProdu ctions
si gnor
Ġmanos critti
m ico
Ġcaratteri zzati
ĠDiam ond
ĠSing les
Ġtemp esta
Ġscon tra
amer ica
A ma
D oc
R acc
Ġinteg rale
ina zioni
rÃŃ guez
Ġt ante
Ġtrova ta
g igante
Ġcostitu iti
ĠLib ri
Ġauto matico
Ġdocumenta zione
Ġscola stico
Ġav vi
k ia
Ġri forme
ud ini
Ġdi ario
ig e
Ġand arono
Ġcilind rata
un try
ĠJ ules
uro ra
Ġcomplessi vo
en ga
ĠKo ch
ĠSqu are
Ġd ri
Ġpresum ibilmente
va ggio
Ġa perte
ĠB las
ĠKie v
am pa
Ġviol ento
ĠSo pra
lus coni
Ġsc endere
ĠEs te
ĠC H
ĠSec ret
ĠComp rende
Ġ: '''
et ing
Ġimp atto
ĠPic colo
Ġri pieg
Ġricostr uito
Ġad egua
v amenti
ar chivio
ĠC alli
man e
ti tolo
Ġcon cilio
Ġtor tura
ĠBal ti
Ġdoppia ggio
th lon
Ġass ente
ov Ã¡
ĠCh io
uc ale
ĠH old
ĠAth le
Ġa ustr
bo urg
Î ·
ado zione
etti ve
ĠD ru
ell ano
Ġspesso re
Ġrinven uti
O b
O no
in qu
at ino
ĠGu ad
Ġdisp oste
ĠCar men
Ġpelli cole
Ġfal so
Ġra v
ĠRod rÃŃguez
ĠTy ler
Ġcre bbe
he m
Ġalimenta ri
Ġdis ce
Ġinvi tato
ĠBr indisi
Ġconos cono
zz esi
Ġmac chia
Ġsposta mento
Ġviolon cello
Ġimprendi tore
P ad
d olo
Ġpolizio tto
Ġcan tare
Ġabband ona
ro ugh
Ġinten si
z in
Ġderi vati
Ġcere b
ass emblea
Ġrient rare
Ġ( -
Ġav vista
ĠKir k
Î º
Ġe qua
Ġbu io
) ''.
ĠErn est
Ġgover ni
ĠYou Tube
w all
Ġom icidi
É Ļ
ĠP unta
Ġgol fo
ĠCons tan
Ġregis tri
Ġdel ib
Ġcas telli
ĠLan cia
Ġfunzion alitÃł
Har ry
ĠGi ust
Ġcristi anesimo
Ġten uti
Ġsopp ressi
im m
ĠJ as
ra h
Ġtesti mone
Ġprec isa
Ġpian ista
Ġqu er
Ġes tratti
up Ã©
cc ani
Ġrile vante
Ġdi eta
F ra
Ġcon duzione
ĠO ss
Ġc us
mo der
Ġci ta
Ġmi gra
á¹ £
Ġto po
ĠChi ese
ĠAb ruzzo
ĠH iro
ĠLi ma
Sec onda
uo to
ĠFor ma
Ġcomunica zioni
ĠT Åį
ĠE is
ĠMar ine
Ġstes ura
Ġrin un
uma cher
amici zia
Ġcon so
Ġregistra ti
ĠDes ign
ĠArg ento
Ġcon versa
ug ua
Ġnuo to
ĠL td
Ġcomm enta
ĠSac ra
inis cono
ĠMa te
h m
Ġam mon
issi me
Ġm etro
Ġes tivo
els en
Te am
Ġcon ting
Ġto cc
hi ro
Mar k
Ñģ ÑĤ
ĠTo le
hat tan
ĠAm b
ĠLib ia
Ġrit mica
g Ã²
tori ali
ĠWer ner
Ġamministra tore
Ġdiagn os
Ġri lievi
Ġres pin
ĠPor sche
ru guay
ĠGeo ff
Ġsette cente
ĠProf ess
L S
el ing
vit Ã¹
ĠFern Ã¡ndez
H C
ĠM P
Ġbat tezza
ĠMi ka
ens us
ĠLou ise
Ġro cca
ĠCon vocazioni
Ġinca rica
ĠDu cati
ĠHeavy weight
Ġcircos tanti
ĠBundes liga
' re
Ġca ffÃ¨
ĠAn toni
ure au
Ġ13 6
Ġrilas cio
Ġ ella
Ġ18 14
Ġtenta re
gi Ãł
Ġritar do
abband ono
Ġgo la
ĠVen ere
Ġpromos se
pi tolo
ĠProg etto
ĠM Hz
ĠDin amo
ĠF ay
Ġinf li
Ġacqu ati
Ġdel imi
he tto
T ar
ĠT at
Ġmod ulo
D an
ĠCur tis
ĠRaffa ello
k is
ĠS viluppo
era zioni
Ġinter m
Ġele vate
am ura
ĠPro te
om ati
Ġcomb atte
Ġcon ca
Ġb agno
ĠSch umacher
ĠSymph ony
Ġb rut
Ġfrequ entÃ²
Ġno tori
b asso
rest ler
imp egno
Ġconsecuti vi
sped ale
ĠPal mer
Ġvendu ta
A eroporto
Ġra zz
ĠBo li
Ġesiste va
ĠTrib unale
ĠPisto ia
inizia tiva
M arie
Ġcosidd etti
Ġsfrut tare
Ġgui dÃ²
Ġscienti fici
ona zione
ĠServi zi
d as
Ġsenti re
ĠRang ers
ĠLet tere
ĠSchmi dt
f ili
Ġteo re
Ġcollabora tore
C li
Ġin visi
ĠCon sid
N ati
lav oro
Ġan ziano
Ġminor anze
Ġdiplomati co
ĠInf rastrutture
Ġm esse
ĠMichi gan
Ġadotta ta
Ġcomp lica
ĠCla ra
ĠSpor tivo
Ġpiazz amenti
Rich ard
Ġsc alo
Ġj ugosla
ĠRo vere
ern itÃł
ia mma
fic ando
Ã« n
R T
arti glieria
um ere
k ir
Â ·
Ġmar rone
ĠLo di
ĠCor nel
bi te
ĠVer sa
Bo b
ĠIsa ac
Ġs vizzera
Ġsepa rata
eg er
â ĪĴ
) "
Ġcolle gi
Ġviol enta
ĠS V
du ttori
Ġoff erto
Ġa erona
ren ch
Ġchia mare
ĠBer lusconi
Ġtip ologie
Ġc es
ĠE sta
ud ine
Ġconn essione
mi da
Ġapp or
app licazione
Ġpatri arca
ĠPot ter
Ġdu ello
ped ali
Ġmeccan ico
ĠO cc
ĠS chia
Ġgra vitÃł
ĠCron ologia
j as
ĠCas telli
ĠRi ti
Ġtra tte
ĠC od
ĠSi erra
ĠC resci
c ane
ÅĤa w
ĠW ant
Ġsosten ne
Ġvol ti
Ġcel esti
li sta
Ġa perti
ĠC Ã©
ĠManufac turing
Ġc uri
ĠT C
Ġraggi un
Ġdefini ti
ĠR inal
ĠRud olf
x o
Ġin va
ĠC lan
ĠAre zzo
ĠShang hai
Ġesp osta
ĠMax im
li t
C ron
ar gli
Ġcomun isti
Ġcer te
tto li
Ġcontrasta re
ĠD ic
av vocato
ĠAlon so
Ġesord Ã¬
Ġadia centi
Ġripor tati
Ġsfuggi re
Ġm un
Ġpro viene
Ġghia cciaio
Ġfam ose
Ġaut enti
Ġdistin te
d ice
ĠV ul
ĠCon certo
Ġcondi vide
ti es
Ġc ess
Ġdesid era
Ġaff asc
ph is
a z
Ġ18 46
Ġpredec essore
Ġsec co
cci ano
Ġlaure ato
Ï ħ
Ġconserva te
ĠYe ars
Ġcontrol lata
Ġm uri
ĠCol li
ĠD eci
vidu ale
Ġpo eti
Ġrivol te
ĠLa g
M ur
ne uma
T assonomia
Ġsin drome
Ġquattor dici
19 08
ĠSong s
ĠB ello
at le
Ġpref azione
Ġcon vi
ĠSe ver
Ġdov ute
ĠM ond
Ġlimit ro
ĠP ul
ĠMon trÃ©al
Ġv asi
Ġan ziani
ĠGre y
c z
Ġgen io
Ġvive vano
go ri
Ġpr ele
Ġinc inta
ĠHard y
ĠCos imo
Ġad atto
ĠFeli x
Ġstan ze
ros co
p ut
Ġv ario
Ġ18 55
Ġchitar re
la ter
Ġsuper ando
ĠPar tico
ĠAm bi
ĠHels inki
ĠD erek
Ġform Ã²
Ġcittad ine
Ġbrasili ana
Ġmoltepli ci
Ġtend ono
Fa una
ĠMil es
ĠStor m
in chiesta
res Ã¬
Ġam mira
oc ci
ĠCarra ra
ĠCar ta
Ġfunzion ari
Ġcan onico
ĠHep worth
Ġgioca ta
Ġsottos tante
Ġb ara
Ġ12 9
T ime
ĠAr ci
Ġres tanti
ann er
Ġtur chi
Ġpermette va
Ġriten eva
Ġv alli
Ġ18 58
ran da
j andro
Ġsosp eso
S ol
ĠJ ust
Ġecc etto
chus etts
ĠIl lus
Ġide ato
Ġagrico la
e ven
Ġvaria zione
a pparato
Ġle va
Ġcollabora tori
s tre
Ġt rio
ĠDub lino
Ġriserva ta
f onda
Os car
Ġp este
Ġmat toni
wic z
n ante
Ġman ca
ĠMart ÃŃ
as ia
ura ti
Ġfavo rire
ĠZh ang
f one
Ġte atri
ĠRati o
ĠS l
ĠGlo ria
ĠConfer enza
mo ur
Gio catore
Ġstre ga
f ati
ro p
Ġacc ede
Ġpros eguÃ¬
Ġritro vamento
ĠFreder ick
Ġasia tico
ĠTh Ã©
Ġsti mo
ut ch
s ula
ĠW or
Ġconfer mata
ĠBo ur
Ġprimo genito
ĠNum er
ĠNas ce
Pi etro
Squad re
ut ante
org ia
ĠEn gine
Ġpsic ologia
Ġten ute
ĠE g
Ġstri sce
Ġdi ac
Ġpor no
Ġfinanzia rio
Ġarro tonda
uti ful
ĠVi vi
Ġimprovvis amente
f oni
ĠH ud
Ġ13 3
Ġaggre gato
zz olo
Ġoff erta
Ġgesti sce
che t
Ġtele fono
Char les
ĠI stitu
Ġcat al
Ġang lo
cri zioni
Ġdiv ina
Ġsvaria ti
co uver
Ġcor ruzione
An ti
Ġricogni zione
Ġliber amente
Ġsopravvi vere
ĠAnto ine
ĠG illes
ĠLib rary
ĠGal lia
J uli
Ġ ioni
vo ur
ck et
ri er
inda gine
Ġrim ar
ĠFel tr
gen zia
n os
Ġ é
ĠT in
ante simo
Ġde mone
ĠEli sa
Ġb all
Ġcri mini
ĠMod ern
ĠSlova cchia
ĠGalea zzo
Ġprevis ti
J ust
le tter
Ġ16 00
a ven
un ziata
ĠLeg ione
Ġcres ce
Ġvesti ti
Ġdirig enti
ĠArms trong
Ġassocia ti
Ġcoltiva zione
Ġvul can
u ph
Ġentra rono
Ġann ualmente
Ġas se
Opera zione
Ġogn una
ins ero
x ter
ĠRa w
Ġpo ur
ĠC reek
Ġresta re
ar u
ĠMa ppa
ĠDani ela
ĠP P
am bo
Ġesp osti
T im
ĠPo k
cro ss
Ġevid enza
ĠVers ion
Ġbersa glio
ela ide
y i
De ad
Ġdescri vere
Ġinvia ti
7 50
col m
ber ia
esp osizione
Ġos pedali
Ġdov uti
ĠS ki
ĠPa kistan
ĠRon ald
Ġcolp Ã¬
" ''.
Ġs ve
c ent
va rio
Qu ando
Yo ung
ĠBorgo gna
Ġin uti
Ġsupplementa ri
Ġtun nel
C odice
Ġdov ettero
Ġnomina ti
Ġarchi vi
Ġo di
Ġin tr
Ġb uddh
Ġro se
j n
ri di
Ġrecita zione
S ac
Ġconten uta
we i
Ġindi ana
Ġindica ti
ĠG ott
Ġuccid endo
Ġimp one
Ġdiv ul
ĠRi torno
Ġsosten gono
Ġcarb urante
ĠNA SA
Ġgenera zioni
ĠFior entina
el ine
Ġconten enti
Ġso gg
et tino
ula ta
tu alitÃł
Ġcar to
ĠArchite ttura
y na
ĠSin goli
Ġ18 54
ra ggi
ĠMad ison
Ġmag ico
Ġcor rido
Ġseconda rie
Ġins eriti
ĠBus h
Ġsorg enti
ĠSe ggi
Ġricerca tori
Ġimpegna ti
bas ciatore
Ġvisita tori
inna ti
ĠDen ver
ĠPaci fic
Ġpover tÃł
ascia ta
i ga
ĠG ali
Ġsia mo
Ġre sidente
Ġgo tico
Ġmon archia
c ione
Ġris chia
E M
om ani
as tra
Ġproveni enza
ĠA manda
ĠFo rest
Ġfinanzia ri
er ba
u ber
ĠBos nia
v on
er la
am ante
b and
em ittente
ĠSquad riglia
Ġvogli ono
ri que
Ġcons uma
Ġinsigni to
ĠLeg enda
ĠOs lo
da fric
Ġpara metri
Ġne op
ĠCristo foro
f ter
ĠVi ve
ĠWh at
Ġretroc esse
Ġrad ice
ĠPonti ficio
Ġb ag
V a
sa c
ĠO wen
Ġsul tano
Ġpann elli
ign ano
amo to
si an
ur ando
ĠT ad
ĠSta d
illa ume
Ġorganizza ti
ĠM ini
Ġb usto
Ġca ricato
Ġpre zzi
Ġsal tare
Ġaggiun te
za ta
13 0
Ġpia tti
Ġapparten enza
ĠMod el
Ġpote ssero
Ġper corsi
ĠI ran
ĠAur elio
p ini
on atura
ĠAl ti
ĠMar ta
ggia tore
Ġporta va
Ġe vangel
Ġ18 47
Ġmuni zioni
G eno
l uigi
Ġchia re
gia ta
Ġfis ici
Ġtras c
mer cato
Ġ# #
ĠCy c
a veva
Ġprotes te
so re
Ġlib erato
Ġord inario
m esso
Ġstra ge
Ġceleb rato
ĠFrat elli
Ġpor terÃł
ĠS T
Ġmus o
ĠGo verna
Ġpia cere
Ġmin ia
ĠEs se
Ġring ra
Ġ ç
bi ana
Ġcompi lation
d ichÃ©
Ġma fio
Ġgra fico
b ana
Ġar t
ĠBo emia
Ġestre ma
b are
la o
ĠComun que
Ġad esso
Ġsca fo
u ris
ĠI gor
Ġ14 1
ĠS forza
ĠMil li
Ġcelebra re
Ġpr el
ĠBar t
ap ice
ĠSand ra
Ġcin tura
ĠCon cer
Ġelem entare
ĠAs coli
Ġrisul tÃ²
to ra
Ġsosten endo
Ġapplica ta
ĠK il
ĠQu into
Ġcell ula
Ġcol ui
P at
Ġs ensa
he zza
it ana
Ġpsich ia
E voluzione
os im
Ġstr umentale
Ġforti ficazioni
ar de
le o
Ġregis tro
Doppia to
er Ã©
ĠNa k
Ġponte fice
u olo
en orme
Ġalt resÃ¬
ĠC ale
ĠX box
Ġsu sc
ĠB eg
Ġ15 1
N ight
D in
n uovo
Ġet rus
Ġriguard ante
Ġd ans
ĠRie ti
ri te
ĠC U
E very
ĠE bbe
Ġa bus
Ġgi unsero
id ia
Ġh is
Ġliber ale
Ġlon tana
Ġnapole tano
F erra
Ġscel ti
ĠCirc uito
ĠB ard
ĠCa pito
Ġac cid
des h
ĠFi andre
Ġfu turi
Ġcat ene
Ġstrani era
Ġgra zia
Ġrim uo
assi e
A ug
Ġc edere
ĠS D
ĠV ille
ĠSa va
eni or
Ġdom ande
ĠS tur
gi bili
ĠDi venne
ĠHo pe
ĠPat rio
ĠRo w
Ġavvia to
inc innati
ĠD ato
di ere
ut ter
Ġtrova ti
Ġprivil egi
Ġar civesco
L inea
f atti
Ġvi venti
ĠPre f
W a
Ġg ang
ĠBe ata
So tto
d ali
ĠV enti
ĠSpi der
Ġlancia re
aff er
Ġpoe tica
ĠCh el
Ġb in
Ġconc etti
ĠS ven
ĠCho ice
Ġ18 56
G lo
Ġdo ti
Ġterri bile
Ġsu onato
Ġdisponi bilitÃł
Ġpericol oso
Ġriferi to
ĠMÃ¼ ller
z eg
ĠK om
ĠW ald
u chi
Ġrisp ondere
ĠGusta vo
ma tura
Squad ra
ĠRa ggi
Ġdistin zione
Ġcra tere
Ġcas s
ĠDo ria
Ġpi eve
x ico
ri ll
ĠNe ver
ĠFanta sy
Ġa bile
Ġconsenti to
Ġeffettu a
Ġsopp ressa
ĠAbra ham
Ġb ot
Ġparro co
Ġconvo glio
ĠAd olf
ĠCar la
Mar tin
Ġaristo cra
ĠI b
Ġqualifica te
Ġsvilupp ati
Ġbr uno
ro ck
Ġar anc
ĠBir mingham
s ha
Gui da
Ġpri ori
am or
ĠE C
an ci
Ġillus tri
Ġ ??
ĠB it
Ġnaz isti
Ġg rossa
Ter zo
I tali
ĠDe e
ts ch
Ġpara ca
ĠGlas gow
Ġpato lo
Ġarchitetton ico
ĀĀĀĀĀĀĀĀĀĀĀĀĀĀĀĀ ĀĀĀĀĀĀĀĀĀĀĀĀĀĀĀĀ
ĠPhilli ps
S ti
m inistra
Ġstrate gica
ĠL ili
Ġtrasm essi
Ġ zia
ar ino
ĠBir d
ol k
ĠCo pa
Ġmill ennio
W hite
ĠLe oni
mar k
ugh t
Ġcolpi ta
ĠF lash
Ġ16 5
Ġor ale
pro v
Ġatte ggiamento
Ġorgani zzÃ²
Ġprote tte
Ġcons on
Ġcal ciatori
Ġasia tici
Ġbotan ico
n ello
ich te
ĠCor sa
ec uzioni
Ġcomp li
Ġrice vendo
Ġdis tanze
ĠSe e
Ġor bita
ĠM im
de e
Ġca vo
Ã© tÃ©
ĠPit tsburgh
Ã¡ k
ant one
Ġprote tti
ĠTh under
Ġrappresenta ti
on iche
Ori ente
ĠGregor y
Ġvede va
ĠSp ar
Ġci tati
Ġvinc ente
Ġmunici pio
C ali
Ro berto
Ġani mato
ĠRi va
ĠItal y
Ġleg ali
Ġoff rire
ell ente
Ġstori camente
ĠAlle ati
Ġequ ilibrio
ĠB udd
Ġsopp ressione
Ġf erita
ĠPala ce
Ġdiff usi
Ġmole cole
Ġortod ossa
Ġvic inanza
v Ã©
Ġsa pe
Ġe vit
ĠLi psia
ĠVir tus
Ġper im
u ario
de aux
ĠGl enn
u ce
Ġnegati va
Ġalterna tive
Ġdeposi ti
Ġma go
ber ga
Ġimmag inari
Ġc ure
Ġgi unti
So uth
emi la
ven o
v ich
Pari gi
et ri
Ġmodi ficare
Fran k
ĠItal o
ĠMc G
ĠJer emy
Ġequi valente
Ġrispetti vi
Ġan elli
ĠJ ustice
por ta
ĠKe i
F S
er one
Ġj e
uta re
Ġintrapr endere
ĠO S
ĠM ona
Ġmar gini
ĠAssocia zione
r int
M art
Ġp ensione
ladel fia
zz arsi
celli ere
Ġinvia re
Ġfian chi
Ġf ero
ji ma
Ġvas ca
co teca
Ġbra cci
b ica
es h
ĠRa ccol
Ġseconda rio
Ġtrion fo
Ġsignifica tiva
Ġriten uta
Ġintrap rese
Ġcircos crizione
ĠVel ocitÃł
Ġfra ti
ĠTesta mento
ti er
S mackDown
ĠS cia
Ġservi re
ĠAnd ro
Ġsocieta rio
so tto
Ġterritori ali
enn ero
Ġvive va
Ġdomina zione
ĠRic ardo
Î ¯
Ġt ono
Ġafric ana
ĠAc qua
ol ph
Ġdis lo
arg ent
Ġambi entali
ĠA fric
Ġsp onda
Ġpro sa
zia re
Ġcarb one
o bbli
Ġin form
Ġdis trut
Ġsenti mento
Ġfuso liera
p ec
ĠDe ep
Ġimp ression
Ġidenti ficare
t all
Ġterm inale
ĠGri glia
ĠK el
Ġinizi ando
Ġparl ano
gh esi
Ġcattura ti
pl ano
Ġent rati
ath lon
Ġminer ali
C l
Ġp el
Ġ3 20
ĠC r
Ġvo lare
B ron
S ud
Ġm iss
Ġstr ano
Ġis truzione
Ġassass inato
Ġconcorr enza
io s
Ġ** '''
Ġincontra to
k ka
ĠNo bel
Ġsele zionato
Ġ18 16
ĠMa chine
tes ta
Mus ica
Ġcostr inse
Ġrichia ma
ĠFos ter
li ano
a cciaio
k ina
ĠM ulti
Ġsec onde
ĠIni ziÃ²
ĠK yle
Ġgu arda
ph one
Ġbase ball
Ġbene fici
Ġopera tivi
Ġper pet
gli ese
Ġ18 37
anz aro
ina go
Ġb ud
rono tassi
Rom agna
Ġsono re
pu ter
he tti
Ġo d
Ġfi bre
Ġpres ta
ĠPartecip Ã²
ri colo
Ġpr ussi
ĠRa ce
Ġopera tori
ĠSto ccarda
ingegn ere
A sp
Ġindustri e
Ġsupersti ti
ĠO ttone
met tendo
Ġra ra
s an
Ġtar da
ĠConserva torio
Ġfun ge
Ġinedi to
N O
ĠSo v
Ġ# '''
fe i
Ġlavora va
ĠAl bo
Ġyo u
Ġmi ti
Ġsegua ci
M is
ĠA way
ĠGa io
D ark
ĠEn glish
Ġgem ella
f ron
enn ino
T ran
ĠMon tana
Ġacquista re
an ten
Ġsono ritÃł
Ġimp lementa
ĠSc al
Ġdeleg azione
Ġte tra
Ġpre par
ĠGori zia
Ġind oss
ĠMon tre
V ini
te ch
Ġprevis te
Ġproced ere
Parti to
ĠS enza
Ġfu gg
Ġsco ppia
alle tto
Ġsuff rag
a ver
om it
Ġpro li
Ġsignifica tivi
eth er
Ġsorge va
er editÃł
ĠB ris
Ä Ļ
ĠB assa
Ġre si
ĠAr chivio
ĠPi etra
B O
Ġra ro
Ġestre mitÃł
Ġdisp osto
Ġartisti che
opp ortun
Ġv ere
Ġ13 8
Ġprec iso
atta glia
Ġcombat tÃ©
ug ar
Ġsit uati
Ġoff erte
a qu
ĠV isi
os se
re g
D ec
ĠLeg end
ts u
un n
S imon
Ġdi ta
ĠS is
S tre
Ġp asta
Ġpetro lio
Ġm usei
F ase
ĠT oni
cri tta
Ġspieg are
ĠFeltr inelli
Ġprogressi vo
Ġse ta
Ġco er
Ġmas ter
Ġtur ca
Ġcoinvol gimento
ĠEs iste
ĠBut ler
Ġ13 7
Ġcontra tta
Ġ18 06
ĠCh en
otta va
Ġsvol gimento
risto l
imp atto
ĠAcco glienza
si to
Ġf esti
Ġv isti
zia mento
uth er
Ġgig anti
Ġatmos fer
ĠGu ard
fe zione
Ġg on
Ġpra tic
ĠCop enaghen
Ġmat erie
Ġreliqu ie
Ġpers ero
Ġtesta mento
Ġsotti li
ĠS G
ĠD yn
ord s
Ġni do
pre si
Ġfin endo
O pen
Ġtraspor tare
Ġcontemporane o
Ã©n Ã©
Ġtransi to
ce e
Ġin e
ĠS ter
Ġvisi bilitÃł
Ġbo tti
Ġen ormi
bal do
ĠStra s
Ġricon fer
Ġpropulso re
Ġvi vi
Ġseg uirono
Ġib n
il es
Ġb ello
N ational
f en
Ġraffig uranti
ĠM k
Ġsepol tura
qu attro
co urt
ĠN ie
ĠSa verio
Ġsim ula
B on
ĠS le
Ġess enziale
ÃŃ o
Ġ18 52
t man
anti chitÃł
Ġcre dito
Ġintro duce
Ġdocumenta ri
Ġsce glie
Ġpresid enziali
via ta
Ġv iso
Ġgino cchio
or zio
Ġ18 39
D ragon
ĠW ins
Ġfran Ã§a
ÃŃ s
Ġaggiud ica
Ġimpegna ta
versi e
ĠH Ã©
Ġp h
ĠI ATA
ĠProv inci
M E
p uta
er bo
Ġco operazione
Ġmar ch
cend enza
ĠY oshi
Ġacco ppia
Ã¨ me
Ġara bi
tar la
ĠSe y
ĠL ions
Ġgra mma
ĠClar ke
ĠRo und
Ġmedio evo
Ġdi ci
Ġle ttore
Ġarchite tti
Ġindica zioni
ĠSoci al
Ġin do
sta zione
Ġcausa ta
ater ina
1 18
T utti
pri se
ars ene
Ġcon cep
Ġiscri zioni
Ġnut re
Ġgui dare
in no
gran de
B ur
ĠOrig ini
ĠRober ta
Ġdivor zio
R it
Ġn et
ĠB oss
ĠF us
Ġpi eg
Ġpres tazione
ĠD j
An giÃ²
Ġis critto
ĠCri tica
ĠCon g
ĠAd olfo
Ġmanten imento
Ã¼ ck
Ġcapa ci
I P
Ġcon tare
Ġpos siamo
Ġcal cola
min al
po t
cu ador
Ġacca duto
Ġnecessari amente
Ġcostru Ã¬
Ġconcent ramento
Ġcorre tta
Ġintellet tuale
Ġagi re
n amente
Ġ15 2
Ġri dotte
ena ria
v ela
ch s
tu al
ĠS now
ĠMich elle
Ġdecora ta
Ġsopravvi venza
ĠDa w
Ġmini ere
Ġcan oni
Ġsoprann ominato
M u
ĠD N
c li
Ġarri vata
ĠReyn olds
B ack
f alo
Ġdirig ere
ĠT est
ĠS ess
Ġ14 4
Uni ted
Ġono rario
Ġc odici
Ġfal sa
ĠDel ta
Ġra re
ĠLe x
Ġprotes tante
Ġnem iche
la ve
G al
et ani
ĠLa to
ĠCam pi
Ġban chi
Ġz ucchero
Ġopera to
ĠFor ze
cca ti
ĠI ppo
Ġprovo cando
Ġco opera
Ġpiatta forme
ĠB li
ĠMari tti
S ex
re c
ĠTh an
Ġm amma
Ġprod usse
Ġtito lari
Ġatti vamente
ĠMassa chusetts
Ġpres erva
Ġfel icitÃł
Ġdefin Ã¬
Ġna zionalitÃł
ĠUlti ma
el er
Ġ9 78
Ġconsegna to
Ġistru zioni
vi go
Com petizioni
d oni
Ġus i
Ġrisp ose
ĠOff ice
Ġ Ø
Ġco pri
ĠVirg ilio
ĠCir ca
ĠParad iso
ann on
ĠDan ilo
Ġla mpa
Ġfoto graf
Ġmessa ggi
Ġb ion
g ri
ĠSch ne
Ġuccider lo
ĠBenn ett
Ġuni ti
ĠLomb ardo
e e
ita zione
Ġs pp
ĠTun isia
um entali
Ġresta urato
om ento
ma ticamente
Ġcerti ficati
Ġmat uritÃł
Ġspet trale
Ġstraord inaria
b ella
Ġespon ente
ĠCit tad
bre i
ĠRam s
gob ardi
Ġimpieg ata
ĠGusta v
ĠSci enti
Ġpla stica
Ãº s
ĠEp isodio
Ġbene fic
ĠMe yer
Ġcorr ere
Ġde bito
ĠDa te
Ġstabili sce
ĠLes lie
ĠKenn eth
B ari
ĠT all
esi d
Ġdistingu ere
Ġcar o
ĠEd ge
ĠPal estina
Ġsci m
ĠWe ek
ĠMon tes
Ġimp ro
ĠGio vane
Ġpartico lar
Ġpass ano
ĠV on
Ġvi dero
ĠB in
zz anti
ĠSc and
ĠS r
âĢ Ķ
Ġcaus Ã²
equ azione
Ġstraord inario
ĠRa id
Ġtra mon
Ġtras corso
Ġas ci
Ġassoluta mente
b ani
ĠD res
ĠD mit
ĠJo el
S ig
ĠH ale
Ġfu cili
Ġcontra da
Ġinci denti
ar cipelago
ĠM oney
ĠCes ena
Ġca vitÃł
Ġcoord inate
ĠMaj or
r ensione
Ġresta urata
ma x
en amente
us z
Ġindivid uo
ĠF iore
Ġpubbli camente
Ġcontinu amente
Ġda tata
Ġmon tato
Ġaggi unti
ĠCB S
Ġdemocra zia
ĠTre vi
Ġbizant ina
ĠM C
ĠMagn us
Ġpar che
Mar y
ĠXX III
Ġappo ggio
Ġgiud ica
mon s
Ġdiver ti
ĠC ry
ĠSteven s
Ġnar razione
Ġra bbia
Ġfat toria
Ġ17 97
Ġci fre
Ġassum endo
ĠLa ra
ĠHo w
fa go
ĠP oss
camp ista
. Â»
ĠJa vier
ĠSac ramento
LE OM
ĠK enny
Ġ13 9
ans en
Ġfanta sia
ora torio
ĠRi tor
Ġcontin ui
Ġcon sta
ĠPrincip essa
at ter
via re
qu est
Ġesp resse
Ġor ches
ĠB ureau
ĠArc angelo
al ter
Ġquad rata
ĠFranc es
Ġgro ssi
Ġri ve
c ero
Ġtras vers
I f
Ġpo ca
isti zio
C lasse
ĠBa h
fac io
Ġsacri ficio
Ġricostr uire
Ġ18 20
Ġproced imento
Ġinstal lato
Ġcomporta menti
ĠNa g
ĠB ronzo
ggi anti
d ando
Ġmera vi
gra to
ĠHa waii
fa ce
Ġinter venire
ĠTol osa
Ġtor nata
ĠBasili cata
Ġpa p
Ġmed iterran
ĠMil le
ĠPri me
ug io
Ġlas er
ĠLou vre
Ġcatti vo
Ġinv aso
Ġass istere
Ġmisterio sa
P orto
i res
ĠP elli
Ġrep lica
ĠT ho
no v
Ġdramma tur
Ġaggiung ere
ĠMan hattan
ĠSouth ern
Ġraccom anda
Ġfa una
ĠMa til
Ġpesante mente
Ġsicili ano
Ġ15 6
Ġeseg ue
ĠChi ef
Ġn in
at tori
Ġpreced uto
Ġide ali
e ch
Ġcron ometro
ĠB ib
Ġri peti
Ġal tamente
ĠV and
Ġtras corse
Ġautomobili stica
Ġconsider ando
Ġdi vieto
Ġ18 38
Ġesp osizione
B ir
Ġaggi unse
Ġferro vie
Ġimm or
Ġsed uta
Ġim ma
Ġos tilitÃł
Ġrifl essione
lah oma
Ġconf erito
Ġer rone
Ġ- -
Ġacca de
Ġcan tone
g olo
Ġcontinu ando
pol ino
Ġprovo cÃ²
Ġevol uti
ĠBrook lyn
Ġp essi
de on
Ġall uminio
Ġrile va
Pro vincia
ĠAnni bale
ĠM iddle
Ġre ag
ang eli
ĠE in
Ġpres sioni
amb io
Ġgra vid
om er
a bilitÃł
Ġconc lusi
U p
n eg
ĠPic ture
I sole
Ġmarti ri
h or
ĠSpeci ale
Ġeserci zio
ĠB onn
acqu ero
Ġiscri tti
Ġ18 45
Ġdol ci
ĠPhili pp
ĠFish er
on tolo
ĠVal entina
Ġent rano
off ensiva
Ġrus se
u w
pera tori
ĠSa pienza
Ġinnamo rata
H istoire
ĠLaur ent
Ġsfrutta mento
Ġb aller
Ġinforma zione
Ġbic ic
Ġelettri ci
i vo
Ġpu ro
Ġradia zione
' ll
Ġdilet tanti
ĠAnton ino
Ġnucle ari
li st
ĠBer k
Ġappre zzato
ĠM ission
tta ggio
ĠÄ Ĳ
Ġdes crisse
era ri
rys tal
Ġf usto
erra ta
ĠTh ree
Ġrisi ede
Ġdistur bi
Ġ7 50
Ġfantas y
Ġten endo
Ġtur ni
Ġ endo
to si
Ġdi ga
Ġdisegna to
ĠCarm elo
um mer
Ġdo ttore
Ġc lar
Ġfir mata
Ġafro americani
R ay
Ġpo zzo
Ä ĵ
Ġinvia ta
Ġuniversi tari
tri co
Ã© es
Ġgi rare
ĠMon s
Ġspos tato
Ġri per
ann un
Ġdiciass ette
Ġni di
ĠL enn
ka ra
Ġinten zioni
Ġgiu risprudenza
Ġmel od
Ġmess icano
Ġm it
ĠTenn essee
P atri
p ico
Ġsc ars
Ġele vati
Ġa gra
H is
Ġed ucazione
Ġopp osta
v at
ri ani
os ero
Ġvo la
Ġdire tte
Ġ# *
Ġevid enti
ĠIndi pend
Ġnotori etÃł
ĠAl ban
glia te
Ġde m
Ġmas se
Ġriusci rÃł
ĠAtl antic
assass inio
um ann
ĠPro va
Ġspa ziali
mo d
: '''''
ga bria
Ġpolem iche
f id
et on
Ġblas onatura
C u
Ġmammi feri
zzo la
An gel
ĠTu rismo
ran itÃł
Ġcelebra zione
S torie
el ico
Ġal tari
Ġri bal
Ġcor ri
Ġvica rio
n gel
G od
ĠPer se
ĠSal om
ĠN ec
Ġs eri
Ġm g
ĠB ug
Ġsta volta
in as
ĠPo well
ins er
Ġsicili ana
te tico
l ung
Ġespri mere
ĠOrig ine
li ve
Ġro b
ĠU mbria
ĠL A
Ġric re
len di
t land
ĠR C
ver ly
ĠQu arta
Ġsensi bilitÃł
Ġth riller
ĠAle jandro
ĠMerid ionale
Ġcontribu endo
ĠO saka
Ġmor tale
Ġconosci ute
Ġinv as
til la
Ġstre tti
Ġsconosci uta
F ar
Ġimp resa
ĠAven ue
ĠAr k
Ġd omini
ĠL od
Ġam anti
Ġconf ra
Ġintegra to
Ġsha re
Ġtra tten
ko wski
Ġ14 8
l ut
ĠMa gni
Ġfinanzia rie
Ġos s
enta ti
inf onia
N C
ran g
Ġ14 7
ta tori
ĠC ler
ĠM ing
Ġven uto
ma in
Ġdisposi zioni
Ġgal assia
ĠG ul
Ġblu es
ĠB alla
ĠT omo
ill an
Ġcrona ca
1 15
Ġ18 51
ĠEl len
G ener
Ġmeto d
Ġpend ici
J an
Ġa qu
ĠDun can
ĠL imi
Ġso glia
Ġgi Ã¹
Ġtri plo
Ġ18 31
ĠPo ggio
Ġrequisi ti
Ġscar so
aut onomia
ĠG igi
gli are
Ġmang iare
ĠD Ã©
ĠF lam
Ab ruzzo
t ha
ere a
19 00
Ġ18 44
Ġser bo
Roy al
Ġm ir
Ġma d
Ġcri pta
olog nese
Ġmen zionato
Ġ23 0
ĠMartÃŃ nez
con tin
Ġmemb rana
Ġotten nero
ĠF ontan
g etto
ĠBar ber
Ġro vina
alf abeto
G A
Ġle ttori
ĠS ind
pp ing
Ġal titudine
Ġscud eria
ina tore
der Ãł
Ġprocura tore
C ara
Ġocc orre
Ġaggiung endo
Ġ18 36
Ġcons orte
Ġcar ni
Ġcres ta
Ġastr ona
p ir
u data
ic cio
Ġ14 6
ett oni
a bate
ĠA veva
ĠA utori
issi ppi
ĠCat ho
ĠComm and
ĠZ amb
Ġus cente
ĠU g
ĠReso conto
is ma
ĠAlex andre
Ġcollega te
Ġalban ese
as tico
ĠAn versa
Ġ18 41
ĠSch war
Ġ18 5
Ġagg ra
c l
p ment
tto r
Ġ13 4
Ġmassa cro
Ġconsiste va
GB T
Ġappar sa
lis se
ĠLu x
ĠLe v
ĠCon si
Ġtri logia
Ġaustrali ana
W ho
Ġug uali
Ġin soli
Ġeseg uite
ĠData base
Ġ ion
ĠUr bino
Ġci vico
ĠDra go
ane o
Ġscri vendo
Ġcollabor Ã²
Ġm y
basti en
ĠQ a
Ġan arch
Ġprepa rare
ĠB es
ĠLib ano
Ġlig ure
Ġno tato
Ġderi vata
ĠC incinnati
ĠRa cc
F anta
Ġfu gge
ant ina
Ġrico pre
uf ra
K A
Ġprop on
c ti
us ter
ĠFre qu
Ġcorre tto
f il
le gge
at tica
ĠU A
ĠCas erta
Ġ16 1
T T
Ġcor da
pubbli cato
Ġsoli do
e viÄį
em erg
Ġco pre
Ġde moni
ĠC and
Ġav vel
ĠInnoc enzo
ĠC lu
ĠRis erva
ĠCasti glione
ĠCresci uto
Ġass emb
ic ani
G irl
ĠS ali
ĠSici lie
ĠApp ar
Ġcura ta
c osc
ĠPas qua
Ġ ?
ĠBo ard
O ccid
Ġp alo
Ġfonda re
om io
Ġdu bbi
ĠSocc er
ĠB L
Ġtur bo
ĠSuper man
Ġcontinu ano
ĠAb u
Is lam
S w
z ino
ua zione
ĠE mer
Ġval vole
ut trice
Ġcirconda ta
ĠLyn n
isi ana
Ġequipa ggio
m burgo
Ġes ame
Ġinforma tica
Ġcom mento
Ġtras par
ĠPer tanto
Ġriguard ano
Ġpi rati
ĠFeder ica
Ġsp rint
Ġp olo
li es
Ġgiung endo
ĠHugh es
Ġes ili
Ġ18 05
teri um
ĠConn ec
Ġdov esse
C andi
G h
L as
Ġbu ono
p as
zz etti
ĠBen chÃ©
ĠConf ederazione
yu ki
P arte
Ġconc essa
Ġrifi utato
Lond ra
ĠBri d
Ġregg ente
Ġnetta mente
Ġmo tto
Ġl ento
Ġvisi tare
ĠPos si
ĠDra ma
er ni
ĠAd elaide
Ġvin ti
Ġfer mo
Ġvinc itrici
Ġfoto grafo
Ġser vÃ¬
Ġfat tura
ĠGar cia
ĠC is
Ġra gion
pre ti
ĠSha dow
ĠBur n
Ġf all
th am
ĠA B
ĠCh im
ĠLeg ion
ĠAri zona
mina zione
Ã »
Ġp enta
Ġ17 89
ĠEle zioni
Ġp neuma
es ilio
ĠAr che
ĠA ve
cer Ãł
Ġson oro
tra cce
ĠBas ilea
assass ino
Ġre ato
ill ermo
ĠGui de
ĠCostan zo
sa ggio
Gi u
Ġpref etto
Ġe po
ero i
Ġporta erei
ĠLib era
Ġlan ciÃ²
ic ine
ES CO
Dani el
Ġmens ile
Ġto t
Ġarrangia menti
Pun teggio
Ġsostitu endo
Ġb rig
Ġconten eva
Bi ologia
Ġvet tore
ĠWe ber
Ġdecisi va
ĠBe et
ĠA lo
ĠI a
w el
ĠN ice
Ġdiretti va
Ġs no
el amente
ĠLor ena
Ġvene ziano
ĠFis cher
Ġprima rio
Ġrin traccia
ĠAndre j
Ġmoni to
ana ta
ĠAsh ley
re m
Ġcollo cazione
Ġsubi re
ar um
ĠMonten egro
Ġf olle
ett el
ĠNat al
A prilia
V an
ĠA bout
ĠB olla
ĠBur ton
Ġambienta ta
Ġin verno
S ara
Ġl enti
Ġsu biti
Ġrelig ioni
pa citÃł
Ġspeci al
Ġsembra va
ĠLin k
ffici al
ĠRos en
ĠPa ge
ĠCir cle
ĠBro oks
le i
Ġlegg ende
ĠStan dard
Ġgiuri dico
Ġraggi unsero
pon ente
En rico
Ġquotidi ana
ĠS weet
Ġi ber
Ġfior entino
ĠW RC
fi la
Ġcli ente
Ġdioces ano
d de
ar mi
Ġcostru ttori
Ġtum ore
Ġb oni
vo cati
M assi
a da
f us
Ġs li
fer enza
Ġprodut trice
Ġlib ere
F em
Ġmie i
tu oso
ĠRis petto
Ġelettron ico
ĠMunici pio
Ġpi ana
id ro
ĠWal t
ĠIn contri
Ġabi tazione
Ġrifi uti
ig er
Ġ14 3
ĠCom andante
Ġoccupa re
Ġdiscend enza
Ġnapole tana
ĠNi ki
ol fi
ĠCi ma
Ġdiagn osi
Ġ17 99
vis mo
Ġconc omit
Ġchia mÃ²
Ġrile vanti
Ġinteress anti
ĠS asso
ĠP ink
ĠRe view
Ġmar ine
ĠGon falone
Ġattacc Ã²
Ġcompon gono
z h
ĠEdi mburgo
ĠM ug
Ġsp inge
em en
ĠV iola
Ġseg uiti
Ġres tri
Ġconsid ere
ĠDami ano
tun o
ĠAra bi
Ġbattezza ti
gion ia
Ġfa zione
Ġu cra
Ġedi ficato
ĠM ine
Ġcor olla
k al
ĠSi eg
ĠD E
Ġarri vati
Ġante prima
Ï ī
c ur
Ġlancia ta
Ar co
tecn ico
Ġdici anno
ĠMar x
Bat man
Ġpre co
ĠCors ica
r ine
Ġ2 15
Ġper d
Ġr urali
Ġsche da
tan t
Ġdistrib uiti
Ġsegna re
S ci
b ama
Ġber lina
Ġpeculi ari
t n
to la
Ġm esti
Le on
ĠFi ladelfia
ĠGui da
b orn
ĠB ot
ĠG B
org imento
ut y
pole to
Ġguadagna re
le e
ĠB h
ĠJuli en
Ġ ellen
Ġcomp rensione
Ġdis f
Ġre pli
ĠOrs ini
Ġpo ch
ĠBuff alo
Ġa prono
fic arono
S enza
Ġpri gionia
Ġpara ssi
Ġsepa rato
ĠK ati
ĠLib erazione
Ġre make
Ġta mb
F al
ĠI na
Ġan goli
ucc isione
menta to
uta ta
Ġcamp ane
Ġin gi
ĠL iceo
ĠH od
ĠSul l
ĠS amo
om ba
ca po
ĠAl pha
Ġschi ena
A erei
ĠBrad ley
Ġlo tte
ua ta
ĠGi ord
Ġconfer enze
ĠBom piani
ĠQu ella
Ġaltret tanto
ĠS E
as ca
Ġrim bal
ĠCara binieri
Ġspic ca
Abb azia
H ot
ĠPi e
ĠCro w
ĠC ano
Ġdest inate
ĠM its
Ġbac io
Ġgem elli
Ġseconda ri
Ġ28 0
Ġven dica
Ġes tivi
pri etÃł
ĠHer r
as ter
Ġbre vemente
ĠBus iness
Ġn om
ĠLu do
ĠF asc
ins k
u il
Ġter rore
Ġriferi rsi
mi era
id itÃł
C lass
Ġimp ron
ĠFeder ale
Ġass edio
ĠMuse i
Ġdemoli zione
Doppia ta
Ġagon istica
ĠTo wer
Ġdanne ggiato
opp osizione
ĠVer lag
O limp
ĠFilm s
ĠW ing
L or
Ġun iche
ĠBri tan
Ġgre che
h ua
ĠBlo om
Ġsfrut tando
Ġcompi e
ĠMis so
Ġriten gono
Ġd Ã©
end ente
Ġ14 2
Ġargom ento
ĠBoni facio
Ġnascon de
Ġserp ente
ra tto
Ġappar tamento
Ġafric ani
Ġb ug
ĠLo w
Ġferrovia rie
ord ini
ĠCamp an
)''' .
Ġritro vano
uti che
Ġanno vera
Ġinc isioni
Ġfalli to
Ġseg mento
Ġan tic
za wa
Pro mosso
Ġinda gare
Ġc ister
ĠPo chi
Ġent rate
Ġproto collo
ar cato
Ġass edia
Ġ14 9
dic amente
Ġpas tori
Ġres istere
ĠM eno
ĠW C
Ġet nica
Ġmet tono
Ġrin forza
Ġcaus are
ĠIn torno
b ridge
ca t
Ġre f
Ġass istito
ĠXa vier
ic um
alle t
ĠE no
ĠDonat ello
R oman
h anna
ĠS ingolo
Ġsignifica tive
ĠCra w
Ġ ì
ĠFin n
ĠMetropoli tan
Ġspo t
Ġdimin u
Ġstella re
a perto
obbli go
c it
Ġ18 35
Ġam basciatore
tt ano
Ġsupre mo
Ġattraversa re
Ġguarni gione
us er
Pers one
Ġri gor
Ġ18 32
Ġdi so
im prov
Ġsucc eduto
ĠMon astero
Ġoccup arsi
ĠMoto cic
Ġchio stro
Ġmis cela
ĠCec il
G et
Ġc ime
ĠV ica
ĠE lia
Ġcomm esso
l esi
ĠT ha
ĠE yes
Ġsal one
1 17
N U
el ica
ĠTi ber
Ġmen zione
Ġinterro tto
Ġpri vi
ch ile
ccia re
Ġ è
ĠPe ugeot
Ġsov ranitÃł
Ġnon a
ĠZ X
ĠStori co
O p
ĠS ton
ĠPrinci pato
ĠAlbum s
ĠL GBT
ĠPri ce
Ġquo te
ĠLoc k
Ġson no
Ġsp into
ĠHol land
ag ricoltura
Ġfis cale
ĠSeg unda
Ġc lo
Ġra mp
Ġchia vi
Ġrep utazione
ĠE y
ĠDi ff
ĠPer si
An ni
cu rio
ela bo
Ġh op
j er
z anti
mina re
zzano tte
Ġde boli
Ġinclude va
Ġri organi
Ġinc ursioni
ĠAlb ania
ĠC ele
Ġdimostra zione
ina ggio
f s
ĠE vil
Ġne anche
Ġparall ele
S ant
'' (
ĠMon umento
Ġoccupa zione
Ġgeomet ria
go ra
ĠD ati
Ġripor tate
Ġimmag inario
Ġcasal inga
ĠT os
ĠEd win
pis tr
Ġl ond
ĠN em
ĠH ir
Ġconf l
Ġdesig nato
A B
ĠA da
Ġ1 200
ĠI raq
pe te
we alth
ĠHer man
Ġcontra tti
ĠSch ul
Ġsti mato
Ġnatur almente
Ġcic lismo
ĠD ale
Ġalp ina
Ġspir ale
Ġd up
ĠOli ve
Ġemerg enza
Ġ zi
Ġad oles
Ġvampi ro
U T
Ġdo tazione
ĠPer iodo
Ġcapp ello
C risto
Ġabband ono
Ġinf anti
Ġconf usione
Ġdimin uzione
ol esc
j s
ĠA sa
ta vano
Ġdu chessa
ĠCat anzaro
i do
ĠS embra
Ġca bina
ti v
und ic
ĠM iglio
Î¿ ÏĤ
Ġbo b
is pettore
Ġ18 33
Ġcomp ensa
ĠMon tan
''' (
Ġc edette
ĠE MI
Ġmar catori
e urope
ĠS ale
ando gli
ĠSu cc
Ġfavore voli
Ġconsecuti va
ĠLec co
Ġsal var
B enz
t tuale
Fran co
uck er
n ome
Ġri so
ĠMa yer
Ġpec cato
ĠH ere
Ġper corr
Ġsim bole
Ġcontrabb asso
Ġutili zzÃ²
ĠPatri cia
ĠZa gabria
Ġp eda
N uova
ĠÃģ l
ĠT ris
ir Ãł
Ġgo al
Ġfar gli
omet raggio
F inali
ĠAm Ã©
Ġpensa to
ĠA ud
U K
f ly
tal anta
Ġinflu enz
ĠRe pub
Ġinterro tta
Ġs ch
an io
ĠC ald
ĠAngel is
Ġpar ere
In g
s ur
z amento
os tro
Ġbat tute
Ġfra g
Ġsettentri onali
ĠK l
Ġislam ica
Ġaper tamente
ĠManf redi
Ġann esso
omi ti
Ã¼ ss
Ġricos titu
ÑĢ Ð°
ĠAdven tures
D ir
ĠG is
ano v
ĠSa i
Ñģ Ðº
ĠPasc al
Ġpas tore
ĠE D
ann essione
Ġcontin ue
ĠDu ke
Ġrivolu zionario
ĠGer ald
Ġcris talli
agi re
Ġri al
ĠIn vece
Ġman tello
ĠPers one
ĠRoss ini
ĠKa za
ĠMar chese
Ġintra tten
ut z
Ġli rica
Ġcris tallo
F estival
pp ino
Ġno do
ĠBi ennale
Ġran king
Ġani mati
Ġcolla ter
eff ica
Ġpi enamente
Ġrisulta va
Ġ18 43
Ġcomposi tori
Ġcapol inea
P orta
ol li
Ġconf ina
e ma
Ġ''' -'''
uti sta
ĠMatti a
A i
enti a
u ki
ĠG inn
Ġpo di
Ġrappresenta va
Ġsosp etto
Ġdif ensiva
ĠVan couver
Ġconsent ono
ĠPro babilmente
Ġusci te
Ġsugg esti
Ġgravid anza
D omen
Ġosserva to
S tan
Or chestra
kin son
Ġperdu ti
Ġtrian golare
ĠZ one
gn itÃł
ĠTi ziano
ĠL ist
Ġri duce
ĠAtl antico
ĠP eti
Ġta g
Ã©s ar
Ġel enco
Ġslo va
ĠAr ca
Ġtratta tive
Ġannuncia ta
Ġsinteti zzatore
Ġmonas teri
ĠIn fer
S T
ĠD ista
Ġtra mpolino
ĠHud son
ĠIn tel
ggia tura
Ġschi erato
Ġg etto
99 9
Ġder by
p Ã²
Ġg r
Ġatti ve
Ġperf ino
ĠRag usa
ĠFlo ra
Ġsp l
Ġpre gi
Ġosserva ta
opportun itÃł
Ġpola cchi
Ġfarf alla
fis ica
á º
Ġ# "
Ġsov ras
ĠL um
ĠE venti
cas tle
Ġcad enza
ÅĦ ski
ĠReb ecca
ĠFigh ter
Ġcam ere
ĠVer onica
ham mad
Ġ18 09
ĠRod rig
D ay
ĠM I
ĠD esi
Ġpor tico
Ġdemoli ta
m ura
Ġa bili
Ġsottop osta
Ġadia cente
Ġbre v
ĠR ui
ĠHe aven
Ġcompet enze
Ġvo glia
Ġv ini
Ġo u
Al berto
Ġacquista ta
O ff
ven ture
Ġvendic arsi
ĠLu cy
ĠTo yota
Occid ente
å ¤
ett ini
Ġdif ensivo
tera pia
Ġbud get
Ġas pi
ĠP sy
ĠReg istra
Ġdisc reto
ĠPom peo
ĠS U
lus si
Ġra ri
ĠAle k
Ġdista cco
C ana
Ġcomp lo
ĠCos tanza
Ġtrasferi ti
Ġmi tolo
B iblio
W ild
ĠI v
ĠPa vel
hard t
Ġdona zione
qu anto
ĠCi vica
ĠComp ton
Ġco untry
Ġt ensioni
Ġinter i
ass one
ĠFranc ese
Ġsta tuto
ĠDire zione
ĠImp eriale
Ġcerti ficato
l ana
ĠEar l
Ġf lash
ul tura
in ano
ĠB ren
Ġpic chia
O ld
U no
Ġconna zionale
B ea
em on
ui va
Ġincro ciatori
ĠJac kie
Ġ2 12
Ġl ink
ĠMont gom
Ġturi sti
ĠO ther
Ġ18 25
Ġinter ru
ma ggio
ĠCal endario
Ġsoddisf are
ĠC ord
ĠL ed
Ġmon tana
s oni
Ġc um
ĠP ec
inci Ã²
ĠDe por
Ġveri ficare
ĠB eno
ĠIn tro
igli amento
ĠSanti ssimo
Ġcens ura
r Ã¡
Ġsp ing
Ġ( Â«
bi d
ĠMar cia
Ġripor tano
ĠPro to
Ġrimas te
Ġp inna
Ġag ricolo
Ġrib elle
Ġsu dafric
t elle
Ġma fia
ĠWe i
f atto
ĠE rano
ĠAn nie
ĠVal li
ĠFa enza
tr onom
Ġz ar
Ġmac ro
ĠBec ker
ĠP A
Ġ16 6
Ġlegisla tivo
Du cati
Ġcam ion
Ġendem ica
ĠA via
Ġw restler
Ġteore ma
c ing
h ill
Ġtem pli
Ġdisp utando
ĠS ue
etta ti
ko b
Ġminor anza
Ġa tomi
ĠT ess
bb o
ĠCon ta
Ġreg io
Ġnec ropoli
Ġpio mbo
Ġlic enzia
Ġinter media
ĠH us
Ġinf rastrutture
ĠVita graph
ĠThe ater
ĠFor um
ĠMor eno
Ġdichia rata
ĠBell ini
ĠB le
po p
ĠBj Ã¶r
ĠM atch
Ġ18 42
Ġrivol ge
Ġdipend enza
Euro vision
qu o
Ġt almente
Ġa zzurra
ac chino
osa uro
ĠMan fred
d d
Ġgi alli
ĠM embro
ĠInter no
Ġvasc ello
M O
po ri
Ġaff etto
gen ce
Ġatle ta
ar no
ĠTec nico
ĠD est
ĠMon ta
Ġcar tone
Ġprofess ionali
ma ra
ĠMi randa
Ġincre mento
C onn
Ġsp inse
Ġmeccan ismi
Ġfal si
Ġtra ppola
ĠUlti mate
Ġesa uri
Ġ15 8
Ġmarina i
ĠOlimp ico
Ġs tereo
qu io
Ġass om
ĠTri ple
Ġ18 12
ĠGu illaume
Ġrip res
Ġricor rente
Ġsequ enze
Ġdevo zione
Ġ18 10
Ġrico prÃ¬
ĠD id
Ãł n
Ġta sse
tina ggio
Ġvolon tario
Ġ18 34
ĠHar vard
Ġstella ri
ĠS poleto
Ġer editÃł
ĠAg ostini
ĠJon as
Ġsensi bile
ag er
Ġdo rato
Ġ16 7
ĠPri mi
ĠGian ts
Ġauto matica
c zy
ĠC im
Ġtrasforma re
V ideo
p oni
Ġv eder
Ġ18 18
ĠHo od
fon ica
Ġmole cola
Ġ ).
Ġfun zionale
Ġcad uto
ucc ini
es io
Ġtro v
ĠNorm andia
od or
end ono
ĠD ela
ling ton
Ġrinven uto
ĠTeod oro
Ġcosti ere
Ġintrod usse
Ġa mare
ĠBar bi
s cono
ĠH its
Î ¬
ro und
ĠB ristol
ĠH ass
Ġro ta
Ġpassa te
Ġet c
Ġvi bra
Ġdeci ma
din amica
Ġn acquero
Ġcome ta
ĠL il
Ġfur to
z etti
19 07
ĠZ or
Ġcolletti vo
ĠK ub
Ġver bo
Ġspa rare
Ġfam e
Ġpetro li
Ġta ss
Ġlun edÃ¬
Al tre
ĠStudi Ã²
ĠPan ama
Ġ16 8
Ġconquista ta
po ti
alo re
gno la
Ġstabili menti
Ġclass iche
Ġfum o
Ġtar ga
Ġper cor
Ġle gn
Ġcal ice
Ġfo ce
ĠD I
vo re
Ġlar gamente
Ġsta di
ĠPro gram
Ġotto cente
Ġdocumenta ta
Ġrisc ald
ĠBar to
ula to
Ġri mon
ĠW ed
Ġcli ent
cc ante
ĠDa wn
Ġcomunica re
Ġgene alogia
ĠCom bat
Ġ à
Ġf ren
ĠD urata
Ġh ome
Ġinterpre tÃ²
Ġinterpre tando
ĠCos tr
Ġbar bari
ĠPers ia
p etti
Ġvol uta
Ä« s
Ġ2 14
Ġvisi te
ĠSerge j
ĠX i
ĠGib son
ĠGoverna tore
19 06
ag an
ant ini
T utto
Ġ elli
Ġum ili
Ġgenera re
Ġtor nando
Ġcomand anti
ul in
Ġug ualmente
Ġimmi grati
pa te
Ġmaga zzino
egre tario
Ġvac anza
Ġrappresenta te
Ġcaratteri zzate
Ġin du
ĠC oc
Ġinter viste
Ġco e
Ġprof onde
Ġraggiung imento
Ġturi stica
f ondo
Ġra ti
ccio li
Ġpass arono
ĠGeno a
ĠC imitero
Ġm anto
tti che
ĠLo pez
Ġcentro campista
ĠMed icina
Ã³ s
Ġgiov ine
Ġp allone
ĠKa z
C ic
Ġletter ari
Ġli riche
Ġ17 00
p si
ĠM org
ĠR ia
ĠR CA
Ġbat tere
ĠV io
Ġprecipi tazioni
Ġaustr ale
T empo
ĠMar ty
Ġtratta re
Ġsquali fica
ĠSer en
B ologna
Ġregis trÃ²
Ġerrone amente
ĠM anagement
de burgo
Ã´ me
m un
ĠA mer
Ġfu ci
Ġad ulto
ĠMa ratona
Ġfa ra
tron omo
f ect
Ġass ist
ĠBoli via
Ġconte e
ĠPet ers
Ġav vol
Ġsostitu iti
Ġfri ul
appro vazione
Ġsitua te
Ġmagne tico
ĠChurch ill
ĠRo che
ten berg
ĠBan diera
ket ing
Ġcicli sta
Ġd onato
Ġster line
re gia
B os
a us
auto strada
ĠKen ya
ĠB ram
Ġprof e
ĠLe ip
ĠAngel s
Ġcrona che
ĠC ensus
Ġlas ciano
ĠStal in
Ġdoppi etta
Ġtro vando
Ġcostitu Ã¬
Ġeleg ante
ĠA D
qu ali
mi de
S ur
ĠI P
Ġliber ali
Ġprovinci ali
Ġic on
Ġaccompag namento
ĠTul lio
za ki
Ġpo tendo
t tes
do li
ĠPubbli cazione
ĠMisso uri
Ġ* (
Ġraggiun gibile
El ena
Ġmura ria
Ġmuo versi
Ġrest Ã²
Ġ15 3
ĠDi ffer
ko p
ĠSig ism
Ġs fortun
ĠL ess
Ġri para
vi val
fic amente
Å ĳ
inci rca
ĠB eni
Ġ16 3
fin alista
Ġ''' .
ha bitat
ĠMal grado
ĠMul ino
P as
Ġma gni
Ġn it
u fficiale
Ġspos tÃ²
Ġdin amica
L ady
Ġsostitu Ã¬
w est
Ġsta mpe
ĠCo re
atti va
Ar ma
ĠDeb ut
Ġinvesti menti
Ġnec essi
f ast
ĠM B
ĠM eso
Ġ17 98
Ġattrib uiti
Inter preti
ĠP ris
ĠB asti
ĠBar bar
N orth
V ers
inc endio
Ġdo g
ari s
ĠTri poli
Ġbir ra
Ġcam eri
Ġcer tezza
ĠBra un
Ġc uo
an or
Ġvin sero
ĠAff ari
g ante
zza zioni
ma il
Ġri faci
ĠMV P
r Ã¨
ĠJo Ã£o
Ġsosp etti
ĠSo ra
Ġsostitu isce
Ġcomun ita
Ġbasso ri
Ġb acc
ĠMin or
ĠDre w
s ud
Ġmole colare
Ġm ali
Ġbi ologica
di ano
rat h
10 5
I ran
Ġspos tata
ĠA bate
ĠI U
Ġ15 7
Ġir landesi
ĠSo phie
CA A
y ton
ĠCamb ia
Ġconsul ente
F O
k ra
Ġesp oste
ĠFlo tta
ĠN O
19 05
Ġrinno vato
Ġc and
Ġc ede
ĠG are
ĠMat s
Ġillustra to
Ġ igi
ĠT esto
gli ati
ĠTole do
S ome
ĠM anager
ad d
Ġi ri
rom pe
Ġdom esti
Ġagrico le
ri mento
Ã¬ a
ĠBo g
Ġcomb inata
ĠMal colm
Ġinten sitÃł
Ġcombat tuto
ĠSte p
Ġrivela zione
Ġcombusti bile
ĠVik tor
Ġa zion
Ġcomp ro
r gli
ĠE zio
Ġadotta re
ĠGene alogia
j ay
ĠFu ji
Ġraffigura to
ĠMari on
Ġfune bre
ĠVersa illes
ĠRe x
C ons
ĠS uore
Ġpartecip ante
Ġintelli gente
u bi
Ġes i
ĠMat era
Ġdata bile
Ġelettri che
Ġossi geno
ĠAttra verso
Ġpartecipa zioni
ĠMor ti
G E
ĠE qui
ĠPro sp
ĠBow ie
Jose ph
ĠLi u
ĠBor rome
Ġcro ato
Ġpar odia
Ġaffron tano
b lu
ĠB occa
Ġcampion essa
ĠL us
ĠShi r
Ġrispar mia
Ġinvisi bile
Ġrile vanza
Ġl inf
Ġ20 5
Ġpal cosc
Ġminer ale
Ġtras mettere
Ġs illa
Ġco prire
d all
Ġtrib uto
Ġtu bi
ĠGh ost
Li ber
Ġpre ved
J on
Ġinc ol
â ģ
Ġton alitÃł
Ġl usso
Ġparad iso
ĠV esco
Ġ15 9
r le
ĠS Ã¼
Ġmin imi
ond Ã²
ĠLyn ch
h im
Ġal coli
ĠP ut
Ġai uti
ĠCap ua
Ġinsegna re
F ili
ĠHel m
Ġ2 16
qu er
Ġsosten uta
Ġsuddi visi
Ġapp untamento
ĠSe ven
Ã¶n en
Ġmar ino
Ġto cca
ĠSha h
t tando
Ġimp osto
Ġsin onimo
Ġconcl udere
ĠU fficiale
ĠAv ellino
ko k
tere bbe
ma c
ĠPan zer
ĠOrig inariamente
S C
Ġstra pp
ĠEd mund
ĠKle in
ĠPor tu
Ġabi tata
ggia va
ĠFi ve
ĠB usto
Ġarg entina
Ġrico perta
Ġgiovine zza
Ġs blo
Ġmar tello
Ġdiff ond
Ġsottop osti
Ġallen amento
Ġman da
ĠGiust ini
Ġs man
Ġposi zionato
ente simo
um ont
umere voli
Ġ( +
assa re
gn one
Ġsca rico
ffi eld
Ġad olesc
ĠMedia set
Gold en
Ġrum ore
Ġdu omo
âģ Ħ
ĠP ano
Ġvit ale
W i
ĠS na
ĠP rat
ĠTechn ology
ĠCom mo
acqu isi
L and
Ġvari ano
M orte
ĠA BC
Alb ania
ven uta
Ġalp ini
Ï Į
Ġpro ssima
ĠDo ttore
ĠTh ing
Ġriman enti
ĠDoro thy
alo g
yn th
ĠTor ri
m ic
Ġ15 4
Ġ2 17
us ci
Ġran a
Ġgi usta
Ġfavo rito
Ġel etta
angu ardia
U craina
Ġ17 58
Ġv u
Ġspeci alizzato
ĠBa k
Ġg ame
Ġma cchie
ĠCo ver
Ġric ono
venti on
Mi ke
ĠCB R
Ġp ura
ov vero
Ġlong itud
s ung
Ġcor on
Ġmom ent
M L
a boli
cc ino
Ġdi gnitÃł
Ġapp rend
Ġet ero
di glione
ĠMon ster
aro v
Ġdipend enze
Ġfati ca
N at
Ġro bus
Ġinc redi
Å¡ Äį
c ion
Ġes istere
ĠVal eria
Ġmuo ve
om bie
it ania
ent almente
uo li
O ver
ia te
b ran
ĠPrima vera
an tonio
Ġun ione
Ġpo pol
w yn
Ġfre ccia
Ġn ano
Ġbesti ame
ĠD imit
Ġla cri
ĠY Z
ĠP ig
ĠBor deaux
an ts
Ġchi udendo
Ġprom ul
A genzia
ĠK yo
Ġnet work
ment s
Ġfl essi
j ar
Ġesp one
ĠMor rison
ĠIndiana polis
Ġpropri amente
Ġattre zz
b ali
Ġ2 11
An tico
Ġtris te
M essa
ĠK ro
ĠM elo
Ġsuper gigante
gorit mo
menta ri
ĠMontgom ery
Ġcandi d
Ġuniversi taria
ĠMo lise
Ġpare ggi
ĠBan ks
Ġfu ri
c arsi
Ġfram mento
k us
ĠP T
Ġpu ri
ĠComp osizione
ĠS O
Ġrap ina
Ġf isi
ĠL iste
h ler
Ġde biti
ĠV asco
Ġbas ti
ĠM ick
il de
Ġa ug
Ġdetermina zione
ĠCin ese
n ino
Ġlun are
Ġpossi edono
Ġretro ced
S ei
Ġte me
er omo
ella to
M ess
Ġan alogo
Ġcondanna ti
Ġresta uri
ĠQ F
Ġcal care
ĠJeff erson
Ġd ance
Ġsoci al
Ġradiofon ica
Ġg alle
elo pment
Ġsepp elli
ĠDra ke
e to
ĠBe y
ĠRo om
ĠI ce
ins ki
uc ca
Ġreci tare
Fir st
ĠF rÃ©
Ġmus colare
ĠIn die
Ø ±
Ġmedio evale
Ġprovo cato
Ġtrans etto
Ġdistur bo
Ġpad ri
Ġaus tro
ĠIgna zio
ĠEs teri
Ġc essione
Ġstati stica
ĠRus h
Ġparticolari tÃł
i Äĩ
Ġappli cato
Ġn etto
Ġvaria re
ghan istan
k g
Ġsi ta
Ġcol ombi
ĠF L
Ġri mos
gam i
ĠHon or
anti ci
ins tein
Ġuni forme
ĠStori es
B an
De ath
ĠA P
ĠR ome
Ġ17 1
Ġcusto dia
Ġtenn ista
ĠS enna
ĠG ur
ponsa bile
ĠStati on
ĠB ord
E ast
Ġmag ica
l ano
Ġla dro
Ġalle anza
Ġvin ile
Ġafric ano
n or
ĠBo tta
Ġrisul tando
Ġbar occa
Ġcora zzate
S F
ona ggio
v ede
Ġ âĢĵ
Ġpre ge
Ġfino ra
cam po
ĠChild ren
ven uti
Ġimp ero
Ġprovviso rio
trib Ã¹
Ġspagno le
anti s
Ġ2 18
Ġconf lu
Ġar ald
Ġtri angolo
ec cezione
is ha
em er
ĠLi berty
D ol
Ġa z
Ġinsegna to
Ġgall erie
Al la
ĠCol omb
Ġrep ressione
Ġ18 21
ĠMa gna
Ġrego lam
ĠMar l
at tico
Ġ26 0
ĠColla bora
R es
ĠS ri
ĠEl lis
ĠVit erbo
Ġregistra te
Amb ro
ĠWarri ors
P art
it ure
Ġri mozione
Ġterm inare
Ġeste se
ĠT us
Ġdis cri
Ġelim inati
ĠIndi an
Ġgiuri dica
Ġamiche vole
Ġes on
ĠL er
Ġchies etta
ĠK ru
ĠHos pital
ĠCon venzione
Ġ('' '''
ass istenza
ĠA eronautica
Ġnerv oso
Ġre mo
ĠY as
c omo
man no
Ġgen erato
Ġinsegn anti
ĠAnn unziata
ent on
Ġind ice
Ġvaluta re
Ġsc eriffo
ĠPa ulo
Ġ16 2
ich ia
ĠTec n
Ġpano ram
Ġri one
ĠQuali ficazioni
ĠColl ana
Ġla tini
ĠEm pire
fran c
Ġaccessi bile
Ġul tra
ä º
ĠC io
tu ari
ĠBar one
C ur
T wo
Ġs tal
Ġcaccia tore
Ġpuni zione
Ġ20 6
Ġalterna tivo
at ha
ĠScotti sh
Ġv ass
ĠTo polino
ĠGar da
Ġgio ia
Ġamm essa
Fi umi
ĠFa bi
Ġartisti ci
ĠPalla canestro
ĠD oni
ros hi
B ian
tto lo
m eri
Ġd os
ion almente
at ing
res h
ĠSpe ed
Ġ2 13
Ġmili tato
S pagna
ar civescovo
ĠH MS
ĠDi v
ĠSt Ã©
Ġcominci ano
ve z
fici e
Ġcon dotte
Ġse ggio
j k
ĠN Y
Ġliv rea
in one
M V
bra ti
Ã¢ n
C anz
S om
Ġdistin se
S to
ĠK ha
haw ks
ĠBorrome o
ĠP ick
Ġ18 01
Ġistitu zione
ec om
Ġbi ennio
Ġan om
Ġintra ppo
Ġsovie tiche
ĠWood s
Ġt ang
ĠWW F
Ġesibi zioni
ĠQu arto
Ġfa zioni
ĠSe vero
Ġorig inari
ĠGra zia
Ġpen it
go t
Ġimp ose
la t
ĠSul li
u vi
bru ck
Ġriuni ti
Ġsp lendi
van t
Ġcostitu ite
Ġcura re
ten ne
ĠCo hen
Ġgioi elli
d osi
Ġpa rag
Ġpa ragona
L oc
ĠV or
Ġaver la
Ġid one
ĠCD P
ĠB reak
Ġantici po
ĠDomin go
1 16
Ma uri
Ġprepa rato
r enti
Ġna ufra
ĠTur n
w ang
ĠâĢľ ''
Ġproced ure
ĠWal sh
Ġidra uli
M eda
ro man
bo lismo
ĠVia reggio
ĠCapit an
Ġlung ometraggio
Ġes tro
ga b
Ġoffr Ã¬
Ġmini era
Ġdemocra tico
Ġtor nano
Ġaffid Ã²
Ġsim ul
V ince
ĠE f
ny j
Ġda tazione
ana y
Ġ18 1
ĠBar on
ĠSÃ© bastien
ĠD etta
Ġ18 17
ĠC ut
tra tta
i vano
fini to
ĠMiss issippi
ĠCo x
C le
ĠT oro
Ġrichia mo
ĠOh io
M ov
vid enza
g ino
ĠS ettentri
ed om
per t
ĠRe id
Ġdec isa
Ġomosess uali
Ġcollabora zioni
Ġpar chi
ĠR ani
ĠAn te
Ch icago
Ġrispetti ve
T orre
ĠI la
ĠD emo
ĠHar per
Ġresid enziale
ĠÃģ ngel
ĠLenn on
pp ina
ĠV ettel
q i
Ġpre ca
Sa int
Ġpaesa ggi
ten ze
ane ta
e zioni
ĠG asp
Ġres pira
fo lia
Ġillustra zioni
insegn amento
z eland
10 8
ĠLi vio
Ġgo de
ĠC Ã©sar
ĠKe y
ĠAlex andra
Ġacco glie
Ġsved esi
M et
R u
ĠS eth
ĠD elle
Ġfar la
Ġrinfor zi
Ġ ol
es on
di ff
Ġproven gono
Ġdel i
ĠOr gan
L y
i bile
ĠR osi
ĠEug ene
ĠItali an
Ġmal ato
ĠFe ce
Ġdichiara zioni
f onia
ĠFed eration
Ġscato la
din ese
d onna
ĠLo gan
Ġvul nera
ĠR ica
Ġ17 53
Ġfa vor
ffici ali
Ġnasc ente
E cc
ĠE gi
Ġsub ord
ĠB elli
ĠG he
Ġgover nato
Ġquotidi ani
am an
ĠW Ã¼r
ĠQu ello
Ġmed al
Ġz ur
ÃŁ e
y ya
ĠLa vora
ĠBar cel
Ġposi tivi
Ġnas o
... )
Ġin tri
ĠF ondo
ĠT su
ba b
F F
S peci
Ð ±
in ferno
ĠH uman
Ġali eni
ĠMon go
ĠTer re
Ġpar lata
Ġcer chi
Ġporto ghesi
Ġv alla
ĠD ana
Gi orgio
atte sa
N ess
Ġ'' Â«
n anti
Ġal quanto
Ġt oni
in fer
bo ys
Ġta ckle
Ġcre ate
o dore
ĠI da
Ġaffron tato
Ġveget ale
Ġsvaria te
M ay
N ella
Ġcompl essitÃł
il or
ĠB anda
eg ne
Ġnum erazione
Ġinc isa
Ġdov rebbero
Ġproc ede
Ġesclusi va
ĠCec oslova
gn y
Ġlascia ta
Hen ry
ĠSinda co
Ġine vita
la ro
ĠMon ter
ĠAcqu isti
H istoria
ut tiva
Ġeven tualmente
g ena
aff ari
ĠAtle tica
ĠQuattro cento
Ġvi vente
ĠMe i
ĠFar nese
ĠDec isione
Ġan dati
Â° '''
F eder
ĠPo zzo
ĠSt elle
ĠIndi viduale
Ġman cata
ri ty
ĠMarc os
Ġinc ar
Ġspieg azione
ĠMotocic letta
ĠLa bora
Ġprocesso re
ĠM etro
Ġfig urano
Ġproie zione
M orti
g lo
cri p
ĠAni ma
Ġsalvata ggio
s enza
os io
Ġatten dere
f are
p lica
ĠO tten
Ġvanta ggi
Ġturi stico
Ġrisc uo
er ini
ĠM A
ĠQu Ã©
vento re
ĠWork s
ĠHend erson
el ess
organ ismo
hie u
ĠN Q
Ġrigi do
Pers onaggi
Ġins erite
ĠQual che
ĠSe ul
Ġposs edere
Ġab ru
Ġcontribu isce
f inal
Ġma ppe
ĠFerdin and
Ġinterpre tazioni
Ġpreval enza
ĠSport ing
ĠN ath
Ġfis icamente
Ġfuner ale
Ġp elo
Ġri dis
ĠVec chia
ĠK oso
ĠPlan et
ĠT este
Ġaziend ale
ĠG Ã³
Ġesp ressioni
is lazione
Ġ17 7
ĠD ad
Ġb ut
ĠH ed
id th
ĠChris tine
Ġstati stiche
Lib ro
m u
Ġp alle
Ġ17 6
Ġcontra sti
arg omento
ĠM oni
era ria
ger si
ĠMcC art
ĠGra ss
Ġgro tte
H u
Ġp isto
ĠK au
Ġschia vitÃ¹
Ġavversa ria
ĠCara ibi
Ġpos a
Ġri mosso
A cc
Ġint ento
Ġproietti li
r ero
Retroc esso
Ġaranc ione
id ale
Ġrec ano
Ġampli ata
ĠLing ue
ĠNav arra
Ġsuo re
ĠEs empi
ĠDis c
Ġtera pe
Ġmo ti
ĠDa vies
Ġinf anzia
f onte
it ing
ter back
Ġosc uro
Ġm esco
do to
Ġra di
est Ã¬
Ġderi vate
ĠTro ia
g ren
Ġdeten uto
Ġdicio tto
Ġcarr ello
Ġcostr inge
Ġinteressa ta
ĠGre ci
Ġsuperfici ale
Ġincom ple
Ġappassion ato
s port
ĠV et
Ġtra duzioni
ĠNe xt
Ġesplicita mente
ĠO la
ĠMa ch
Ġesp and
ĠCh Ã¢
Ġlabora tori
Ġsco ppi
Ġv edi
ĠLu po
Ġsegnal are
ru e
ĠCar o
Ġindossa re
ĠT S
Ġacc orge
D VD
Ù Ĭ
ĠA ero
zz y
ĠSulli van
Ġmina cce
Ġpre istori
ĠMa ggior
ĠTom as
ĠC anta
ĠT ren
ĠNa ka
Ġrub are
m ali
ĠA be
Ġpat ron
Ġomo gene
Ġoccup ano
ĠB ots
Ġman cano
Ġperio dico
Ġpal io
ĠPopo lazione
B ern
c ine
Ġmor bi
atten tato
Ġgenti le
Ù Ĩ
ĠHe arts
Ġsceno grafia
Ġqu alora
18 0
Ġcostr ingendo
an tino
Ġinn umerevoli
Ġit al
g oni
ĠN ame
ĠWal k
Ġsic ura
ĠSette mbre
Ġorienta mento
H app
incro cio
ĠEsord isce
Ġposi tive
Ġfer mato
Ġpersi ano
H am
Ġopportun itÃł
em me
Al fa
Ġintro dotte
Ġinsegn amenti
B ronzo
ĠE qu
Ġ17 8
ĠBer ry
Ġrin ascita
ĠA o
Ġnasc osta
Ġpromo zionale
Ġri dotti
Ġono ri
Ġcom i
ĠCa val
ol ano
ĠNuo to
Ġb ordi
vo rio
ĠDal mazia
Ġne bul
ĠTec nica
vi k
Ġrile vato
ĠFil osofia
Imma colata
S D
en ici
Ġvig ilia
An th
Ġo cean
âĢ ²
uss y
Ġsatelli ti
ĠMa ca
Ġpresenta ti
Ġi vi
ĠG an
Ġci vica
Ġfior entina
ĠF lem
M rs
ĠC ena
Ġcal ci
Ġrecu per
G es
Ġv entre
es tÃł
ci lia
mo ri
ins edia
Ġinc isi
ea e
Ġdeten uti
Ġconten ute
ro y
ĠT ana
nam ent
ĠQ uo
ĠEm my
D alla
ul us
L ost
z ing
ĠM ano
Ġta ttica
ĠPia ve
Ġimbar cazioni
Ġirre golare
ĠX L
Ca pit
ass er
Ġacc os
Ġrif lette
Ġmitragli atrici
Ġb ere
ĠGri mal
Ġdefini te
Ġbe van
on anza
Ġallun gato
Ġpa pale
Ġor bit
ĠMac erata
ĠMala y
Ġf rut
Ġdis pre
ĠRo tter
Ġsar co
pend ent
ch ichte
ĠElec tric
Ġv es
Ġbombardi eri
ĠH itch
ĠZ ara
ĠCommon wealth
w y
ĠR ela
na u
ĠLin ux
Ġne ppure
ĠRan king
Ġneo zeland
ghe tto
Ġsor pr
ĠTer ni
ĠMore tti
Ġcorrido io
ĠG Hz
Ġso bb
ĠPer formance
Ġtu ber
i ana
Ġc y
Ġ16 4
Ġtro varsi
ĠLu ft
Ġrivel are
ĠOra zio
Ġfeud ale
e bra
Ġven dette
Gre en
Ġnic chia
ĠBer ger
ĠDan ubio
ĠIn te
Ġinterpre tati
ĠMusic isti
Ġcanti eri
A tle
ĠFeli pe
Ġsman tella
Ġsca ppa
ĠBritan nia
Ġso und
Ġmet tersi
duci bile
Ġmis saggio
lÃ© ans
Ġin to
Ġt ua
Ġins erire
eric ordia
ĠVan essa
Ġcro ciata
ĠSigism ondo
in ista
ĠIng lese
ĠMil o
ild ing
Ġ18 29
ĠSim ona
Jo e
Ġaggiung ono
ar re
ĠC ure
ĠT au
Ar ri
Ġpan tal
orden one
im media
Ġbar ba
ĠC ed
ĠNa zionali
ion ista
ĠO sti
Ġver osim
iste mi
ĠLou isiana
t ch
ĠP CI
Ġrappres entÃ²
eli us
Ġpens Ã²
ĠS emp
Ġal f
Ġo ver
ĠComm issario
ĠContro l
ĠCar ne
3 50
ĠVol ks
Ġporta te
ĠMa z
cci ando
ce ania
Ġelettr oni
imp osta
Ã µ
C lassifiche
Ġang los
B ul
11 1
Ġsvilu ppi
ĠMerc ury
ell ina
ĠGro tta
Ġquin te
ĠSher man
Ġm iste
Ġca pe
ĠCron istoria
: (
Ġgeo grafiche
Ġpon endo
Ġgi rati
Ġin ad
Ġproprieta ria
ĠC essioni
ril la
Ġmiss ile
li vello
ĠO ffic
Ġcomp ressione
ĠBro oke
Ġstampa to
Ġassicura re
ĠSpos Ã²
ĠT ina
As burgo
Ġsorvegli anza
in con
Ġ16 9
ĠNikola j
ĠDa kota
Ġsol enne
ĠPhil har
Ġimpon ente
Ġalle ate
ĠGu illermo
Ġmori rono
Ġam pi
Ġaccen tu
ĠPok Ã©mon
Ġcas erma
Ġrepubbli cano
ĠA x
Ġripet utamente
Ġav val
Ar chite
Ġpoter ono
Ġinsegn Ã²
Ġprestigio so
Bab y
ĠS tern
Ġu bria
ĠCh ase
Ġauto stra
Ġpiazz ale
Ġ( ,
gg ins
ĠE very
Ġcomple tÃ²
gen esi
ĠJ uni
Ġflo ra
ĠTras porti
h ere
Ġrifl essi
Ã¡ z
Ġchiama va
elim inazione
ĠBeet hoven
ta ine
tori ca
Ġse par
Ġconsac rata
Ġ17 96
Ġs fer
ĠTi er
Ġcritica to
ĠUr bano
ĠChristi e
ĠF ros
19 04
elle y
ĠGio vani
Ġedi tori
ĠK TM
ĠLib ero
Ġsenso ri
lor y
z hou
Ġdistr utti
ĠIng egn
c ante
Ġar cate
vi la
Ġre ttore
ĠCa vour
ĠC T
ĠAl c
Ã©ra rd
ĠHe inz
Ġcro sta
ĠSebasti Ã¡n
N ot
ec ente
Ġdip inta
Ġvinc enti
Ġnem ica
Ġco gni
Ġfir mare
ĠCic erone
ĠN ilo
Ġanti fasc
Ġf aro
f urt
Ġester a
pro vincia
Ġconvo gli
lan cio
Ġpericol osa
us tino
Ã¼r gen
ĠAf ter
Ġm illi
Ġg omma
ĠG Ã¼n
Ġpre matura
L uca
Ġa re
ria ti
su per
Ġcoinvol ta
Ġdistingu ono
ĠH ack
ĠManif estazione
ci ana
ĠStras burgo
gam e
Ġ17 2
Ġcrea tore
H ome
ĠGio acchino
Ġ18 24
Ġdetermina ti
rico la
Ġacco gliere
ar bit
Ġla va
Ġsp re
Ġav ia
Ġarti gian
ĠSh el
Ġmono posto
Ġnegati vi
Ġest ran
T en
Leg enda
ĠT rom
ĠSal am
Ġabit udini
Ġcollo ca
Sc uola
Ġles ioni
Ġartifici ali
ĠGalile o
ĠG len
ĠYo ko
ĠE rich
V is
Ġ ko
ĠCa pitolo
Ġta ssa
ĠMotors port
er ede
ĠP resso
di tions
me z
com be
Ġorganizza te
Ġmalva gio
d ron
ĠT ac
ĠPort land
bay ashi
d it
ĠE N
H ol
to mo
ĠF iori
Ġris co
Ġle oni
Ġ18 28
ĠG etto
Ġman cato
Ġriforni menti
Ġp ran
ut tivo
ĠMu hammad
en c
sop rattutto
Ġr endi
ĠNor ton
ux e
Stu di
Ġampli ato
ĠU tah
ĠMas a
Ġrista bili
Ġemo zioni
ĠHo o
pr inci
ĠF iam
pp ers
cas ter
Ġgene tica
ĠP and
ĠTro feo
Ġsenti to
U M
Ġri tuale
ec chi
Ġcorre ttamente
Ġcanad esi
F inal
Ġter mo
S L
l le
Ġre tto
Ġtra iler
hol m
R ena
Ġm enti
ĠEag les
ĠC ane
Ġ17 93
ĠRe i
Ġomosess uale
Ġpol lici
Ġarra bbia
ata mente
Ġprodu cono
w ara
che tto
ĠJoe y
Ġsviluppa te
Alle anza
ĠCor tina
ĠSchne ider
bb edi
14 0
ĠCartag ine
ĠJ agu
Ġ27 0
Ġdura mente
Ab d
Ġaper ture
ĠAn der
ĠHan k
Ġspi riti
Ġspic co
N umero
Ġmus coli
XI V
no ther
ĠIn donesia
ĠMa ya
Ġsco zzesi
Ġbar riera
Ġriconosci uti
F BI
illa rd
ĠMic hail
ĠA bi
ĠG ad
Ġfi era
Ġshi ft
Ġinc erta
ĠPet r
ĠRotter dam
ĠT rio
C in
Ġmos trando
aff resco
Ġvir tuale
Ġacquisi ta
Ġdi aloghi
io sa
Ġfos sa
Ol tre
tra ta
Ġra bb
Ġvers ion
ĠPlay er
ĠPor ter
ĠLor enz
Ġantrop ica
b rese
il ing
os lav
ĠO z
Ġcomunica to
Ġconsent endo
Ġflui do
Ġinte sa
Ġvin te
Ġacquis Ã¬
Ġimprigion ato
m mi
Ð ³
Ġconfer mÃ²
Ġappassion ati
Ġ18 22
ĠDol ph
ĠI mola
ĠD ud
ĠCol d
ĠApp are
B al
ĠMa glie
10 4
ĠHa ve
Ġcap itali
ĠIs lam
ĠRa ga
ra tura
or gi
: "
Ġun e
zz one
ĠMan cini
ĠAc tion
ĠStudi es
T ony
Ġs erra
Ġoccupa va
ĠNo ta
Ġ25 6
Ġsc an
Ġmar keting
ĠT anz
Ġfed erato
IS BN
even tuale
Ġ13 00
Ġser gente
Ġstrate gico
ĠProv enza
stra to
be i
ĠLeip zig
ĠBots wana
ĠP rese
An ton
abi tazione
f iglio
ĠPro s
Ġric etta
Ġconcomit anza
et ton
Ġru bato
ĠFer ru
Ġtrasm ette
B la
Ġarres to
Ġdire zioni
Ġeserci tare
ĠFem minile
ĠC anti
== ===
viso re
ach im
ym n
ĠPubbli ca
% ),
ar th
bb le
Ġsc orr
Ġattravers ando
ĠGenti le
ĠPa ragua
Ġbord er
mar lo
Ġindica te
Ġrient rÃ²
Ġmerc enari
Ġpro pa
ĠM ana
ĠMo tore
Ġsal Ã¬
Ġcara binieri
v erato
Ġgia ci
ĠGen eration
Ġavanza to
Ġapp unti
Ġser ale
av vio
Ġsopravviss uto
ĠG om
Ġes eguÃ¬
Ġfabb riche
ĠPa ula
Ġfrat ella
Ġcomm edie
ĠFri end
ĠRichard s
ĠPina coteca
Ġvia ggiare
ĠCraw ford
ra k
Ġconte mp
ĠPal io
Ġadd etti
al and
ung en
ĠMo tion
Ta ke
Ġesib irsi
Ġconf id
M usei
ĠRo vigo
Ġci tare
Ġvampi ri
pp s
Ġrid osso
p se
Ġco adi
Ġsess ioni
ĠR Ã¤
ra zioni
ĠSa w
Ġsche de
ĠNig eria
g ad
Ġbat teri
Ġstrut turale
ĠFri ends
Ġriusci ti
Ġto ller
G abri
Ġcon no
ĠMo bile
ĠSal one
Ġidro geno
Ġcug ina
ro tta
ĠG in
Ġaff atto
In s
ic ente
Ġsc enario
Ġsp org
G ara
ĠV ennero
ff y
Ġaggior nata
cyc lopedia
do ba
Ġw a
Ġsa pore
ĠSud an
O spedale
Ste ve
ĠAdven ture
ĠCecoslova cchia
Ġconsid erano
ĠCarlo tta
Ġinterro ga
Ġs vanta
Ġra diale
Ġviol enti
Ġprog resso
Ġchim iche
ĠRa oul
itt enti
Ġtramon to
Ġcoinvol ge
m etro
Ġcapo lavoro
ĠBur g
para tore
Ġretroc esso
ĠMatil de
S pace
Ġoccupa ti
ĠSan kt
por ter
Ġspo glie
Ġemer ge
Î ³
Ġpare cchi
Inter no
B ru
re gionale
inago ga
co tt
Ġpos tale
Ġ17 92
ĠLomb ardi
Ġconsecuti vo
Ġgiura mento
ĠR ight
Ġda va
ĠNo vi
Ġsta mpo
Ġh s
Ġotten gono
Ġauto maticamente
Ġelem entari
Ġprovo care
Mich el
ĠF ris
di li
eri ana
ĠPro vince
Ġnottur na
Ġsani taria
Ġpres tato
tr ali
th us
ĠTh ere
ĠTh orn
ce to
ĠBr us
ĠPu ccini
ĠRit ratto
Ġcostitu iva
Ġfunzion a
Ġtar taru
Ġepo che
li ta
Ġ18 08
indi vid
Ġdet entore
Ġgua i
Geno va
S on
or sa
ĠJ enny
Ġpl ane
Ġradiofon ico
rig ento
Ġbas ta
ĠÃ ħ
s il
Ù ħ
ĠE re
ĠPro ble
Ġsosten eva
ĠG us
ĠPres tazione
Ġvertic ali
Ġf itti
Ġli qu
ĠDo uble
ĠÅ ģ
E vento
ĠV ac
Ġ17 3
Ġser io
ĠRi forma
Ġis crisse
Ġtropic ali
Ġs edia
in ho
11 2
gu ardia
ĠGriff in
O vest
ce y
ing i
Ġw restling
ov ina
Ġarres tare
Ġla ma
ĠDi ritto
Ġsu fficienti
lo piÃ¹
Ġpar tono
ĠCon cezione
Ġtrib uta
ĠSpeci e
Ġdetermin ante
ta si
enta mento
ccia i
m ith
Ġvo ca
gia to
Ġtropic ale
p ione
Ġcon venzione
mon diale
Ġgiud icato
Ġnat ali
ĠJo aqu
Ã¡ l
b atte
y en
Ġcirc uiti
Ġsigno ria
ber ry
Ġsotto famiglia
Ġopin ioni
Ġ18 07
Ġcontrol lato
ĠDec reto
Ġv ano
tu cky
ĠGu ar
ĠGu erri
Ġfunzion ario
á¸ ¤
ĠFar ina
K O
Ġs essi
ĠLe vante
Ġcombat tenti
Ġirre golari
ĠM io
Ġdo vere
Ne ver
w orld
ĠN GC
ĠS W
ĠP lata
Ġb rus
ĠEn ciclopedia
In ferno
Ġilleg itti
Ġsomigli anza
ĠSta de
illi an
Ġmira col
S ala
ĠPa gine
tal itÃł
Ġdanne ggiata
Ġd ose
ĠW hi
ĠU SS
ĠNo to
ĠEl la
ĠH P
Ġmar ce
ĠSw an
Ġchim ici
ĠAtti lio
Ġsommer gibile
Ġ hip
Ġpres u
for ti
ĠCh ronic
Ġarres tati
A pol
s l
Ġs bo
Ġco cco
Ġarti gli
ĠChel sea
ĠEr ba
Ġpre venire
Ġtesta te
Ġmar ini
ĠCan al
Ġdetermina te
Ġp ugno
am ing
Ġsta g
ĠDal le
ĠMet z
ĠI M
Ġcas ata
ĠAr ma
c amento
li tz
Ġdiv ino
u tere
ĠY Å«
Ġsvol sero
Ġscar tamento
Ġammi rare
T ele
Ġaiuta rlo
ĠLon gobardi
ĠD H
Ġlumin ositÃł
Ġfrequ enze
ti z
ti vitÃł
ĠS R
ĠFu ture
vel t
li ana
ĠD ura
ad ing
Ġcapit elli
ĠSam antha
ĠOpera zione
ĠAr na
ĠLig ue
Z o
bia s
or row
ĠRis orgimento
Ġpo vero
Ġmos trÃ²
Ġclassi ficandosi
Ġprosp etto
ĠK ul
Ġrica de
19 03
Ġesp an
w ater
ele vata
ja h
Ġrico prire
Ġtelesco pio
N P
ĠDream s
Ġ18 3
Ar sen
Ġa eroporto
ĠC us
Ġli st
ĠCar pi
ĠMan zoni
ĠTi ro
Ġv aso
Ġ18 4
ĠQu inta
ĠAnd ers
Ġsosten itore
ĠFonda ta
ĠMcCart ney
I raq
S olo
19 01
ilo ti
ĠRh odes
A re
ĠMa ine
Ri ti
ĠEd ison
Ġvica riato
Ġso dio
Ste fano
ĠGlo bal
Ġsod alizio
ĠBri ga
ĠBrand on
Ġsp era
Cor riere
ĠS ui
fer ma
Ġbatta glioni
Ġradic ali
Ġterm inando
ĠLet tonia
ĠBrab ham
Ġdopo dichÃ©
ĠTh er
Ġcro mos
ĠSpa da
Ġ ere
ana ti
Ġsucc ed
cc upa
10 6
Ġsuddi vise
to do
ĠSilves tro
ĠL und
Ġri empi
Ġci tazione
Ġneut ro
Bri en
Ġfacili tÃł
Ġcondotti ero
Ġcom andata
pri l
ck i
Ġattacc ante
Ġrinno vamento
Ġsape va
ens ionale
Ġpro le
Ġroman ico
amiche vole
ĠPri ze
Ġprees istente
ĠG era
Ġov unque
an um
ga va
Ġcar toni
Ġrisp oste
Ġb ad
ĠCon fra
ws er
Ho use
ĠRick y
ĠNa z
Ġesc luso
ĠApp ro
ĠG ast
udi ta
ph ane
str Ã¶m
Ġti ri
Ġrichia mato
Ġprogressi va
Ġconting ente
D ig
Ġso f
Ġsca vo
ge a
Ġritro vata
ĠZe us
ĠCyc ling
ru ppa
A na
B ay
art ment
ti sta
Ġpa cchetto
Ġdec ina
16 0
acquisi zione
R oc
Ann unzio
Ġ18 7
Ġestin to
e tica
33 3
Ġcelebra zioni
ĠLo la
C amb
ĠSing h
otti ma
ĠS tru
tre me
end ice
ĠGi unti
ĠMat he
App ennino
C appella
b imento
Ġg rosse
Ġ18 03
ĠNo vo
Ġ17 4
Ġuni te
eli er
Ġ19 1
Ġconsegu Ã¬
Ca po
Ġcresci uta
ĠHop kins
lar si
Ġrinven uta
E conom
ĠC uri
Ġtra vesti
esi to
Ġmerc ante
Ġ18 26
10 2
Ġinc omin
dari etÃł
Ġriscald amento
A lice
p ter
ĠK ons
Ġg allo
20 21
Ġarri cch
Ġappar ente
Ġdistrib uite
ĠCana dian
f ante
ĠAristo tele
Ġfinanzia mento
ena te
Ġst rana
Ġce co
Ġconsac rato
ĠO gn
ber na
10 9
Ġconvin se
Ġtrasform Ã²
C ity
Ġraggi unti
tu la
Ġw ild
da i
ĠLo tto
Ġdin osauri
Ġrica vato
S iti
e te
Ġa mato
Ġpar lando
Ġsp esa
Inter na
Ġbelli co
atta mento
ro sa
ĠH orse
ĠP atti
zeg ovina
L ong
id s
Ġdu emila
Ġesp ressa
Ġforni ta
Ġlasci arono
m ud
Ã§ Ã£o
at l
Ġgran ata
á¹ Ń
Ġinser isce
Ġbattesi mo
S weet
Ġsc usa
con sin
Ġim peratori
ĠPat ty
Ġmeteor ologica
Ġ20 3
ĠSpi rit
ri am
Ġin utili
Ġa dotti
ĠCor to
ĠBur ns
ĠBag no
Ġfissa to
ati ve
s one
Ġs tem
Ġin varia
ĠRi ga
ĠC rus
Ġil le
ĠGi unta
ĠGi orno
Ġintro dotti
Ġdi versamente
Ġconver tito
ĠSh ort
oli tico
Ġisola to
Ġnorma tiva
Ġequa zioni
S pe
E tiopia
ente s
Ġosc ura
Ġcentina io
ato ria
Ġascol tare
arm istizio
Ġtimp ano
Ġsc udi
Ġ18 02
acca demia
Ġlig neo
ĠBen ito
Ad am
Ġpoli cro
Ġdispone va
y ang
Ñ ĩ
Ġsud core
ĠTig er
Ġtenn ero
ĠOr d
ĠCI A
Ġospit Ã²
Ġun anime
ĠBur ke
Ġserbato io
F ire
um ano
Ġ18 19
ĠBorg h
ĠCristian esimo
ĠGu ild
ĠV olo
L ista
ic io
ĠEntra mbe
Ġvic erÃ©
in venzione
ĠM atrimonio
Ġvole vano
Ġdis corsi
ĠMa ta
ugi lato
ĠG her
est ini
ĠPa gan
Ġbi ologico
Ġcombat tuta
Ġmassic cia
u bo
ĠDi versi
Ġau x
Ġvice versa
ĠEas tern
Ġpres unto
Ġcre deva
ĠBad en
fi re
ĠAnton ello
Ġblo cc
Ġfas cio
ĠPer corso
Ġrim or
ĠCos mos
Ġdov ranno
Orig ine
ĠR he
h art
Cali fornia
ĠSc el
tur no
H ard
Ġgu est
Ġann essa
ĠA FC
Ġac uto
in amenti
ĠBa iley
Ġcommemora tiva
ĠT D
Ġ6 50
ĠParagua y
ella re
ĠPresid enza
ĠC rystal
si vo
Ġsap uto
Ġconsegna ti
ĠT ell
ĠLu ce
Ġrichi edere
Ġr Ã©
Ġsuperiori tÃł
Ar ena
Ġball erina
Ġg lu
Ġb am
Ġinc endi
ĠPub lic
Q ui
Ġes ag
Ġpo lari
ĠCh ester
Ġsang uin
ĠProvinci ale
ĠPi ppo
Ġs ardo
ĠK ras
ĠCa etani
ĠSo ftware
Ġv asti
Ġ18 27
veni ente
A gata
12 8
ĠDu bai
ust y
gli anza
Ferra ri
N ico
so ci
Ġ17 9
Ġingegn eri
Ġdis er
tica to
ĠHe at
I R
Ġis crizione
Ġamm ette
Ġmunici pale
ĠBudd ha
ed ro
Ġpa ram
ĠQu inn
ĠAdria tico
N ord
Ġnati vo
D ream
ĠPres enta
ias mo
Pia zza
p Ã©
Ġproc ess
P op
ĠT N
ĠO ur
tri ct
Ġmed ic
Ġoff ensiva
Ass isi
Ġá ¼
ĠBar th
ĠGi allo
ĠTo o
ĠPic eno
Ġconcre ti
Ġprezio so
Ġcomp orre
Ġimp oste
ĠGem ella
S ab
ĠNe ed
tas tro
ĠCatalo gna
ĠSa ints
ĠOn ly
Ġcomprom esso
C R
ĠNa var
G ar
ar che
Ġne onato
por tiva
Ġcilind ro
Ġmosa ico
Ġver gine
Ġinvesti ga
Ka wasaki
ĠA ria
h orn
Ġconf luenza
Ġriconosci ute
ĠRaid ers
Ġper cezione
S ul
ir d
Ġimp oss
Ġcal z
insedia mento
J acques
ĠP amp
ando li
Ġcostru ttore
Ġpres unta
Ġpron ta
Ġsopp or
ĠEv geni
an imo
sa ta
Ġcas ti
Ġspieg ato
m ondo
ĠZ ach
Ġ20 4
Ġag isce
g irl
Ġleg islazione
lar d
Ġriforni mento
Ġl in
du ction
dro mo
ĠCase y
ĠAndro id
te sti
âĢ ¢
Ġ17 90
Ġser vono
ĠCha d
Ġtelec am
19 02
Ar mi
S ub
ĠE ye
ĠVi ol
ĠLuc re
c ismo
individ uo
co tta
Ġde gra
Ġb ab
Ġinc entrata
ĠMe a
ril li
P ra
V alle
an zio
is ch
ĠFle et
ĠSa ba
by e
Blo od
Ġb olognese
ĠLaur en
ĠG ero
tan eo
Ġcat alo
Ġdemoli to
ĠC uc
Ġdesig ner
ĠH S
tro pic
issa ri
o h
ĠR ama
Ġpi uma
ie ve
la vi
ĠH em
Ġed u
do res
Ġria bili
Lond on
M c
Ġc od
im bo
ĠSa f
Ġrichi edono
Ġprefer isce
Ġcons istenza
ci r
Ġinc entrato
Ġsti mata
A h
tan ia
ĠRe ggi
ĠWa de
v os
ut ton
ĠO range
Ġ11 00
ns bruck
un ita
ĠChi tarra
Ġs mal
Ġle zione
Ġmon signor
Ġcur ve
Ġconsigli eri
ĠCon rad
Ġ17 94
udi zio
Ġaut unno
Ġfid anz
z Ã²
ĠA ttore
ĠF uoco
va tore
Ġfra si
ĠTur bo
occ up
Ġeven tuale
Ġall ontana
Ġsegre tamente
ĠPD F
g ru
ĠHo ur
Ġproc lam
com p
Ġforn itura
ĠAr ch
z ana
ĠLo g
vare z
Ġf iction
Ġdire ttrice
Ġa po
Ġ18 11
ĠBa ku
ĠSco pri
ĠJeff rey
arm amento
Ġpalcosc enico
tori um
ĠSi ro
Ġtorre tta
ĠDres da
c ron
ĠInterna zionali
V incitori
Ġun in
tan g
aro la
ĠAd ri
Ġscio pero
ĠBag h
ĠSha wn
Ġc im
ĠZ ag
ĠSa bb
c olle
vi et
Ġ20 8
Ġbian con
Ġrub rica
Ġconversa zione
ma ker
Ġgiung la
Ġper lopiÃ¹
Ġurb ane
or oso
om ia
Ġes ami
Ġca vi
Ġtend enze
U D
ĠV ale
Ġf us
Ġalle go
Ġ eri
da c
Ġcoll inare
za tion
Ġall ine
Ġsca tta
ĠBerk eley
Ġm use
risti co
Ġpi ro
Ġseg menti
Ġor me
bb it
Ġ18 13
Ġagrico li
col ano
Ġmanif esto
Ġcereb rale
L ast
k un
ĠF rench
ĠRo bb
Ġ20 7
s tato
ri x
ĠSconfit ta
Ġpropor zionale
l inare
Ġprinci pato
Ġrisp ettare
Ġattes tato
c lasse
ĠA mp
ĠGo es
Ġub icato
Ġfe udata
Ġcri tic
Ġripor tÃ²
b ico
ĠColle zione
Ġrad un
Ġmel odia
BM W
em pre
Ġli tu
Ġtrasferi re
Ġderiva zione
Ġcontrol li
ĠKu z
ic esimi
Ġinten deva
Ġsosp ensioni
S truttura
ĠT G
enta te
Ġimp ulso
Ġdeca pi
inc isione
wa ffe
ĠEn nio
K i
Ġs vincolato
ĠE pi
tta ci
Ġanten ati
T al
m berg
gu es
dis tretto
Ġcompl esse
ĠCir colo
F rom
ugh ter
ĠEcc lesia
ĠDoc umenta
Ġpro di
Ġne onata
h all
er ista
Ġetn ici
A ran
rin ten
do c
ĠT H
eg en
Ġsp on
Ġfe udi
ĠReg ola
m ile
tic ut
ĠLam bert
Ġpro vato
ĠE i
ĠSh Åį
ĠCi vile
Ġosserva tori
ÈĻ ti
Ã« v
I O
Ġevid enzi
ju z
Ġc elle
co via
ĠOlimp ici
b oro
Ġma ced
ĠNo bili
E dizione
O landa
ĠK end
fic ante
ĠRe v
Ġnatur al
Ġligne a
ro Ã«n
ĠS orr
Ġpe ggior
Ġpal est
Ġconsi glia
E ra
Ġa cidi
it an
ĠFor mato
Ġcomp ra
Ġs fa
ĠGra f
R io
Ġfre e
in ity
Ġh p
Ġleg ioni
Ġritro vare
Ġprestigio sa
Ġimped isce
ĠQueens land
Ġu va
ĠVer detti
ĠTemp le
Ġavven ire
Ġesib isce
Ġconsac razione
ĠCommer cio
ĠScud eria
C ho
Ġ3 40
ind ice
ĠFer mo
Ġclassi ficÃ²
ĠTol omeo
Cla ude
Ġra gni
od oro
do ria
bo lica
Ġdata base
ing ia
ura ss
ĠGio catori
Ġdista cc
Ġv ani
ĠH Ã¼
Ġdoppia tore
Th at
Ġragg ruppa
ĠMis ura
Ġconce pito
ĠGrimal di
K ar
Ġv edendo
tag no
Ġappro p
Ġban cono
Ġand arsene
Ġelettron ici
Ġpin ne
l one
ĠB Ã¼
ĠG ros
ĠS K
ci arono
so v
Ġpo des
Ġi rani
ĠFac tory
Ġpellegr ini
Ġas tro
Ġgener ico
u y
ĠD ed
lo e
val do
ĠB ion
da via
ins tal
ĠGa te
Ã¢ tre
g ard
ĠBi elor
ĠThi rd
Ġfeder ali
Ġelico tteri
ĠNew castle
ri tti
Ġ18 2
ĠTiber io
Ġricos tru
Ġvene ziana
Ġp iste
Ġso ap
Ġabus i
Ġattrezz ature
ĠB elo
ind omani
Ġri utili
it utto
st ria
Ġdu etto
W V
ĠS ato
Ġpre venti
Ġing redi
ĠJosh ua
Ġmagistra to
ĠElli ott
Ġrav vic
ĠA ffa
Ġass er
Ġben essere
Ġcosidd ette
F red
Ġsa ppia
ĠKa zan
Col um
Ġrepubbli cana
ĠRail way
ĠO mar
Ġra gno
ĠTour nament
ĠC ento
''' ),
La ura
Ġvi ti
ug na
Ġtor narono
Ġing ran
Ġs edere
ĠG os
ĠLe h
eth ing
Ġdisegna ta
Ġg ue
mo unt
ing rado
ĠDeb utta
Vari anti
f ie
auto mobile
Europe an
ĠN BC
ass ol
ĠNew man
ĠIm por
Ġins edi
ĠFu k
Ġnumer osa
ĠJa kob
ĠChris tina
tand olo
ĠLind say
XX X
to le
Ġess enziali
Ġmira colo
Ġpad roni
Ġci e
Ġsuffrag anea
Ġconsidere vole
ĠF iction
ĠKoso vo
Ġcaccia tori
ĠBass ano
ol Ã²
Ġe fficiente
ĠOli via
m ologia
Ġs vel
Ġimp egni
c ittÃł
r t
ti e
rat elli
egna to
ensi li
ĠPal mi
ĠP ordenone
re ggi
Ġapp ello
Ġderi vano
ĠAlb ano
ĠCor ps
ĠSul le
Ġraccon tare
Ġproto tipi
ĠVilla ge
Ġgal assie
ĠCo de
Ġme zzanotte
Ġvisi tato
Pal ermo
eg ner
Ġh it
ĠSch l
Ġdif end
Ġlavor ano
zz ani
ĠK ni
ec tor
Ġindi geni
lin io
u it
Ġl ess
Ġtromb one
Ġco gnato
ĠMod ello
p ton
Ġde tiene
im s
Ġricor data
is y
ĠAmbro gio
Ġan tar
equ ilibrio
ĠC ampion
res chi
Ġbas ket
p ine
ĠC usto
ili ght
Ġliber arsi
Sil ver
C ronotassi
R en
Ġcomp ose
Ġaltro ve
pro c
ĠFlo yd
Ġred atto
John ny
Ġfia mma
ĠAlg eria
ĠRicer ca
ĠStra uss
ĠVinc itrice
Ġconvin zione
ĠBell uno
tal mente
ĠVit tore
cic lo
ĠSchwar z
Ġ18 23
Ġcent enario
Ġconserva re
cam era
Ġcompag ine
p ass
Ġal are
ĠClin ton
Ġcoinci de
R od
Ġb alletto
y th
ĠCi ro
Ġequ ili
ĠS od
ur sione
Ġsp unto
Ġres tando
Ð° Ð½
f y
i olo
ĠMe h
Ġoccas ionalmente
ĠN CAA
Ġcor no
Ġrom antica
ĠA mon
tem ala
Ġsperim entali
anto m
eri va
rac ula
alto piano
S ono
m iche
Ġr ally
Ġprotes tanti
ĠMongo lia
ĠK ab
Ġecce zionale
Ġven uta
ĠHu bert
b eck
Ġfor o
ĠRo ose
ĠTra in
ĠSand y
Ġafflu ente
G S
ub ishi
Ġden un
ĠMart ha
UN ESCO
Ġscopri rÃł
Ġsistema zione
ĠÎ ¼
n ice
ĠC AN
min ster
Ġa reale
Ġsa gg
ĠRichard son
Ġatter raggio
ri zzo
at rio
ĠAn nal
Ġdif eso
ĠStad ion
Ê ¾
Ġpiani ficazione
ĠHaw k
H F
y Åį
Ġinteressa ti
tr al
F un
Ġ Â
Ġparti giano
Ġbi ennale
ĠMas tro
Ġblo ccare
Ġre ati
ec chia
Ġinc ise
ĠPet erson
Å Ī
Ġindividu ato
ĠGar zanti
Ġscar se
Ġv om
ac y
Ġ5 50
ba o
ĠEle tto
10 7
Ġma glie
ĠTre vor
redi to
Ġraffred damento
ĠK ind
dis tin
ĠVic ente
ĠPubbli cazioni
w agen
Ġar monica
fo li
Ġaggiudic Ã²
K en
in zione
ĠPla tone
ĠFal con
ĠCan zone
C av
al t
Ġsca denza
ĠF ossa
ĠH ulk
Ġra zzo
pag nolo
Ġmura tura
gra phie
ĠApp ena
Ġsfi de
Ann uario
Ġdisp on
Ġconvin cer
ĠBatti sti
Cor pi
ĠConcer t
Ġcru d
Ġ23 5
ist ano
Ġsac co
ĠNuo ve
ws ka
Ġgall ese
ĠM ega
''''' )
geni ta
Ġlond inese
4 50
P it
Ġca tastro
Ġtrasforma zioni
ĠHel ena
ĠK ang
ĠEr zegovina
Ãº l
Ġrecupera to
L ega
ĠN HL
ud er
ĠR emo
Ġinde boli
Ġs tante
Ġpolizio tti
Ġt ub
Ġde v
F ree
ĠE la
ĠAl ma
Ġdisco grafiche
ĠConf ed
ĠSalis burgo
ĠGemella ggi
ĠSo u
ĠAf ghanistan
p ano
se e
ĠCh and
ĠCo ra
Ġori ente
ĠTo uch
Ġla g
ĠV ico
ir lo
Ġschel etro
pol cro
ĠIr ving
Ġp enti
ĠLo tta
Å ĵ
ran de
Ġimp li
ug ni
Ġinter viene
H otel
ur ney
tra ck
ĠJ acqu
Ġopp one
Ġclar inetto
zo to
ĠNo ah
Ġabb a
Ġacquisi re
f ur
ĠG ER
Ġo dia
Ġamministra zioni
Fin alista
w l
Ġang elo
inser imento
pa tico
Ġinte so
Camp ioni
Ġi rach
Ġforn endo
Ġ ig
Ġpresid enziale
Ġpreda tori
Ġpensi eri
ĠCapit ale
Br uno
Ġri pi
ĠCorri ere
ĠHanno ver
M ania
T unes
ĠP ann
ĠV angelo
ĠTra il
11 3
s pecie
ĠBald ini
annun cio
S pa
h ama
Ġsotto missione
ĠBla ir
Ġcess Ã²
T ex
ĠSteph anie
Ġal ber
gli era
ĠF ini
10 3
Ġinten sa
Ġsf uma
Ġstre tte
Ġintra preso
Ġvio lazione
Ġgiovan issimo
N BA
c ture
ĠReg ista
Ġim bat
Ġvene ta
Ġlomb ardo
Ġbenefic enza
zu ka
Ġp alli
G O
un ni
Ġri g
Ġord inati
Ġdescri tte
ĠPatrio ts
f ile
ĠF um
Ä ħ
zz amento
sta ff
Ġelet tori
Ġoper Ã²
Ġfin anze
Ġfrat tura
ĠGiac into
Ġfunzion are
ĠSpi el
Ġader isce
ĠQa tar
S hi
Ġedi tion
menta ta
ĠPen isola
Ġevit ando
r alitÃł
ĠA more
camp ione
ĠSic urezza
Ġn ig
Ġf erra
Ġbe ati
Ġdocumenta to
Ġprom esse
ĠTra vis
Ar thur
u va
Ġinf iamma
Ġmal ati
Ac qua
ĠAntio chia
I X
Ġcos mo
Ġsuper visione
ĠHanna h
onda ta
ilo go
Ġsem bi
Î ´
ĠL ino
taria to
u che
za k
ĠQu a
Ġchia ri
Ġmale dizione
d iche
du ta
Ġti more
ĠSa rac
ĠCat ena
Ġdisc utere
ĠRich mond
y oshi
ĠWill y
r el
ĠC ell
Ġfe bbre
ĠFin ali
Ġispi rati
c ass
Ġchirur gia
Ġilleg ale
ĠF oss
as ure
ĠGa zzetta
Ġadoles cente
Ġtras cura
ĠDam on
D J
ĠVit ale
b lin
Ġfeste ggiare
ĠBarcel ona
ĠNe pal
P onte
Ġan ticamente
olog n
ĠHi roshi
h anno
ĠM all
se zione
ĠSch w
Ġattes ta
l Ã²
le c
Ġbas tone
Ġdu chi
V el
Ġsubent rando
Ġvig il
Ġpul s
Ġs ho
ĠV ick
Ġmar g
ĠSel va
Ġmu tu
m olo
Ġ3 01
Ġborgh esia
T erri
Ġconsent Ã¬
ĠKid s
f Ã©
Ġfac enti
ĠStar k
pa ci
Ġp eti
der ico
ĠBut ter
Ġpeda go
ĠMark us
Ġattrib uite
Pari s
ĠJoy ce
Ġconfra ternita
ry n
Ġeserci zi
Ġvu ol
ĠEm il
Ġimmedia to
Ġpre venzione
Pa pa
Ġconser vano
Ġ ego
Ġsu ggeri
Ġcor onata
Ġconcl udendo
ĠM one
Ġ3 25
ĠNatur al
Ġmontu osa
Ġcap sula
ĠCh amp
ĠMon roe
Ġdiplomati ca
Ġ17 83
Ġto s
Ġlan ce
Ġsostitu to
Ġo dio
Ġcons ue
ĠAtle ti
Ġvali di
Ġelico ttero
bi ke
ja k
ÅĻ ÃŃ
Ġbar ra
Ġrinno vata
ĠA urora
Ġderi vanti
zion ate
Ġcos pic
Ġtor inese
Ġbi ologia
app ello
Ġconi ugi
ps is
Ġindis pensa
ĠT ree
Ġpo le
Ġro ss
Ġsoci alisti
Ġdiventa ti
Ġmano vre
ĠCri mea
ĠK ok
ĠMa ke
Ġlo co
ĠCar to
Ġnottur no
ĠOk lahoma
Ġa tom
ĠG R
Ġma ratona
esa ggio
ĠJan et
Ġsottoline are
M id
ĠDev elopment
S or
c omb
da vano
Ġu p
ĠFabb ri
ĠS isto
Ġedi ta
Â° ,
ĠMalay sia
E timologia
ĠC ine
Ġca ri
ĠAd van
ro ws
ĠG arg
Ġsta bilmente
Ã¡ rez
Ġmis ero
Ġdistin to
ĠAvi v
O H
ĠS vet
ce ani
ĠLe ader
oc ene
ĠStra de
ĠAl d
Ġimpa rare
Ġricono bbe
ĠSettentri onale
ic chÃ©
ric amente
ĠUl tra
ĠBi ologia
ĠWar wick
ĠClassifica zione
ĠV V
par di
Ġsensi bili
an elli
amo ra
acca duto
ĠCoun cil
ĠG lass
ĠNe vada
ĠMusic al
Ġschi era
Ġgue ules
c ardi
ĠAl lora
Ġdistr usse
te borg
pe voli
ĠCal der
ĠP R
ĠEm erson
Ġgar an
U P
ĠP ant
ĠMo ther
estre mo
ĠAndrÃ© s
Ġrisve glio
ĠSh ane
Ġpen na
ĠJuli us
Ġcomincia re
sim met
ĠAnton ella
Ġâ Ķ
f ato
m orto
Ġdi gi
Äģ r
S us
Ġs ingle
ic ester
Ġcol las
ĠCon corso
cci Ã²
la ma
ca pe
ĠCh al
Ġst ress
Ġtown ship
ĠLung hezza
ĠA prile
tta r
Ġ ke
ol ese
ĠWend y
Ġ q
ĠGo uld
Ġiscri ve
ĠAlek se
Ġinedi ta
N XT
Ġs vin
el ice
Ġcomp lice
mer ia
ĠEd dy
ĠGa z
Ġidenti ficata
Pi er
U omini
Ġ14 00
ĠSud di
ĠWi i
ĠDri ve
O re
ĠD ong
um bo
Ġaggior namento
Ġsogg etta
18 90
Ġmeccan iche
Ġtelef ilm
Ġalimenta zione
Ġequipa ggi
ĠSpr ings
ĠNes tor
ik k
W in
Ġt Ã¨
ĠMo tta
ĠAs sieme
iso de
Ġdec ollo
Ġ ente
or ca
ĠNe o
ĠHo ri
Ġminis teri
ĠGe hr
uso leo
je vo
Ġborgh ese
Ġmanuf atti
an itÃł
ang ue
ĠMarc oni
Am ico
Ġven a
ĠSc ena
Ġnasc ono
Ġreliqu ia
ĠLa b
Ġconsegna re
Ġd as
ĠS ally
ĠC il
ĠR ho
Ġri ghe
Ġsc ura
Ġfranc esc
Ġrifer iscono
Ġar bo
ĠSi beria
Ġcolletti va
Ġadi bito
ĠBritann ica
ci da
ĠPe arl
ĠD up
pa tica
Ġdis ar
Ġar omati
Ġac ro
T w
Äįi Äĩ
Ġconsidera va
Ġattu azione
ti era
ĠU fficio
sti camente
E sta
Ġacc ord
Ġebre o
ĠWi fe
Ġprom ette
Ġecclesia stici
A gn
ĠStef ania
Wh ere
ĠKaza kistan
Ġcontra ri
nal do
ple x
ĠQuÃ© bec
ev es
Re pubblica
Ġtro var
e viÄĩ
Ð ¿
Ġesp osi
ĠHe w
ĠMat th
Ġall enato
Ġing enti
Ġcongi un
ĠG ent
Ġf one
omen cla
ĠShe ffield
Ġ:* ''
le d
ĠB ath
Ġprote ina
Ġpla ce
Ġpratica re
ĠFlem ing
k ha
ĠHo gan
Ġsepol ta
ĠGua temala
P ok
Ġcio cco
Ġcen eri
in etti
Ġcom menti
Ġvo cazione
Ġdif ende
Ġcombusti one
20 5
Ġfesti vitÃł
go bar
Ġpri ve
Ġtotal itÃł
met tersi
ĠGÃ³ mez
in ella
Ġp ene
Ġcon form
Ġasp ettare
Ġscola stica
ĠRoose velt
ĠRo bbie
Ġprec ur
Ġattacca ta
ĠSupre mo
b Ã¼
Ġri form
Ġoff rono
Ġaffian cata
ĠFros inone
R un
ĠT T
Ġar mon
ĠMur der
ĠIni zio
ĠLÃ© on
ĠConfra ternita
al bergo
ĠY ard
Ġesplo dere
py right
ĠIl linois
uo i
Ġcomp Ã¬
pera to
ÃŃ as
Ġauto bio
ĠAli son
Ġlimi tare
Ġintrod urre
Ġorgan ico
Ġcec oslova
Ġsci olto
Ġaggiun tive
s ic
ĠC M
ĠTh ings
ĠBy ron
Ġso lari
essa to
ĠEle t
ĠNet tuno
Ġrimar rÃł
ac ronimo
ĠBarbar ossa
Ġdimos trano
s inistra
Ġte ologo
fi ta
Ġconven zionale
k or
Ġacc org
ĠSci ences
Ġabbond ante
Ġattribu isce
ico lare
du cato
ill us
ĠJ une
ĠZ eno
Ġins iste
ĠPellegr ino
ro d
Ġpi etÃł
ĠU ruguay
Ġman che
ĠRol ling
D F
S ong
c um
M ia
ich t
ĠLo reto
Ġbe ato
Ġsegna ti
ri on
ĠL om
ĠB igli
ti zie
Ġw idth
Ġindividu a
Sta ff
S ir
à ¥
Ġal ge
ĠOl ga
Ġcerim onie
Ġpa zzo
ĠGer hard
Ġprogramma to
ĠSalom one
Ġso gna
Ġrendi mento
ber s
Ġgra sso
Ġgia vello
ĠDomen ica
Emi lia
R ol
Ġimp egn
ĠS mo
ĠEd it
ĠCa uc
Ġst ran
Ġtraspor tato
ta ro
ĠAl tra
Ġviva ce
ĠPellegr ini
18 95
Ġe tiche
ĠFall s
ĠL ina
ĠA gen
ĠV y
ĠBe ars
ĠQu asi
ĠSa bina
Mas ter
u ardo
ĠDo ttor
ĠComm edia
Ad da
Ġde posto
ĠMar tine
ĠS io
av vic
Ġrecl uta
n en
ĠCi vita
Ġp il
Cri terium
Th ree
Ġpol moni
Ġ ze
di bile
Ġvul cano
Ġparche ggio
ec li
Ġpit ture
Ġfir mando
Ġ( =
ut rice
Ġ20 2
fi eri
Ġcatti va
ĠNess uno
E dizioni
å ħ
ĠM uri
ĠDi esel
Ġcicli sti
ĠT assonomia
ĠRe volution
ĠPer cy
Ġmor ali
Ġorgan ismo
ĠSon ic
Ġlo ggia
inci ta
Ġforma ggio
Ġum o
on za
Ġg ab
ĠTanz ania
li k
Ġcapi enza
Gu erra
ĠGi ardino
ĠY i
Ġaff etti
Ġal imenti
ĠSo la
Ġindi re
ĠGro und
Ġstre ghe
ĠV aria
ĠMys tery
Ġcomplo tto
Ġm Ã©
ss en
ich o
ĠAg rigento
Ġles ene
ten uto
ĠMol davia
bbia mo
Ġic ono
Ġm ilan
ĠL Ã¬
ĠF id
Ø§ ÙĦ
Ġav vio
vic ino
Ġguar dare
j et
tur al
Ġestre mo
Massi mo
g enze
ĠKons tan
s peci
an cia
Ġg omme
ĠA xel
ĠD oll
vi va
ĠK ari
gn ani
ĠCreta ceo
Ġspon sori
el ie
ĠI so
18 96
C e
s ma
u h
ĠUni verse
ĠWe iss
ĠBas ilio
ĠContin u
z il
ta ss
Ġla d
Ġcre ma
Do po
bi re
ĠKo bayashi
Ġequi val
ĠMc Donald
ĠPe ar
tem porane
ĠOn line
Ġmeri ti
Ġarchitetton ici
Ġdomes tico
S ca
un ion
Ġmac ch
ĠDer by
Ġarchitetton ica
ĠDoppia tori
Ġg h
Ġper corre
ac chi
dis h
ĠCap ra
Ġinfanti le
Ġa f
ĠO t
ĠCo ri
ĠNa omi
aboli zione
Ġeser c
le to
Ġl ord
Ġsostan ziale
rim berga
Ġdi esel
son s
Cas tello
ĠTipo grafia
ĠBase ball
Ġspedi zioni
w on
ĠBo bbio
ko ff
Ġrec lu
ĠAm al
Ġampli amento
M ons
ĠCor se
Ġeffetti vo
ĠU b
Ġcondi viso
Ġzo o
Ġmediterran ea
Äģ h
ĠP erson
Ġtrova te
Ġ ya
ĠNo tre
ĠAndre ws
ĠPet ru
es ig
Ġsucc ede
Ġincl udere
å ®
Ġar rend
M ondi
ch ise
Ġpo lare
Ġsor se
Ġfarma c
ca usto
Ġspetta tore
Ġs etta
Ġcam eo
Ġcristi ane
Ġforti ficazione
un do
ĠS N
Ġamm esse
Ġpol mon
Ġpre side
mon ese
ĠSt range
Mar c
Ġinvesti to
Ġscon vol
Ġospi tava
Ġrap imento
Ġdichiar ando
B ol
ĠI z
Ġspa reggi
Ġsembi anze
assa u
ger ald
ĠGia mb
Ġarrangia mento
m ette
ĠTheo dore
Ġdi vision
ĠNi elsen
ãģ ®
Ġimp ic
ett ina
ĠPartecipa zioni
F ab
ĠVer d
bu ch
. /
Ġan gli
Ġ17 95
gen ere
Ġritro vamenti
Ġtranqu illa
ĠâĤ¬ )
Ġaccor pato
Ġconsapevole zza
et ter
Ġdif ensori
ti us
Ġsu bur
Ġb ei
Ġacc ons
Ġspos arsi
Ġscene ggiato
Ġpensa va
Ġs enatori
rati s
Ġlomb arda
z l
ĠM oss
f redo
ĠE cuador
mi ano
Ġspos tarsi
ĠKing dom
ĠCa pe
ĠEdi toriale
m and
Ġ eg
Ġcontro versie
Ġass edi
Ġcostr ing
Ġf iniscono
ĠA ber
ĠCroci fisso
Ġte sori
Ġb em
ĠRos berg
ĠMari ja
ĠGro en
so rio
ĠGala xy
b rand
Ġora rio
Ġschier amento
ĠFen ice
in formazione
Ġbo reale
ĠBi ella
Ġpolem ica
Ġpa ga
Ġassomma va
á ¿
ĠB R
ĠR iley
Ġassegna te
Ġrifug iati
D ar
li m
ĠBr era
) -
Ð ·
ĠS B
ĠVal la
v amo
Ġsec ca
ĠMa gi
Ġem issione
Ġsosp esa
ĠWy att
ĠAn data
tal o
Ġavvia ta
iction ary
m ici
Ġline ari
Ġdomina to
ĠChristo ph
ve o
18 98
Ġcoinvol gono
Ġde bba
Ġca os
ĠAd amo
Ġfall Ã¬
Ġrifaci mento
Ġforma te
ĠRi vera
ras so
ĠMed ina
ĠSt ran
graph ic
Ġcompet ere
l ero
Ġrin nova
Ġricom pensa
Ġa mata
Ġsoli da
Ġgro ss
ut tle
Ġpericol osi
H ell
Ġ20 9
ĠReg iment
Ġdisa bi
S O
Ġsupp orta
Ġsenti eri
Ġf egato
ĠT amb
Ġlimi tate
destra mento
Ġdis si
Ġpato logia
Ġs ella
ch is
Ġvo tato
Ġsoli tudine
Ġmedia mente
Ġba ga
ĠM ut
im per
ad ership
Ġfin alista
Ġcomp resso
Univers al
co ol
Ġ3 30
Ġapplica re
Ġinterm edio
Ġconserva tori
Ġra pito
tar ne
11 4
Ġni ppon
Ġrib ella
ĠHam mond
zz atura
Ġfasc isti
ĠFur y
ĠGard ner
Ġcol lis
Ġten gono
hr er
qu ar
Ġad dor
ĠTr ini
Ġide ata
ĠCandi dato
Ġsvizz eri
la w
Ġv iste
Ġpubbli cando
Ġcro ss
Ġcelebra ta
Ġele zione
ĠMax well
Ġnascon dere
Ġvis itÃ²
Ġrivoluzion ari
zio si
ĠMas erati
Ġfeste ggiamenti
E t
ĠLa dies
Ġman dati
Ã§ on
f le
ĠG Ã©rard
ĠO si
ĠFer gus
ĠScopri tore
Ġaccompagna ti
Ġraffor zare
ĠM rs
Ġtre gua
Ġfar ne
Ġpass ante
Ġs ans
Ġchi usi
13 5
ĠAlex is
res tle
Ġnasc ere
Ġfol lia
Ġaspetta tive
ĠParro cchia
endo re
mas ter
ĠKen tucky
ĠWis consin
m inis
ĠH amp
ĠPa uli
Rena ult
ĠMo tto
estre ma
ĠHu ber
Ġparaca duti
or ologio
Ġacc ura
ĠMi z
Ġreal ity
ĠIr ina
ĠBio graph
ĠA utore
Ġcaratter istici
âĢĻ ''
ĠYZ F
ĠI F
pli ce
inz ona
ĠFitz gerald
em ma
de us
Ġcas uale
18 99
ĠPro dotto
ĠEn rique
Ġneoclass ico
Ra ga
ff en
Ġsem e
Ġderi vare
ĠArti sta
ĠRic ordi
Ġestre mi
u be
'' ===
ri us
ĠV ega
Ġpres s
Ġassomma vano
Ġc arti
allo ween
app ari
ĠS ime
ic ci
ass unzione
Ġem esso
ĠLaure ato
C ase
Ġcon chi
ĠE uri
Ġmi la
ĠDeut sch
Ù Ī
Ġ ),
Ġfu ture
inc ar
ch ner
bo ur
uta r
ĠBan co
gli ani
Ġro tte
Ġber gam
Ġmarcia pi
L ing
L eo
Ġdi ra
ĠS ell
Ġis pir
Char lie
x ia
Ġer ed
er rore
tati va
Ġattes tata
ĠAthle tic
Cana da
ĠHitch cock
J os
ĠO fficial
ath y
ĠCro tone
Ġcombat tendo
bor ne
ĠD ono
lo vÃ¡
ĠW ick
Ġmar x
ĠSal vo
Ġcris tall
Ġd ure
Ġdesig nazione
8 50
n an
Ġ3 80
ĠCa vallo
ĠHo f
ĠOtta vio
ĠV ÃŃ
Ġpo vera
Ġall uv
Ġimpieg a
re gu
heim er
Ġs ara
atti sta
ins egna
Ġfoto grafico
Ġtestimoni ano
tre mo
Ġscher mi
ĠHans en
Ġpropor re
ĠCP U
Ġstem mi
ĠSa udita
ĠGiud ice
ĠA ce
Ġcons egn
Ġem issioni
ĠSom alia
Ġprocla mato
3 20
ĠRod rigo
ĠM Ã¡
Ġl uss
Ġchi eder
Ġban dito
Ġdon Ã²
× Ļ
Ġdo ge
ĠO tti
ĠFor na
Ġfoto grafica
Ġaffer mare
Ġtenuto si
br ina
on en
Ġstrut turali
aut rice
Ġub icata
Ġmi ele
z anne
W W
Ġpres tÃ²
sid enti
ĠMad ame
inte g
Ġinca pace
Ġpran zo
Ġdiff ondere
Ġmess icana
ĠNad ia
Ġopera io
Ġmic rosco
ĠN ucle
ĠCa rac
Ġspa de
ĠAni ta
ĠT ucker
ver ne
ene i
Ġaltret tanti
Ġin es
ro si
ĠL ily
con osciuto
Ġpodes tÃł
ĠDi et
ugh ton
Ġperim etro
or da
ĠR ut
Ġscar pe
Ġf rus
ĠS amb
Ġg riglia
ĠLo ri
Ġcerca va
ĠS yn
ĠThe ory
ĠAli cia
ĠTam pa
ĠD rum
ĠO M
Ġaccetta ta
Ġprelim inari
ĠAlti eri
in als
risti ca
Ġni poti
Ġvali ditÃł
Ġteo rico
ĠBar ba
Ġfos s
Ġsche mi
Ġfabbrica zione
Ġin vano
ĠJ edi
Ġpa gato
ua ge
ĠFu j
Ġinvi to
Ġassocia te
ĠWood y
O K
ĠF ull
Ġopp osi
dov est
p so
Ġat l
Ġmus colo
N uo
ĠPoli tica
ĠEss anay
ĠV oc
Ġcal de
ĠSti ll
Ġsotterran eo
Ġsubi te
Ġ18 04
Ġavanza te
ĠParad ise
Ġm id
Ġprimi tiva
Ġmotiva zioni
at tu
olo ri
B ap
ĠIs hi
Que en
vro let
Ġcollater ali
v ella
18 97
at an
Ġcomanda to
ĠNov embre
d rale
Ġcir co
Ġricor re
r pe
ĠS ele
ĠP ath
gli amento
ĠMa ggie
Ġris onanza
ĠCan ter
op atra
Ġsequ estra
ĠKings ton
Ġcol to
esti mento
Ġstra dali
ĠBro ck
Ġaum entando
zz onte
ĠMari anne
Ġriun isce
ĠEag le
n as
Ġ ignor
Ġh oc
ĠBal cani
He art
ĠO g
ccia ti
Ġinterro mpere
Fam iglia
S ky
ĠG au
enti eri
in co
Ġfor no
ug urazione
Ar menia
imenta zione
Ġcontinua zione
l und
ĠA ta
ĠNo tt
Ġarche ologica
ĠSar Ãł
S tran
Ġgra vita
Ġsvilupp ano
er on
Ġan onimo
Ġpro tra
vi do
Ġesp ress
Î Ń
in tro
ma ggiore
um ent
Ver ona
V all
g t
ĠM uore
ed ith
Ġqu artetto
Ġall or
Ġim po
ĠCo ul
Ġesp ulso
ĠPal m
Ġprote ttore
epi demia
ĠK ana
ph o
Ġman di
Ġcond ensa
ĠPea ce
Ġ'' ,
Ġfranc es
Ġsoli tario
ĠÃ ĺ
En ciclopedia
ĠW ri
Ġcos icchÃ©
Ġlu pi
id one
ĠDu ck
Ġblo ccato
inten sitÃł
et su
Ġinn es
ĠRon nie
r inale
bu rista
vit ale
S E
ĠLudo visi
ĠHo uten
ĠBe verly
ĠFi era
Ġdirig enza
Ġdesid eri
Ġrivesti mento
me zzo
ĠTro y
Ġipoti zzato
ĠTib et
S tella
it alia
ul f
Ġand rÃł
Ġdeca denza
Ġmet ter
ĠSp ino
Ġom bre
Fran Ã§ois
Er n
Ġrimuo vere
Ġdiso ccupa
er li
Ġacquista ti
arma tura
Ġad ulta
ĠJa ime
etra te
Ġricorr ere
ĠY osh
ĠPoli ce
Ġan nate
Ġvene to
ĠMori tz
cun e
Ġfratella stro
Ġdic ono
[...]
