{"<s>": 0, "<pad>": 1, "</s>": 2, "<unk>": 3, "<mask>": 4, "!": 5, "\"": 6, "#": 7, "$": 8, "%": 9, "&": 10, "'": 11, "(": 12, ")": 13, "*": 14, "+": 15, ",": 16, "-": 17, ".": 18, "/": 19, "0": 20, "1": 21, "2": 22, "3": 23, "4": 24, "5": 25, "6": 26, "7": 27, "8": 28, "9": 29, ":": 30, ";": 31, "<": 32, "=": 33, ">": 34, "?": 35, "@": 36, "A": 37, "B": 38, "C": 39, "D": 40, "E": 41, "F": 42, "G": 43, "H": 44, "I": 45, "J": 46, "K": 47, "L": 48, "M": 49, "N": 50, "O": 51, "P": 52, "Q": 53, "R": 54, "S": 55, "T": 56, "U": 57, "V": 58, "W": 59, "X": 60, "Y": 61, "Z": 62, "[": 63, "\\": 64, "]": 65, "^": 66, "_": 67, "`": 68, "a": 69, "b": 70, "c": 71, "d": 72, "e": 73, "f": 74, "g": 75, "h": 76, "i": 77, "j": 78, "k": 79, "l": 80, "m": 81, "n": 82, "o": 83, "p": 84, "q": 85, "r": 86, "s": 87, "t": 88, "u": 89, "v": 90, "w": 91, "x": 92, "y": 93, "z": 94, "{": 95, "|": 96, "}": 97, "~": 98, "¡": 99, "¢": 100, "£": 101, "¤": 102, "¥": 103, "¦": 104, "§": 105, "¨": 106, "©": 107, "ª": 108, "«": 109, "¬": 110, "®": 111, "¯": 112, "°": 113, "±": 114, "²": 115, "³": 116, "´": 117, "µ": 118, "¶": 119, "·": 120, "¸": 121, "¹": 122, "º": 123, "»": 124, "¼": 125, "½": 126, "¾": 127, "¿": 128, "Â": 129, "Ã": 130, "Ä": 131, "Å": 132, "Æ": 133, "Ç": 134, "È": 135, "É": 136, "Ê": 137, "Ë": 138, "Ì": 139, "Í": 140, "Î": 141, "Ï": 142, "Ð": 143, "Ñ": 144, "Ò": 145, "Ó": 146, "Ô": 147, "Õ": 148, "Ö": 149, "×": 150, "Ø": 151, "Ù": 152, "Ú": 153, "Û": 154, "Ü": 155, "Ý": 156, "Þ": 157, "ß": 158, "à": 159, "á": 160, "â": 161, "ã": 162, "ä": 163, "å": 164, "æ": 165, "ç": 166, "è": 167, "é": 168, "ê": 169, "ë": 170, "ì": 171, "í": 172, "î": 173, "ï": 174, "ð": 175, "ñ": 176, "Ā": 177, "Ġ": 178, "Ģ": 179, "ģ": 180, "Ĥ": 181, "ĥ": 182, "Ħ": 183, "ħ": 184, "Ĩ": 185, "ĩ": 186, "Ī": 187, "ī": 188, "Ĭ": 189, "ĭ": 190, "Į": 191, "į": 192, "İ": 193, "ı": 194, "Ĳ": 195, "ĳ": 196, "Ĵ": 197, "ĵ": 198, "Ķ": 199, "ķ": 200, "ĸ": 201, "Ĺ": 202, "ĺ": 203, "Ļ": 204, "ļ": 205, "Ľ": 206, "ľ": 207, "Ŀ": 208, "ŀ": 209, "Ł": 210, "ł": 211, "Ń": 212, "Ġd": 213, "on": 214, "er": 215, "''": 216, "Ġc": 217, "Ġs": 218, "an": 219, "in": 220, "el": 221, "al": 222, "en": 223, "to": 224, "Ġp": 225, "re": 226, "ri": 227, "la": 228, "Ġdi": 229, "ti": 230, "ta": 231, "te": 232, "ra": 233, "==": 234, "es": 235, "li": 236, "Ġdel": 237, "un": 238, "ar": 239, "or": 240, "Ġn": 241, "il": 242, "Ġm": 243, "Ġ1": 244, "Ġin": 245, "ia": 246, "ro": 247, "Ġf": 248, "Ġ''": 249, "le": 250, "ion": 251, "Ġa": 252, "ĠS": 253, "Ġ==": 254, "ĠC": 255, "ic": 256, "ol": 257, "he": 258, "is": 259, "io": 260, "om": 261, "os": 262, "Ġun": 263, "Ġ(": 264, "Ġla": 265, "Ġal": 266, "Ġv": 267, "ĠM": 268, "Ġ2": 269, "Ġil": 270, "Ġcon": 271, "Ġg": 272, "zion": 273, "Ġt": 274, "ĠL": 275, "et": 276, "ĠP": 277, "ĠA": 278, "qu": 279, "Ġl": 280, "am": 281, "as": 282, "ale": 283, "Ġsu": 284, "Ġper": 285, "do": 286, "ĠB": 287, "it": 288, "Ġnel": 289, "ĠI": 290, "co": 291, "ci": 292, "ca": 293, "ĠG": 294, "ma": 295, "ĠT": 296, "at": 297, "Ġ19": 298, "zione": 299, "ĠR": 300, "ed": 301, "us": 302, "ĠD": 303, "Ġche": 304, "ĠN": 305, "si": 306, "Ġdella": 307, "ter": 308, "Ġde": 309, "Ġri": 310, "gli": 311, "00": 312, "ch": 313, "Ġqu": 314, "ĠF": 315, "ano": 316, "va": 317, "ente": 318, "Ġda": 319, "'''": 320, "lo": 321, "Ġcom": 322, "za": 323, "po": 324, "Ġb": 325, "Ãł": 326, "so": 327, "gg": 328, "Ġan": 329, "ali": 330, "Ġo": 331, "di": 332, "ni": 333, "em": 334, "Ġpro": 335, "no": 336, "ono": 337, "Ġ*": 338, "tu": 339, "im": 340, "Ġre": 341, "Ġle": 342, "da": 343, "pp": 344, "tto": 345, "ce": 346, "Ġ'''": 347, "ur": 348, "era": 349, "Ġuna": 350, "Ġes": 351, "Ġsi": 352, "na": 353, "ĠV": 354, "Ġdal": 355, "res": 356, "01": 357, "ere": 358, "cc": 359, "enti": 360, "eg": 361, "ĠE": 362, "ve": 363, "ica": 364, "ent": 365, "olo": 366, "ina": 367, "ran": 368, "Ġsta": 369, "um": 370, "Ã²": 371, "che": 372, "sa": 373, "Ġ===": 374, "ui": 375, "de": 376, "ĠH": 377, "ria": 378, "ec": 379, "bb": 380, "vo": 381, "19": 382, "eri": 383, "vi": 384, "Ġma": 385, "mo": 386, "ff": 387, "Ġtra": 388, "ine": 389, "Ġpar": 390, "pa": 391, "ver": 392, "ul": 393, "'',": 394, "ento": 395, "ino": 396, "tra": 397, "ione": 398, "ĠLa": 399, "Ġpo": 400, "se": 401, "Ġdei": 402, "Ġ200": 403, "go": 404, "ĠJ": 405, "Ġ201": 406, "Ġ3": 407, "Ġpi": 408, "ĠIl": 409, "ha": 410, "ut": 411, "Ġdo": 412, "tan": 413, "ne": 414, "Ġdell": 415, "Ġe": 416, "tro": 417, "ing": 418, "hi": 419, "ero": 420, "ĠK": 421, "ĠW": 422, "ini": 423, "Ġpri": 424, "Ġalla": 425, "ad": 426, "ĠO": 427, "tri": 428, "Ġso": 429, "ir": 430, "one": 431, "bi": 432, "uo": 433, "pi": 434, "Ġte": 435, "zza": 436, "Ġca": 437, "tori": 438, "ĠU": 439, "Ġnon": 440, "),": 441, "ĠAl": 442, "Ġsc": 443, "zz": 444, "Ġra": 445, "ten": 446, "Ġcome": 447, "Ã¹": 448, "ga": 449, "ru": 450, "itÃł": 451, "Ġvi": 452, "Ġgi": 453, "zioni": 454, "ico": 455, "chi": 456, "ene": 457, "Ġdelle": 458, "mente": 459, "ue": 460, "ani": 461, "Ġnella": 462, "ando": 463, "ĠIn": 464, "mi": 465, "bre": 466, "and": 467, "Ġ\"": 468, "tore": 469, "tre": 470, "Ġsp": 471, "ggio": 472, "ici": 473, "ari": 474, "ĠNel": 475, "Ġdis": 476, "cia": 477, "ile": 478, "Ġfu": 479, "Ġed": 480, "Ã©": 481, "ana": 482, "ĠpiÃ¹": 483, "Ġ4": 484, "Ġsuo": 485, "Ġsono": 486, "enza": 487, "zi": 488, "Ġha": 489, "Ġad": 490, "tÃł": 491, "Ġpres": 492, "Ġreg": 493, "ato": 494, "gra": 495, "tta": 496, "âĢ": 497, "Ġsul": 498, "ggi": 499, "ante": 500, "Ġ18": 501, "Ġcos": 502, "ese": 503, "ac": 504, "Ġpos": 505, "igli": 506, "Ġcor": 507, "Ġpre": 508, "Ġlo": 509, "per": 510, "ura": 511, "Ġanche": 512, "etti": 513, "Ġ199": 514, "Ġar": 515, "enta": 516, "are": 517, "Ġall": 518, "tti": 519, "ĠAn": 520, "od": 521, "ig": 522, "olle": 523, "Ġques": 524, "Ġfor": 525, "uto": 526, "ard": 527, "tr": 528, "Ġcomp": 529, "oro": 530, "Ġgli": 531, "ello": 532, "ss": 533, "ona": 534, "Ġne": 535, "Ġparte": 536, "tor": 537, "ord": 538, "Ġsec": 539, "Ġno": 540, "Ġli": 541, "Ġim": 542, "Ġven": 543, "ista": 544, "oni": 545, "ĠMa": 546, "anti": 547, "Ġsua": 548, "ĠLe": 549, "pri": 550, "Ã¬": 551, "fica": 552, "ella": 553, "man": 554, "sti": 555, "Ġter": 556, "tato": 557, "Ġ5": 558, "ug": 559, "ess": 560, "ven": 561, "etto": 562, "Ġdue": 563, "ber": 564, "Ġdalla": 565, "Ġ6": 566, "ĠMar": 567, "zia": 568, "ĠCa": 569, "Ġu": 570, "Ġpu": 571, ").": 572, "ondo": 573, "Ġgen": 574, "tes": 575, "gam": 576, "Ġris": 577, "ĠSan": 578, "ele": 579, "vis": 580, "Ġcui": 581, "Ġseg": 582, "zo": 583, "Ġmo": 584, "Ġera": 585, "Ġav": 586, "Ġ*''": 587, "end": 588, "Ġprima": 589, "erie": 590, "amp": 591, "Ġr": 592, "por": 593, "Ġinter": 594, "onda": 595, "du": 596, "ili": 597, "esso": 598, "ĠCh": 599, "bo": 600, "endo": 601, "ge": 602, "Ġanni": 603, "Ġse": 604, "ati": 605, "Ġester": 606, "Ġcol": 607, "amente": 608, "elli": 609, "bbli": 610, "tura": 611, "tico": 612, "Ġ198": 613, "esi": 614, "pe": 615, "ĠQ": 616, "Ġti": 617, "200": 618, "osi": 619, "ette": 620, "Ġro": 621, "Ġco": 622, "ollegam": 623, "ze": 624, "Ġ15": 625, "rio": 626, "Ġdegli": 627, "ell": 628, "ris": 629, "anno": 630, "gi": 631, "zio": 632, "Ġvol": 633, "Ġesterni": 634, "tica": 635, "ollegamenti": 636, "ome": 637, "ĠPa": 638, "ers": 639, "ĠNo": 640, "Ġai": 641, "Ġstato": 642, "graf": 643, "ton": 644, "ud": 645, "Ġess": 646, "ĠCon": 647, "ena": 648, "Ġ(''": 649, "Ġam": 650, "Ġ10": 651, "me": 652, "con": 653, "pre": 654, "inale": 655, "all": 656, "ppo": 657, "inci": 658, "Ġdopo": 659, "las": 660, "ĠGi": 661, "etta": 662, "ela": 663, "oc": 664, "tal": 665, "Ġcas": 666, "mento": 667, "Ġregia": 668, "Ġapp": 669, "Ġpa": 670, "ron": 671, "ilm": 672, "Ġgio": 673, "Ġchi": 674, "rat": 675, "vano": 676, "Ġ17": 677, "201": 678, "Ġat": 679, "Ġof": 680, "toria": 681, "tati": 682, "Ġ0": 683, "Ġ7": 684, "ioni": 685, "ane": 686, "pera": 687, "ba": 688, "for": 689, "lare": 690, "Ġmar": 691, "Ġ12": 692, "Ġprog": 693, "ĠQu": 694, "Ġ197": 695, "ĠFran": 696, "itali": 697, "bili": 698, "Ġ16": 699, "ĠRe": 700, "Ġtut": 701, "uro": 702, "id": 703, "sta": 704, "ĠY": 705, "ĠAr": 706, "rig": 707, "Ġpr": 708, "Ġcan": 709, "bile": 710, "uta": 711, "Ġna": 712, "''.": 713, "Ġ**": 714, "eno": 715, "ĠCo": 716, "cun": 717, "ĠRo": 718, "via": 719, "erra": 720, "embre": 721, "ass": 722, "Ġnuo": 723, "ua": 724, "Ġessere": 725, "Ġpor": 726, "glio": 727, "atti": 728, "Ġcomun": 729, "est": 730, "ala": 731, "vol": 732, "fer": 733, "Ġ14": 734, "Ġitali": 735, "etÃł": 736, "ĠCar": 737, "Ġmol": 738, "th": 739, "ĠCom": 740, "II": 741, "ede": 742, "essi": 743, "ck": 744, "Ġstes": 745, "Ġcit": 746, "Ġ13": 747, "Ġpubbli": 748, "ĠDi": 749, "tar": 750, "Ġserie": 751, "The": 752, "lu": 753, "Ġsucc": 754, "almente": 755, "esa": 756, "ĠDo": 757, "âĢĵ": 758, "cato": 759, "Ġtro": 760, "Ġtras": 761, "Ġviene": 762, "Ġalle": 763, "Ġloro": 764, "Ġsem": 765, "Ġcontro": 766, "quad": 767, "zionale": 768, "Ġ====": 769, "zzo": 770, "Ġbas": 771, "ond": 772, "org": 773, "ĠZ": 774, "18": 775, "grafia": 776, "Ġ8": 777, "Ġ196": 778, "ĠX": 779, "Ġci": 780, "iso": 781, "tare": 782, "Ġh": 783, "Ġnell": 784, "uito": 785, "Ġacc": 786, "ĠNa": 787, "osto": 788, "isti": 789, "edi": 790, "ĠCollegamenti": 791, "Ġcons": 792, "Ġfa": 793, "pag": 794, "use": 795, "Ġ11": 796, "ĠDa": 797, "Ġ:": 798, "que": 799, "Ġmon": 800, "Ġto": 801, "Ġtem": 802, "iche": 803, "sid": 804, "ich": 805, "bbe": 806, "ulti": 807, "urante": 808, "esco": 809, "Ġgran": 810, "tin": 811, "ang": 812, "Ġgra": 813, "Ġpers": 814, "Ġdove": 815, "ag": 816, "ĠNe": 817, "Ġmaggio": 818, "ib": 819, "Ġass": 820, "Ġver": 821, "tion": 822, "199": 823, "ens": 824, "Ġcam": 825, "Ġthe": 826, "esti": 827, "glia": 828, "ĠSo": 829, "arti": 830, "entre": 831, "gione": 832, "olog": 833, "Ġfilm": 834, "Ġprimo": 835, "Ġ25": 836, "ĠLo": 837, "Ġ9": 838, "ĠMon": 839, "La": 840, "ampion": 841, "mer": 842, "talia": 843, "Ġel": 844, "cor": 845, "Ġer": 846, "Ġalcun": 847, "Ġnei": 848, "van": 849, "dio": 850, "Ġuno": 851, "anto": 852, "oltre": 853, "uti": 854, "===": 855, "Ġ20": 856, "usa": 857, "Ġdire": 858, "Ġparti": 859, "tego": 860, "'')": 861, "Ġcar": 862, "Ġaff": 863, "Ġgior": 864, "eci": 865, "ĠJo": 866, "elle": 867, "Ġvenne": 868, "Ġpun": 869, "ot": 870, "ĠRom": 871, "ĠPi": 872, "Ġquesto": 873, "gni": 874, "iss": 875, "Ġfe": 876, "ĠcittÃł": 877, "ĠPer": 878, "inis": 879, "Ġgu": 880, "Ġas": 881, "ĠDe": 882, "ĠUni": 883, "ĠTra": 884, "20": 885, "Ġch": 886, "Ġpoi": 887, "cri": 888, "Ġini": 889, "tante": 890, "tegoria": 891, "Ã¨": 892, "ĠSa": 893, "Ġprogetti": 894, "iglia": 895, "Ġfam": 896, "lio": 897, "Ġnelle": 898, "ke": 899, "Ġdall": 900, "Ġnum": 901, "ure": 902, "Ġmor": 903, "Ġsulla": 904, "ĠPro": 905, "ill": 906, "Ġprinci": 907, "Ġtre": 908, "ĠBo": 909, "ppa": 910, "Ġmentre": 911, "tolo": 912, "Ġlu": 913, "Ġtor": 914, "ĠRa": 915, "ĠSi": 916, "assa": 917, "ĠNote": 918, "Ġ195": 919, "Ġcir": 920, "essa": 921, "iste": 922, "etro": 923, "ung": 924, "enze": 925, "vin": 926, "atto": 927, "Ġave": 928, "Ġinf": 929, "esta": 930, "Ġsotto": 931, "Ġforma": 932, "Ġsette": 933, "Ġimp": 934, "cio": 935, "ccia": 936, "ĠGio": 937, "Ġta": 938, "ĠPo": 939, "ki": 940, "Ġpropri": 941, "ka": 942, "chia": 943, "Ġ194": 944, "Ġsolo": 945, "ĠMo": 946, "ĠLu": 947, "Al": 948, "ruppo": 949, "iglio": 950, "alo": 951, "Ġstata": 952, "Ġstu": 953, "ggia": 954, "Il": 955, "25": 956, "vil": 957, "Ġnome": 958, "Ġbat": 959, "Ġquale": 960, "titu": 961, "ph": 962, "Ġmus": 963, "Ġag": 964, "Ġfino": 965, "10": 966, "15": 967, "rato": 968, "Ġsos": 969, "ry": 970, "Ġos": 971, "ĠCategoria": 972, "Ġme": 973, "Ġspeci": 974, "ice": 975, "Ġaltri": 976, "tivo": 977, "Ġotto": 978, "Ġcent": 979, "vers": 980, "Ġdec": 981, "Ġsuoi": 982, "Ġinc": 983, "Ġstesso": 984, "Ġand": 985, "ay": 986, "mon": 987, "mp": 988, "ĠAltri": 989, "17": 990, "Ġdello": 991, "000": 992, "ab": 993, "Ġsquad": 994, "ie": 995, "inter": 996, "ko": 997, "ho": 998, "ĠSe": 999, "ĠCas": 1000, "tili": 1001, "Ġpoli": 1002, "enn": 1003, "Ġdes": 1004, "Ġorig": 1005, "Ġac": 1006, "cora": 1007, "198": 1008, "uri": 1009, "Ġmili": 1010, "Ġsecondo": 1011, "Ġsecolo": 1012, "mma": 1013, "Ġconc": 1014, "Ġsia": 1015, "Ġdai": 1016, "Ġquali": 1017, "alizza": 1018, "mbre": 1019, "son": 1020, "Ġcre": 1021, "lassi": 1022, "Ġcal": 1023, "Ġdurante": 1024, "anza": 1025, "Ġprincip": 1026, "val": 1027, "Ġstagione": 1028, "omo": 1029, "Ġmed": 1030, "Ġric": 1031, "ĠTo": 1032, "Ġcer": 1033, "utto": 1034, "Ġk": 1035, "Ġhanno": 1036, "Ġus": 1037, "16": 1038, "ĠUn": 1039, "Ġdiff": 1040, "Ġman": 1041, "Ġquando": 1042, "tere": 1043, "fi": 1044, "tata": 1045, "Ġdiver": 1046, "vamente": 1047, "Ġdic": 1048, "Ġser": 1049, "alitÃł": 1050, "Ġsettembre": 1051, "Ġsco": 1052, "ĠCor": 1053, "Ġconf": 1054, "isi": 1055, "ppe": 1056, "ĠBer": 1057, "Ã¡": 1058, "ĠPar": 1059, "imento": 1060, "pu": 1061, "ttore": 1062, "osa": 1063, "anta": 1064, "ĠSu": 1065, "tte": 1066, "11": 1067, "Ġfra": 1068, "bum": 1069, "Ġnov": 1070, "Ġseguito": 1071, "Ġsuccessi": 1072, "torio": 1073, "Ġvo": 1074, "Ġ193": 1075, "Ġquin": 1076, "ĠMil": 1077, "Ġmat": 1078, "Ġcorr": 1079, "ian": 1080, "hn": 1081, "omina": 1082, "Ġfinale": 1083, "tru": 1084, "tun": 1085, "der": 1086, "Ġvin": 1087, "cci": 1088, "eme": 1089, "Ġscri": 1090, "Ġvia": 1091, "Ġ30": 1092, "naio": 1093, "\",": 1094, "12": 1095, "Ġep": 1096, "ĠLi": 1097, "gh": 1098, "Ġmarzo": 1099, "Ġ22": 1100, "ugno": 1101, "trib": 1102, "An": 1103, "Ġaveva": 1104, "Ġtrova": 1105, "Ġmolto": 1106, "ĠGu": 1107, "ren": 1108, "Ġfine": 1109, "Ġvolta": 1110, "Ġgennaio": 1111, "tiva": 1112, "Ġrapp": 1113, "Ġmas": 1114, "ĠVi": 1115, "amento": 1116, "ose": 1117, "poli": 1118, "Ġfur": 1119, "Ġent": 1120, "Ġerano": 1121, "14": 1122, "Ġ24": 1123, "sieme": 1124, "Ġscon": 1125, "Ġposto": 1126, "..": 1127, "ĠItalia": 1128, "amb": 1129, "Ġins": 1130, "fic": 1131, "duzione": 1132, "gono": 1133, "chÃ©": 1134, "ĠBar": 1135, "No": 1136, "ced": 1137, "Ġ23": 1138, "oci": 1139, "arono": 1140, "Ġottobre": 1141, "ĠSta": 1142, "Ġdicembre": 1143, "Ġseconda": 1144, "ĠThe": 1145, "Ġquesta": 1146, "prile": 1147, "ĠHa": 1148, "mato": 1149, "rale": 1150, "bbra": 1151, "Ġmod": 1152, "13": 1153, "ĠTe": 1154, "Ġchia": 1155, "ĠRoma": 1156, "Ġedi": 1157, "Ġnovembre": 1158, "Ġtempo": 1159, "rono": 1160, "Ġgiugno": 1161, "Ġgener": 1162, "197": 1163, "ara": 1164, "Ġluglio": 1165, "'''''": 1166, "Ġgruppo": 1167, "ffici": 1168, "Ġfurono": 1169, "Ġterm": 1170, "Ġguerra": 1171, "Ġz": 1172, "dre": 1173, "Ġsop": 1174, "rica": 1175, "''),": 1176, "illa": 1177, "ario": 1178, "Ġutili": 1179, "gio": 1180, "Ġsoci": 1181, "st": 1182, "Ġind": 1183, "Ġlib": 1184, "Ġ26": 1185, "Ġsuper": 1186, "ĠEn": 1187, "erva": 1188, "emb": 1189, "Ġesp": 1190, "lassifica": 1191, "Ġcri": 1192, "bbraio": 1193, "ĠDopo": 1194, "menti": 1195, "Ġfran": 1196, "egna": 1197, "tag": 1198, "lus": 1199, "emp": 1200, "glie": 1201, "Ġfin": 1202, "ĠReg": 1203, "ĠTV": 1204, "Ġvita": 1205, "Ġrisp": 1206, "Ġfebbraio": 1207, "In": 1208, "ĠpuÃ²": 1209, "Ġdisp": 1210, "vid": 1211, "ĠTor": 1212, "Ġitaliano": 1213, "ĠPre": 1214, "lari": 1215, "isce": 1216, "Ġcorrela": 1217, "Ġquella": 1218, "Ġstra": 1219, "Ġot": 1220, "ĠcosÃ¬": 1221, "aro": 1222, "sia": 1223, "Ġgrande": 1224, "Ġlun": 1225, "ĠPri": 1226, "196": 1227, "Ġparteci": 1228, "Ġ'''''": 1229, "ture": 1230, "elo": 1231, "oso": 1232, "ĠSte": 1233, "ĠRi": 1234, "gia": 1235, "Ġ21": 1236, "onna": 1237, "eria": 1238, "zzi": 1239, "Ġcorrelate": 1240, "Ġtutti": 1241, "ann": 1242, "ĠVal": 1243, "Ġaprile": 1244, "entale": 1245, "Ġvari": 1246, "Ġpic": 1247, "ĠFor": 1248, "gn": 1249, "land": 1250, "Ġatti": 1251, "\".": 1252, "Ġagosto": 1253, "uzione": 1254, "bra": 1255, "Ġalcuni": 1256, "iore": 1257, "Ġrec": 1258, "Ġgo": 1259, "Ġing": 1260, "ĠâĢ": 1261, "Ġperio": 1262, "Ġancora": 1263, "ts": 1264, "Ġsal": 1265, "colo": 1266, "teri": 1267, "Ġabb": 1268, "Ġaver": 1269, "'s": 1270, "ampionato": 1271, "ĠII": 1272, "arsi": 1273, "Ġfamiglia": 1274, "Ġ+": 1275, "cco": 1276, "esto": 1277, "gu": 1278, "osta": 1279, "min": 1280, "Ġcap": 1281, "esse": 1282, "ĠStati": 1283, "Ġquello": 1284, "Ġ2010": 1285, "Ġtur": 1286, "ase": 1287, "be": 1288, "Ġallo": 1289, "Ġstr": 1290, "gno": 1291, "zie": 1292, "''''": 1293, "Ġquindi": 1294, "ĠAd": 1295, "Ġ-": 1296, "tino": 1297, "Ġdiv": 1298, "Ġcirca": 1299, "vitÃł": 1300, "chio": 1301, "Ġprop": 1302, "Ġres": 1303, "forma": 1304, "Ġ28": 1305, "ardo": 1306, "ĠTh": 1307, "ĠFranc": 1308, "Ġnegli": 1309, "Ġmet": 1310, "Ġpartico": 1311, "ata": 1312, "imo": 1313, "Ġsin": 1314, "Ġ27": 1315, "Ġpassa": 1316, "ĠJohn": 1317, "ĠEs": 1318, "cchi": 1319, ")''": 1320, "Ġru": 1321, "Ġ2011": 1322, "Ġopera": 1323, "ĠGran": 1324, "met": 1325, "rico": 1326, "up": 1327, "50": 1328, "Ġsempre": 1329, "Ġ2012": 1330, "anda": 1331, "tiche": 1332, "Ġ2009": 1333, "Â°": 1334, "ĠMilano": 1335, "Ġdalle": 1336, "Ġ2008": 1337, "eo": 1338, "Ġ2013": 1339, "ĠVer": 1340, "attro": 1341, "Ġsor": 1342, "Ġpresso": 1343, "Ġloc": 1344, "Ġvit": 1345, "Ġtitolo": 1346, "ĠChi": 1347, "ĠHo": 1348, "Ġsue": 1349, "riera": 1350, "Ġraggi": 1351, "Ġindi": 1352, "Ġaltre": 1353, "ensi": 1354, "ula": 1355, "ĠBe": 1356, "Ġ192": 1357, "ide": 1358, "ĠGiovan": 1359, "Ġtele": 1360, "vilu": 1361, "Ġis": 1362, "Ġfo": 1363, "osci": 1364, "ĠMan": 1365, "ĠNew": 1366, "Ġ2007": 1367, "Ġprof": 1368, "eli": 1369, "ggior": 1370, "Ġmondo": 1371, "Ġocc": 1372, "âĢĻ": 1373, "ong": 1374, "Ġsenza": 1375, "fo": 1376, "Ġor": 1377, "atura": 1378, "Note": 1379, "Ġinizi": 1380, "fini": 1381, "au": 1382, "cita": 1383, "ito": 1384, "Ġnuovo": 1385, "ist": 1386, "edia": 1387, "Ġarti": 1388, "Ġcarat": 1389, "lia": 1390, "Ġsquadra": 1391, "Ġ2014": 1392, "Ġstori": 1393, "bert": 1394, "uc": 1395, "alla": 1396, "Ġposs": 1397, "ĠWil": 1398, "ind": 1399, "Ġanno": 1400, "ĠGo": 1401, "ire": 1402, "Ġfranc": 1403, "Ġvers": 1404, "Ġ2006": 1405, "Ar": 1406, "ins": 1407, "asi": 1408, "ĠCol": 1409, "ĠMaria": 1410, "tici": 1411, "onom": 1412, "Ġtutto": 1413, "Ġcin": 1414, "Ġrip": 1415, "Ġsiste": 1416, "Ġverso": 1417, "mos": 1418, "Ġnumero": 1419, "Ġotten": 1420, "inea": 1421, "Ġposi": 1422, "iblio": 1423, "Ġperiodo": 1424, "Ġcasa": 1425, "Ġ2015": 1426, "tamente": 1427, "Ġ29": 1428, "30": 1429, "razione": 1430, "Ġcontra": 1431, "Collegamenti": 1432, "ly": 1433, "rie": 1434, "Ġ2000": 1435, "urope": 1436, "Ġstoria": 1437, "Ġcolle": 1438, "ub": 1439, "ĠGer": 1440, "Ġpopo": 1441, "Ġsvilu": 1442, "Ġterri": 1443, "visi": 1444, "ÃŃ": 1445, "cn": 1446, "pere": 1447, "Ġlavo": 1448, "cca": 1449, "ume": 1450, "lub": 1451, "Ġpersona": 1452, "ise": 1453, "Ġrel": 1454, "Ġfer": 1455, "eter": 1456, "art": 1457, "Ġrealizza": 1458, "Ġoltre": 1459, "des": 1460, "Ġservi": 1461, "les": 1462, "Ġimpor": 1463, "Ġogni": 1464, "Ġsim": 1465, "Ġcomune": 1466, "Ġcontin": 1467, "Ġquesti": 1468, "Ġspa": 1469, "ler": 1470, "Ġlas": 1471, "Ġcausa": 1472, "Ġ2005": 1473, "rano": 1474, "onte": 1475, "ilo": 1476, "Ġpossi": 1477, "Ġgioca": 1478, "ĠAm": 1479, "Ġ2016": 1480, "Ġsa": 1481, "wn": 1482, "Ġfar": 1483, "Ġracc": 1484, "Ġutilizza": 1485, "igh": 1486, "ust": 1487, "Ġlegg": 1488, "ppia": 1489, "ĠOr": 1490, "ĠSal": 1491, "bilitÃł": 1492, "torno": 1493, "tale": 1494, "ack": 1495, "Ġchiesa": 1496, "Ġstati": 1497, "Ġinterpre": 1498, "Ġquattro": 1499, "ĠSch": 1500, "bit": 1501, "Ġmorte": 1502, "Ġpreced": 1503, "Ġsud": 1504, "Ġfatto": 1505, "195": 1506, "Ġagli": 1507, "ĠSh": 1508, "ĠSp": 1509, "ende": 1510, "ĠgiÃł": 1511, "atri": 1512, "Ġpubblica": 1513, "lica": 1514, "ĠBa": 1515, "Ġriv": 1516, "ja": 1517, "ĠperÃ²": 1518, "Ġfi": 1519, "Ġsit": 1520, "Ġfrat": 1521, "Ġtutta": 1522, "dotto": 1523, "ĠGiovanni": 1524, "Ġuffici": 1525, "Ġdip": 1526, "pagna": 1527, "Ġdiven": 1528, "Ġmusic": 1529, "Ġattra": 1530, "tic": 1531, "Ġgenerale": 1532, "Ã³": 1533, "Ġmodo": 1534, "ick": 1535, "tter": 1536, "Ġvic": 1537, "Ġorg": 1538, "Ġlui": 1539, "iglior": 1540, "Ġpad": 1541, "rare": 1542, "Ġeff": 1543, "ans": 1544, "Ġdu": 1545, "ĠAs": 1546, "Ġgiov": 1547, "ant": 1548, "ĠUniti": 1549, "ense": 1550, "ĠMe": 1551, "Ġesemp": 1552, "Ġrappres": 1553, "Ġ2017": 1554, "ress": 1555, "Ġmondi": 1556, "Ġfun": 1557, "Ġsti": 1558, "Ġarri": 1559, "Ġtecn": 1560, "Ġ2001": 1561, "ork": 1562, "Ġproprio": 1563, "Ġkm": 1564, "tunit": 1565, "allo": 1566, "ĠGra": 1567, "Ġ2004": 1568, "ĠGre": 1569, "vere": 1570, "Ġinsieme": 1571, "mata": 1572, "Ġtratta": 1573, "ssi": 1574, "Ġstatunit": 1575, "Ġpresenta": 1576, "orto": 1577, "inistra": 1578, "ĠNella": 1579, "Â»": 1580, "EA": 1581, "Ġquanto": 1582, "Le": 1583, "este": 1584, "bur": 1585, "Ġgover": 1586, "vece": 1587, "amo": 1588, "fici": 1589, "Ġcostitu": 1590, "Ġsol": 1591, "inc": 1592, "bito": 1593, "tenza": 1594, "tali": 1595, "Ġrisul": 1596, "ĠFu": 1597, "ismo": 1598, "ĠDal": 1599, "tt": 1600, "visione": 1601, "cito": 1602, "Ã¼": 1603, "Â«": 1604, "Ġling": 1605, "ultimo": 1606, "odio": 1607, "eni": 1608, "Ġturno": 1609, "Ġconsid": 1610, "ĠSerie": 1611, "ĠRos": 1612, "Ġcomple": 1613, "Ġva": 1614, "ity": 1615, ".,": 1616, "Ġw": 1617, "cola": 1618, "rata": 1619, "Ġ#": 1620, "Ġpia": 1621, "ner": 1622, "ologia": 1623, "Ġmos": 1624, "23": 1625, "px": 1626, "Ġconte": 1627, "mio": 1628, "Ġcostr": 1629, "ger": 1630, "ĠFo": 1631, "Ġinvece": 1632, "ĠSec": 1633, "ble": 1634, "coli": 1635, "Ġtri": 1636, "iografia": 1637, "ĠDis": 1638, "Ġfos": 1639, "tanza": 1640, "tanti": 1641, "atta": 1642, "Ġprimi": 1643, "ĠMi": 1644, "asc": 1645, "zionali": 1646, "ĠIS": 1647, "ward": 1648, "Ġst": 1649, "ys": 1650, "ĠCos": 1651, "enda": 1652, "Ġ2002": 1653, "Ġrim": 1654, "ett": 1655, "40": 1656, "ley": 1657, "Ġbase": 1658, "tero": 1659, "azione": 1660, "Ġ''''''": 1661, "onia": 1662, "22": 1663, "Ġ2003": 1664, "ĠHe": 1665, "Ġcul": 1666, "ath": 1667, "Ġcampionato": 1668, "isodio": 1669, "ĠBiblio": 1670, "Ġcomm": 1671, "tive": 1672, "Ġdov": 1673, "ĠFer": 1674, "atte": 1675, "isto": 1676, "ĠTer": 1677, "uli": 1678, "Ġraga": 1679, "ĠEd": 1680, "ĠCla": 1681, "Ġclassifica": 1682, "ĠPal": 1683, "berto": 1684, "pubbli": 1685, "vincia": 1686, "assi": 1687, "Ġrin": 1688, "Ġ2018": 1689, "verso": 1690, "Ġcorso": 1691, "Un": 1692, "Ġcentro": 1693, "Ġlav": 1694, "Ġfiglio": 1695, "Ġsistema": 1696, "ĠGe": 1697, "pace": 1698, "ita": 1699, "Ã¶": 1700, "IN": 1701, "dato": 1702, "ĠSc": 1703, "Ġsegu": 1704, "Ġsca": 1705, "uso": 1706, "ĠÂ«": 1707, "21": 1708, "ĠGli": 1709, "Ġfonda": 1710, "sidente": 1711, "emo": 1712, "ĠCam": 1713, "Italia": 1714, "issione": 1715, "pli": 1716, "fit": 1717, "tivi": 1718, "ĠTa": 1719, "mar": 1720, "lazione": 1721, "vento": 1722, "bia": 1723, "Ġnazionale": 1724, "Ġinoltre": 1725, "ras": 1726, "uogo": 1727, "nia": 1728, "ĠEl": 1729, "BN": 1730, "truzione": 1731, "qui": 1732, "Ġfre": 1733, "ĠAll": 1734, "Ġproc": 1735, "24": 1736, "Ġ100": 1737, "nata": 1738, "Ġfac": 1739, "ya": 1740, "ith": 1741, "Ġded": 1742, "Ġpadre": 1743, "ĠInter": 1744, "und": 1745, "Ġsuccesso": 1746, "Ġmani": 1747, "sto": 1748, "Ġpubblicato": 1749, "ener": 1750, "Ġappar": 1751, "interno": 1752, "ĠCoppa": 1753, "Ġlungo": 1754, "Ġcaso": 1755, "neo": 1756, "Ġ''(": 1757, "Ġsci": 1758, "Ġnumer": 1759, "Ġ1999": 1760, "Ġliv": 1761, "ĠSer": 1762, "Ġalcune": 1763, "ĠCan": 1764, "tuto": 1765, "cono": 1766, "Ġmin": 1767, "ĠAnton": 1768, "Ġsoli": 1769, "Ġmemb": 1770, "ĠTi": 1771, "26": 1772, "ĠYo": 1773, "escovo": 1774, "Ġparticolare": 1775, "mina": 1776, "ute": 1777, "opera": 1778, "Ġqual": 1779, "Ġau": 1780, "Ġnuova": 1781, "ĠGia": 1782, "ĠVoci": 1783, "âĢĿ": 1784, "onti": 1785, "Ġmis": 1786, "gine": 1787, "osizione": 1788, "Ġcomb": 1789, "27": 1790, "ram": 1791, "''',": 1792, "Ġacqu": 1793, "ric": 1794, "tuale": 1795, "Ġdefini": 1796, "28": 1797, "ĠISBN": 1798, "Ġrice": 1799, "par": 1800, "una": 1801, "ĠSanta": 1802, "uss": 1803, "ĠBen": 1804, "Ġben": 1805, "atur": 1806, "ros": 1807, "ĠNon": 1808, "dia": 1809, "ĠIs": 1810, "Ġincon": 1811, "Ġec": 1812, "trice": 1813, "Ġmondiale": 1814, "Ġmolti": 1815, "Ġfrancese": 1816, "alle": 1817, "ker": 1818, "ghi": 1819, "Ġspecie": 1820, "Ġitaliana": 1821, "omb": 1822, "Ġsvol": 1823, "Ġinizia": 1824, "Ġconsidera": 1825, "tano": 1826, "Ġversione": 1827, "Ġbri": 1828, "Ġruolo": 1829, "old": 1830, "tello": 1831, "Ġvide": 1832, "lin": 1833, "Ġfis": 1834, "Ġingl": 1835, "Ġex": 1836, "Ġtelevisi": 1837, "ĠAng": 1838, "ccio": 1839, "Ġ;": 1840, "Ġpartecipa": 1841, "eric": 1842, "utta": 1843, "Ġ*'''": 1844, "ĠMor": 1845, "ĠXV": 1846, "egn": 1847, "fa": 1848, "ĠMad": 1849, "Ġricon": 1850, "bil": 1851, "Ġdiventa": 1852, "Ġstudio": 1853, "ĠCi": 1854, "ania": 1855, "ĠFa": 1856, "ĠComp": 1857, "Ġalbum": 1858, "Ġ190": 1859, "lay": 1860, "fe": 1861, "alli": 1862, "ald": 1863, "atch": 1864, "rebbe": 1865, "ĠFrancia": 1866, "versitÃł": 1867, "ĠMic": 1868, "ĠPari": 1869, "Ġmaggior": 1870, "osc": 1871, "vole": 1872, "uno": 1873, "Ġinterna": 1874, "tur": 1875, "Ġ31": 1876, "ĠCarlo": 1877, "ĠSquad": 1878, "isodi": 1879, "irone": 1880, "Ġann": 1881, "Ġten": 1882, "iori": 1883, "33": 1884, "unto": 1885, "ĠperchÃ©": 1886, "Ġinfatti": 1887, "ĠGa": 1888, "III": 1889, "ty": 1890, "egu": 1891, "Ġlinea": 1892, "Ġfem": 1893, "tad": 1894, "60": 1895, "80": 1896, "isola": 1897, "29": 1898, "Ġrom": 1899, "ld": 1900, "tle": 1901, "eta": 1902, "194": 1903, "ĠBibliografia": 1904, "Ġfuo": 1905, "vie": 1906, "tÃ²": 1907, "Ġrius": 1908, "ime": 1909, "lie": 1910, "ĠBri": 1911, "feri": 1912, "Ġi": 1913, "gramma": 1914, "Ġmiglio": 1915, "Ġsede": 1916, "eder": 1917, "tagon": 1918, "pieg": 1919, "vata": 1920, "ionale": 1921, "ĠFrancesco": 1922, "ky": 1923, "tina": 1924, "Ġet": 1925, "35": 1926, "ĠJe": 1927, "ĠBu": 1928, "teria": 1929, "Ġcarriera": 1930, "Ġtermine": 1931, "Ġdif": 1932, ");": 1933, "omini": 1934, "Ġvolte": 1935, "Ġterritorio": 1936, "ccid": 1937, "Ġprincipale": 1938, "Ġpunto": 1939, "Ġorgani": 1940, "Ġelet": 1941, "Ġavven": 1942, "Ġpiano": 1943, "Ġpes": 1944, "Ġdiversi": 1945, "Ġspesso": 1946, "alazzo": 1947, "Ġ'": 1948, "Ġord": 1949, "Ġnord": 1950, "versa": 1951, "nero": 1952, "Ġum": 1953, "atro": 1954, "lan": 1955, "Ġvengono": 1956, "ppi": 1957, "lato": 1958, "Ġtutte": 1959, "tito": 1960, "rea": 1961, "Ġros": 1962, "lar": 1963, "ama": 1964, "Ġsare": 1965, "ĠsocietÃł": 1966, "Ġid": 1967, "Ġproduzione": 1968, "tretto": 1969, "ks": 1970, "Ġgrazie": 1971, "Ġcura": 1972, "uni": 1973, "vato": 1974, "rÃł": 1975, "ĠYork": 1976, "Ġcanz": 1977, "Ġpossono": 1978, "rani": 1979, "ĠHar": 1980, "op": 1981, "Ġstatunitense": 1982, "Ġmaggiore": 1983, "ĠEdi": 1984, "Ġcolla": 1985, "asso": 1986, "ĠâĢľ": 1987, "Ġesempio": 1988, "tando": 1989, "useppe": 1990, "av": 1991, "Ġstrut": 1992, "Ġden": 1993, "Ġem": 1994, "Ġ1998": 1995, "Ġeurope": 1996, "Ġnomina": 1997, "Ġgiorno": 1998, "ĠMed": 1999, "Ġlavoro": 2000, "Ġbar": 2001, "data": 2002, "Ġauto": 2003, "Ġsulle": 2004, "ĠStoria": 2005, "essione": 2006, "Ġstessa": 2007, "Ġletter": 2008, "Ġdiretto": 2009, "Ġsconfit": 2010, "ft": 2011, "pon": 2012, "Ġmom": 2013, "eti": 2014, "poca": 2015, "pubblica": 2016, "ĠJa": 2017, "col": 2018, "ultima": 2019, "Ġ189": 2020, "Ġtradi": 2021, "Ġ2019": 2022, "mania": 2023, "gna": 2024, "ĠSpace": 2025, "ĠBro": 2026, "asti": 2027, "Ġcontrol": 2028, "sh": 2029, "EAR": 2030, "Ġdoc": 2031, "Ġbatta": 2032, "merica": 2033, "Ġcapo": 2034, "tazione": 2035, "rati": 2036, "ĠDu": 2037, "acqu": 2038, "Ġepisodi": 2039, "ĠAle": 2040, "ĠNor": 2041, "ĠLIN": 2042, "Ġdiri": 2043, "Ġcampo": 2044, "Ġmai": 2045, "Ġlingua": 2046, "Ġ34": 2047, "Ġprovincia": 2048, "ĠMc": 2049, "tutto": 2050, "37": 2051, "Ġsf": 2052, "cher": 2053, "ĠLINEAR": 2054, "ame": 2055, "34": 2056, "Ġroman": 2057, "Ġgui": 2058, "ĠAndre": 2059, "Ġdagli": 2060, "ĠUna": 2061, "Ġricer": 2062, "Ġporta": 2063, "usto": 2064, "ĠNazionale": 2065, "Ġopere": 2066, "uropa": 2067, "ostante": 2068, "bbero": 2069, "Ġnas": 2070, "Ġsitua": 2071, "36": 2072, "SA": 2073, "Ġmer": 2074, "onne": 2075, "Ġspos": 2076, "Ġamm": 2077, "ĠPrima": 2078, "38": 2079, "zzato": 2080, "liam": 2081, "resso": 2082, "ĠMus": 2083, "rese": 2084, "ciato": 2085, "Ġabit": 2086, "39": 2087, "Ġov": 2088, "ardi": 2089, "Ġdiffer": 2090, "cce": 2091, "istra": 2092, "ĠAnd": 2093, "Ġatta": 2094, "risti": 2095, "Ġprotagon": 2096, "Ġvoce": 2097, "ĠKa": 2098, "wa": 2099, "Ġtale": 2100, "Ġdisco": 2101, "Ġ50": 2102, "Ġtipo": 2103, "uola": 2104, "Ġconten": 2105, "ppio": 2106, "Ġmi": 2107, "Ġsull": 2108, "Ġleg": 2109, "Ġsopra": 2110, "Ġaggi": 2111, "Ġoriginale": 2112, "Ġpen": 2113, "Ġpoco": 2114, "Ġnello": 2115, "ĠIII": 2116, "anni": 2117, "ham": 2118, "tari": 2119, "ingolo": 2120, "Ġcorpo": 2121, "ĠPe": 2122, "Ġbian": 2123, "ĠBr": 2124, "Ġrappresenta": 2125, "onale": 2126, "Ġepisodio": 2127, "inato": 2128, "Ġpunti": 2129, "yn": 2130, "int": 2131, "Ġcolo": 2132, "ĠTom": 2133, "ĠChiesa": 2134, "ustria": 2135, "vio": 2136, "Ġricor": 2137, "Ġattraverso": 2138, "rattutto": 2139, "ast": 2140, "rom": 2141, "Ġnor": 2142, "Ġdedica": 2143, "Ġcat": 2144, "ĠDurante": 2145, "ĠSoci": 2146, "Ġbu": 2147, "anna": 2148, "upa": 2149, "Ġ1997": 2150, "tann": 2151, "Ġpersone": 2152, "ĠGiuseppe": 2153, "ficio": 2154, "ĠVene": 2155, "isa": 2156, "70": 2157, "ĠCat": 2158, "Ġriti": 2159, "ĠItali": 2160, "Ġmassi": 2161, "album": 2162, "Ġopp": 2163, "ĠFir": 2164, "Ġset": 2165, "Ġsui": 2166, "red": 2167, "unta": 2168, "tem": 2169, "Ġdiverse": 2170, "dotta": 2171, "watch": 2172, "Ġlivello": 2173, "ziale": 2174, "Ġcamp": 2175, "ĠParti": 2176, "Ġinglese": 2177, "arte": 2178, "Ġquasi": 2179, "arg": 2180, "tana": 2181, "Ġcondi": 2182, "Ġdom": 2183, "Ġdivenne": 2184, "ches": 2185, "Ġrispetto": 2186, "ep": 2187, "Ġaltro": 2188, "Ġposizione": 2189, "Ġindica": 2190, "ĠSim": 2191, "nal": 2192, "45": 2193, "ĠTri": 2194, "ĠRegno": 2195, "Ġele": 2196, "Ġcro": 2197, "Ġdeci": 2198, "Ġsostitu": 2199, "Ġoggi": 2200, "ĠFi": 2201, "Ġpartire": 2202, "ĠPaolo": 2203, "ĠSpacewatch": 2204, "Ġzona": 2205, "Ġcapit": 2206, "Ġcompag": 2207, "uigi": 2208, "gen": 2209, "Ġebbe": 2210, "endere": 2211, "Ġ1996": 2212, "Äį": 2213, "ĠCal": 2214, "Ġnec": 2215, "ĠSt": 2216, "Ġsquadre": 2217, "ight": 2218, "Ġmal": 2219, "Ġservizio": 2220, "Ġ40": 2221, "Ã¤": 2222, "ĠWilliam": 2223, "dem": 2224, "Ġvittoria": 2225, "...": 2226, "Ġmetri": 2227, "Ġgiorni": 2228, "Ġgioco": 2229, "ames": 2230, "rag": 2231, "ĠBiografia": 2232, "Ġsoprattutto": 2233, "ĠLond": 2234, "ĠCro": 2235, "gioni": 2236, "Ġdim": 2237, "Ġvisi": 2238, "Ġgenere": 2239, "tanto": 2240, "Ġforte": 2241, "udi": 2242, "dis": 2243, "ercito": 2244, "88": 2245, "ĠRec": 2246, "Ġpresente": 2247, "ĠPietro": 2248, "Uni": 2249, "enso": 2250, "Ġfron": 2251, "Ġgoverno": 2252, "Ġsingolo": 2253, "eld": 2254, "Ġmomento": 2255, "Åį": 2256, "Ġriman": 2257, "umento": 2258, "Ġchitar": 2259, "chite": 2260, "enzo": 2261, "ĠAntonio": 2262, "asione": 2263, "Ġon": 2264, "Ġbo": 2265, "Ġpass": 2266, "ps": 2267, "pro": 2268, "Ġgrado": 2269, "Ġrego": 2270, "lam": 2271, "Ġprote": 2272, "Ġsetti": 2273, "erazione": 2274, "ĠStato": 2275, "Ġambi": 2276, "ĀĀ": 2277, "uire": 2278, "ĠRepubblica": 2279, "Ġrelig": 2280, "ĠGermania": 2281, "Ġquar": 2282, "oma": 2283, "corso": 2284, "ĠEr": 2285, "Ġbre": 2286, "ling": 2287, "pen": 2288, "raggio": 2289, "Ġ1995": 2290, "ĠPor": 2291, "Ġluogo": 2292, "Ma": 2293, "Ġori": 2294, "uita": 2295, "car": 2296, "shi": 2297, "orld": 2298, "ĠChar": 2299, "ĠDavid": 2300, "we": 2301, "Ġtrasm": 2302, "31": 2303, "32": 2304, "Ġbritann": 2305, "Ġprogetto": 2306, "Ġprogramma": 2307, "limp": 2308, "crizione": 2309, "ĠVit": 2310, "ttura": 2311, "ĠStu": 2312, "48": 2313, "Ġgrandi": 2314, "Ġscel": 2315, "risto": 2316, "Ġtuttavia": 2317, "igura": 2318, "inizio": 2319, "Ġconqu": 2320, "umenta": 2321, "rito": 2322, "Ch": 2323, "Ġsub": 2324, "ĠSquadra": 2325, "venti": 2326, "perto": 2327, "useo": 2328, "09": 2329, "pol": 2330, "orge": 2331, "rsi": 2332, "ĠRic": 2333, "hael": 2334, "ĠmetÃł": 2335, "Ġpresenza": 2336, "Ġucc": 2337, "Ġdisc": 2338, "essand": 2339, "Pro": 2340, "75": 2341, "ficato": 2342, "Ġ1994": 2343, "tate": 2344, "Ġtedes": 2345, "ĠMonte": 2346, "Ġabitanti": 2347, "Ġcirc": 2348, "Ġanti": 2349, "lass": 2350, "Ġfigli": 2351, "lasse": 2352, "dine": 2353, "Ġ35": 2354, "ree": 2355, "ĠTrama": 2356, "Ġavrebbe": 2357, "Å¡": 2358, "Ġgia": 2359, "Ġvennero": 2360, "ĠPres": 2361, "Ġbamb": 2362, "Ġstudi": 2363, "Ġcollabo": 2364, "Ġbi": 2365, "Ġ1992": 2366, "dati": 2367, "pr": 2368, "ĠPr": 2369, "ĠÃ": 2370, "Ġlan": 2371, "ĠQuesto": 2372, "Ġnatur": 2373, "by": 2374, "Ġprecedente": 2375, "Ġrivol": 2376, "berg": 2377, "Ġlega": 2378, "Ġmilitare": 2379, "ev": 2380, "ĠRis": 2381, "ĠBra": 2382, "ĠattivitÃł": 2383, "Ġtito": 2384, "altra": 2385, "Ġsarebbe": 2386, "Ġproble": 2387, "Ġmusica": 2388, "ll": 2389, "Ġbattaglia": 2390, "bar": 2391, "Ġmadre": 2392, "Ġoff": 2393, "Ġ1993": 2394, "Ġpropria": 2395, "ĠVol": 2396, "49": 2397, "usti": 2398, "Ġrigu": 2399, "Ġgiovane": 2400, "Car": 2401, "Ġmoglie": 2402, "Ġcinque": 2403, "Ġfosse": 2404, "Ġtorneo": 2405, "Ġpartecip": 2406, "Ġterzo": 2407, "ĠSco": 2408, "ĠMari": 2409, "porto": 2410, "Ġ1990": 2411, "Ġgre": 2412, "Ġlung": 2413, "Ġban": 2414, "Ġvideo": 2415, "Ġpopolazione": 2416, "Ġulti": 2417, "pito": 2418, "Ġpaese": 2419, "Ġuni": 2420, "Ġquest": 2421, "Ġstrada": 2422, "Or": 2423, "vero": 2424, "uth": 2425, "Ġfil": 2426, "entali": 2427, "06": 2428, "mite": 2429, "Ġpresenti": 2430, "istica": 2431, "ĠMich": 2432, "''':": 2433, "ĠMer": 2434, "Ġspor": 2435, "ĠPu": 2436, "05": 2437, "Ġregistra": 2438, "ok": 2439, "Ġqueste": 2440, "Ġcentrale": 2441, "zzata": 2442, "Ġform": 2443, "Ġstate": 2444, "ĠChampion": 2445, "ĠDon": 2446, "ws": 2447, "Film": 2448, "Ġderi": 2449, "Ġferro": 2450, "Ġricerca": 2451, "Altri": 2452, "46": 2453, "ood": 2454, "imenti": 2455, "ĠGar": 2456, "ĠNapoli": 2457, "ordo": 2458, "edere": 2459, "Ġsar": 2460, "ĠSecondo": 2461, "Ġartisti": 2462, "oss": 2463, "rende": 2464, "Ġ1991": 2465, "Ġconserva": 2466, "Ġlei": 2467, "Ġmeno": 2468, "Ġtesta": 2469, "Ġterra": 2470, "Ġtesti": 2471, "47": 2472, "Ġcompl": 2473, "Ġsigni": 2474, "ĠMas": 2475, "ĠLuigi": 2476, "acc": 2477, "ĠWe": 2478, "55": 2479, "Ġconta": 2480, "Ġreal": 2481, "istenza": 2482, "ichÃ©": 2483, "umenti": 2484, "dotti": 2485, "nato": 2486, "Ġitaliani": 2487, "Ġprodotto": 2488, "vare": 2489, "Ġ36": 2490, "Ġfrequ": 2491, "Ġstile": 2492, "emi": 2493, "Ġbasso": 2494, "ĠParigi": 2495, "ĠComun": 2496, "ĠQuesta": 2497, "ĠSuper": 2498, "Ġ38": 2499, "cano": 2500, "Ġsac": 2501, "Ġedizione": 2502, "Ġuomini": 2503, "ustr": 2504, "Ġapparten": 2505, "Ġcittad": 2506, "zze": 2507, "08": 2508, "Ġ00": 2509, "Ġpra": 2510, "Ġfiglia": 2511, "tendo": 2512, "ĠMat": 2513, "ague": 2514, "critto": 2515, "isco": 2516, "ĠTour": 2517, "07": 2518, "Ġ186": 2519, "ĠLeg": 2520, "dare": 2521, "Ġtenta": 2522, "sp": 2523, "Ġquelle": 2524, "Ġmeri": 2525, "Ġprotagonista": 2526, "Ġdiretta": 2527, "ĠNell": 2528, "Ġcine": 2529, "tario": 2530, "ĠNi": 2531, "ĠBor": 2532, "ardinale": 2533, "ĠBel": 2534, "ias": 2535, "port": 2536, "Ġpossibile": 2537, "ted": 2538, "ons": 2539, "ola": 2540, "ĠTre": 2541, "ov": 2542, "epoca": 2543, "ern": 2544, "ĠAward": 2545, "Ġtar": 2546, "Ġgiornata": 2547, "ĠPartito": 2548, "ampionati": 2549, "area": 2550, "Ġprincipali": 2551, "Ġritorno": 2552, "line": 2553, "fiche": 2554, "ney": 2555, "Ġcostruzione": 2556, "Ġcad": 2557, "ĠAt": 2558, "Ġgara": 2559, "icol": 2560, "Ġfece": 2561, "Ġries": 2562, "Ġpresidente": 2563, "bilmente": 2564, "ĠCamp": 2565, "emente": 2566, "ĠEli": 2567, "Ġecc": 2568, "mpa": 2569, "Ġavere": 2570, "unti": 2571, "Ġproba": 2572, "ĠNuo": 2573, "Ġperm": 2574, "Ġeconom": 2575, "Ġrichi": 2576, "Ġmedi": 2577, "Ġrifer": 2578, "esp": 2579, "Ġsei": 2580, "ĠTorino": 2581, "Ġcalcio": 2582, "umi": 2583, "Ġricev": 2584, "Ġdistrib": 2585, "Ġpe": 2586, "my": 2587, "grafica": 2588, "Ġcontinu": 2589, "omi": 2590, "rid": 2591, "Ġquel": 2592, "Ġ188": 2593, "Ġdonna": 2594, "Ġameric": 2595, "cer": 2596, "Ġufficiale": 2597, "Ġsempli": 2598, "socia": 2599, "Ġvel": 2600, "Ġ45": 2601, "ĠXX": 2602, "ĠRobert": 2603, "04": 2604, "pend": 2605, "lata": 2606, "ĠXI": 2607, "ĠPos": 2608, "Ġcommer": 2609, "Ġtrasfer": 2610, "Ġpare": 2611, "Ġsosten": 2612, "ppon": 2613, "Ġraff": 2614, "into": 2615, "Ġora": 2616, "isione": 2617, "ĠFin": 2618, "ĠciÃ²": 2619, "Ġpolitica": 2620, "alia": 2621, "Ġcele": 2622, "Ġcaratteri": 2623, "ony": 2624, "ĠJu": 2625, "Voci": 2626, "ĠFirenze": 2627, "ĠTot": 2628, "ĠRich": 2629, "ĠMichael": 2630, "ĠTur": 2631, "ille": 2632, "ĠTr": 2633, "ĠAlessand": 2634, "Ġval": 2635, "etra": 2636, "Ġnote": 2637, "cÃ¬": 2638, "uale": 2639, "Ġsegre": 2640, "Ġfoto": 2641, "ĠWorld": 2642, "bita": 2643, "ĠFile": 2644, "Ġfare": 2645, "istiche": 2646, "ĠRus": 2647, "ĠKo": 2648, "citÃł": 2649, "Ġcanzone": 2650, "Ġsuccessivo": 2651, "99": 2652, "ars": 2653, "Ġappro": 2654, "pio": 2655, "Ġpit": 2656, "mag": 2657, "Ġelem": 2658, "Ġatto": 2659, "mb": 2660, "Ġstruttura": 2661, "ĠCent": 2662, "omen": 2663, "Ġtran": 2664, "Ġripor": 2665, "ĠMod": 2666, "Ġconosci": 2667, "ĠâĢł": 2668, "Ġallora": 2669, "Ġprime": 2670, "Ġmusicale": 2671, "imp": 2672, "Ġvalo": 2673, "ĠLeague": 2674, "Äģ": 2675, "urata": 2676, "su": 2677, "Ġmilioni": 2678, "Ġprodu": 2679, "Ġfond": 2680, "02": 2681, "off": 2682, "Ġfratello": 2683, "Ġdra": 2684, "03": 2685, "sero": 2686, "Ġbrano": 2687, "ĠOs": 2688, "Ġvec": 2689, "rice": 2690, "56": 2691, "Ġsviluppo": 2692, "ĠOl": 2693, "Ġspag": 2694, "Ġconfer": 2695, "dic": 2696, "ĠPaul": 2697, "ardia": 2698, "dere": 2699, "Ġminis": 2700, "enne": 2701, "Ġpp": 2702, "ĠRecord": 2703, "ash": 2704, "Ġcorto": 2705, "veni": 2706, "ĠAlla": 2707, "Ġvilla": 2708, "ĠWal": 2709, "78": 2710, "Ġ32": 2711, "Ġquarti": 2712, "com": 2713, "ves": 2714, "ciatore": 2715, "lis": 2716, "59": 2717, "Ġmiglior": 2718, "Ġpat": 2719, "Ġmodi": 2720, "app": 2721, "andosi": 2722, "lino": 2723, "Ġ1989": 2724, "estival": 2725, "Ġentram": 2726, "Ġdata": 2727, "eriale": 2728, "dy": 2729, "Ġmostra": 2730, "Ġpersonaggio": 2731, "monio": 2732, "UniversitÃł": 2733, "istitu": 2734, "44": 2735, "ugh": 2736, "uel": 2737, "Ġfavo": 2738, "Ġmano": 2739, "vimento": 2740, "Ġquelli": 2741, "ensioni": 2742, "Ġrif": 2743, "Ġsan": 2744, "Ġom": 2745, "58": 2746, "Ġen": 2747, "Ġregione": 2748, "Mar": 2749, "Ġclub": 2750, "Ġsupp": 2751, "Ġospi": 2752, "Do": 2753, "stiche": 2754, "edizione": 2755, "Ġfase": 2756, "Ġpubblico": 2757, "Lo": 2758, "ciÃ²": 2759, "Ã³n": 2760, "fia": 2761, "Ġavevano": 2762, "ĠMos": 2763, "Ġcres": 2764, "ĠBi": 2765, "Ġsov": 2766, "Ġarg": 2767, "):": 2768, "eth": 2769, "Ġvinc": 2770, "Ġcaratter": 2771, "resa": 2772, "Ġraccol": 2773, "Ġchitarra": 2774, "Ġdato": 2775, "Ġrelati": 2776, "Ġscuola": 2777, "Ġgesti": 2778, "imi": 2779, "Ġmesi": 2780, "Ġstazione": 2781, "serva": 2782, "âĢĵâĢĵ": 2783, "uomo": 2784, "Ġinv": 2785, "perta": 2786, "Ġfiume": 2787, "golare": 2788, "Ġlibro": 2789, "ĠMarco": 2790, "Ġautori": 2791, "Ġinforma": 2792, "ĠSil": 2793, "ĠKe": 2794, "erÃł": 2795, ")'''": 2796, "cÃ²": 2797, "mazione": 2798, "ĠDan": 2799, "dici": 2800, "vile": 2801, "Ġmoder": 2802, "Ġmedia": 2803, "ĠMal": 2804, "Ġresta": 2805, "Ġtip": 2806, "Ġavuto": 2807, "ĠNord": 2808, "Ġscene": 2809, "dente": 2810, "onn": 2811, "ĠInterna": 2812, "moni": 2813, "pia": 2814, "ĠPol": 2815, "Ġmino": 2816, "ĠBre": 2817, "erre": 2818, "ĠSam": 2819, "torie": 2820, "ĠDel": 2821, "ĠBla": 2822, "ĠMarc": 2823, "Ġtotale": 2824, "vel": 2825, "76": 2826, "Ġ1988": 2827, "Ġnominato": 2828, "rÃ²": 2829, "vic": 2830, "Ġvescovo": 2831, "alista": 2832, "ĠPremio": 2833, "mati": 2834, "Ġviol": 2835, "ĠVic": 2836, "inata": 2837, "cra": 2838, "ĠRoc": 2839, "Ġfuori": 2840, "ĠIV": 2841, "cole": 2842, "viso": 2843, "inali": 2844, "amenti": 2845, "Ġraggiung": 2846, "Ġsito": 2847, "ĠJames": 2848, "Ġdemo": 2849, "ĠSul": 2850, "Ġrela": 2851, "ggetto": 2852, "altro": 2853, "ĠClub": 2854, "Ġsic": 2855, "fon": 2856, "Ġconquista": 2857, "Ġvarie": 2858, "Ġj": 2859, "Ġaffer": 2860, "Ġmanten": 2861, "Ġrus": 2862, "ĠLondra": 2863, "Ġrosso": 2864, "Ġmolte": 2865, "posto": 2866, "ate": 2867, "gata": 2868, "pit": 2869, "Ġgirone": 2870, "eduto": 2871, "Ġstorico": 2872, "ĠrealtÃł": 2873, "Ġdeve": 2874, "way": 2875, "orgio": 2876, "Tra": 2877, "Ġtru": 2878, "issi": 2879, "inari": 2880, ".''": 2881, "Ġmac": 2882, "asta": 2883, "Co": 2884, "Ġinten": 2885, "De": 2886, "Ġformazione": 2887, "enatore": 2888, "estro": 2889, "ĠSant": 2890, "ĠDem": 2891, "ĠHer": 2892, "Ġimportante": 2893, "meno": 2894, "uore": 2895, "Ġscritto": 2896, "Ġsubito": 2897, "tezza": 2898, "voli": 2899, "ĠAlex": 2900, "ĠMac": 2901, "ĠAnche": 2902, "Äĩ": 2903, "Ġreligio": 2904, "Ġ1987": 2905, "ĠJean": 2906, "Ġted": 2907, "ĠQuando": 2908, "Ġfir": 2909, "minile": 2910, "Ġbra": 2911, "ball": 2912, "ettu": 2913, "ai": 2914, "Ġcond": 2915, "Ġotti": 2916, "Ġabband": 2917, "ĠFili": 2918, "omas": 2919, "Ġcomunque": 2920, "Ġ33": 2921, "Ġtedesco": 2922, "eso": 2923, "ego": 2924, "ign": 2925, "Ġtr": 2926, "ĠSur": 2927, "ĠTerra": 2928, "ĠFilm": 2929, "Ġaere": 2930, "ĠSud": 2931, "Ġpari": 2932, "57": 2933, "Ġinternazionale": 2934, "ĠSha": 2935, "ĠBas": 2936, "Ġinfer": 2937, "Ġintro": 2938, "ĠTutta": 2939, "ĠDani": 2940, "====": 2941, "Ã¡n": 2942, "Ro": 2943, "arda": 2944, "ĠJack": 2945, "Ġ39": 2946, "Ġlavori": 2947, "Ġsuccessivamente": 2948, "anzia": 2949, "ĠColle": 2950, "Ġdest": 2951, "ment": 2952, "Ġtorna": 2953, "Ġnem": 2954, "cche": 2955, "more": 2956, "42": 2957, "siglio": 2958, "AT": 2959, "Ġpal": 2960, "Ġquad": 2961, "Ġtelevisiva": 2962, "ĠCome": 2963, "Ġdenomina": 2964, "ĠTotale": 2965, "Ġstabili": 2966, "Ġritro": 2967, "ĠAg": 2968, "Ġ1980": 2969, "ence": 2970, "Ġforze": 2971, "Ġide": 2972, "anze": 2973, "Ġdol": 2974, "2009": 2975, "ĠGiu": 2976, "ex": 2977, "Ġmembri": 2978, "ĠStef": 2979, "ĠVenezia": 2980, "Ġimportanti": 2981, "ĠDio": 2982, "2008": 2983, "ĠDes": 2984, "2010": 2985, "2007": 2986, "ĠAngel": 2987, "Ġpotere": 2988, "ĠRu": 2989, "Ġveni": 2990, "Ġband": 2991, "ĠMario": 2992, "fico": 2993, "Ġprov": 2994, "ĠMol": 2995, "Ġclasse": 2996, "Ġcontrollo": 2997, "ĠBur": 2998, "Ġstan": 2999, "Ġorigine": 3000, "2011": 3001, "cati": 3002, "Ġfronte": 3003, "2006": 3004, "Ġnumerosi": 3005, "rate": 3006, "Ġqualifica": 3007, "itto": 3008, "gge": 3009, "ĠFri": 3010, "Ġni": 3011, "ĠEuropa": 3012, "vizz": 3013, "entemente": 3014, "inn": 3015, "Ġmasch": 3016, "bal": 3017, "ĠNico": 3018, "79": 3019, "orta": 3020, "Ġsola": 3021, "43": 3022, "ĠTuttavia": 3023, "Ġvista": 3024, "rac": 3025, "Ġnazionali": 3026, "Ġ1986": 3027, "tel": 3028, "Ġdimos": 3029, "Storia": 3030, "tus": 3031, "Ġoccupa": 3032, "Ġalto": 3033, "abri": 3034, "ĠUnivers": 3035, "ggetti": 3036, "Ġcarica": 3037, "Ġdeter": 3038, "ghe": 3039, "ĠWar": 3040, "Ġ#''": 3041, "ester": 3042, "Ġlegge": 3043, ".)": 3044, "Ġtramite": 3045, "teriore": 3046, "erato": 3047, "41": 3048, "Ġistitu": 3049, "vision": 3050, "Ġ1985": 3051, "Ġromanzo": 3052, "ĠLib": 3053, "asse": 3054, "ford": 3055, "2005": 3056, "ami": 3057, "ersi": 3058, "2012": 3059, "Ġcompeti": 3060, "Ġsvilupp": 3061, "inare": 3062, "unge": 3063, "ux": 3064, "sione": 3065, "Ġraccon": 3066, "Ġgiappon": 3067, "Ġcambia": 3068, "ĠGeorge": 3069, "Ġriconosci": 3070, "ting": 3071, "stica": 3072, "Ġcortomet": 3073, "urre": 3074, "ste": 3075, "ĠHen": 3076, "cata": 3077, "Ġforza": 3078, "Ã¨s": 3079, "53": 3080, "Ġdeb": 3081, "menta": 3082, "Ġprocesso": 3083, "Ġnota": 3084, "Ġidenti": 3085, "ku": 3086, "ĠLor": 3087, "care": 3088, "Ġsuperiore": 3089, "Ġsom": 3090, "ensione": 3091, "ban": 3092, "ei": 3093, "iscono": 3094, "Ġtal": 3095, "90": 3096, "ĠJon": 3097, "pole": 3098, "egno": 3099, "ittÃł": 3100, "vati": 3101, "Ġreti": 3102, "inario": 3103, "Ġspi": 3104, "osti": 3105, ")==": 3106, "mozione": 3107, "can": 3108, "uole": 3109, "Ġ37": 3110, "vÃ²": 3111, "ĠInf": 3112, "Pa": 3113, "Ġliber": 3114, "ĠClassifica": 3115, "Qu": 3116, "Ġ1984": 3117, "unse": 3118, "uncia": 3119, "cy": 3120, "Ġir": 3121, "entina": 3122, "inf": 3123, "ĠTeam": 3124, "Ġteo": 3125, "ĠTem": 3126, "ĠPia": 3127, "unque": 3128, "ĠSm": 3129, "Ġsinistra": 3130, "Ġfemminile": 3131, "Ġriesce": 3132, "rand": 3133, "esercito": 3134, "Ġlascia": 3135, "Re": 3136, "vidu": 3137, "tesi": 3138, "gare": 3139, "Ġnoto": 3140, "Ġesc": 3141, "ppone": 3142, "ĠGiorgio": 3143, "ĠVo": 3144, "Ġvon": 3145, "Ġ150": 3146, "Ġnecessa": 3147, "ĠYou": 3148, "Ġur": 3149, "vali": 3150, "Gi": 3151, "Ġchiamato": 3152, "Ġeffetti": 3153, "ĠPan": 3154, "Ġore": 3155, "ruppi": 3156, "Ġsuperfici": 3157, "2013": 3158, "frica": 3159, "66": 3160, "ji": 3161, "Ġnoti": 3162, "onimo": 3163, "Ġelim": 3164, "Ġproveni": 3165, "ĠFeder": 3166, "ĠSpagna": 3167, "cu": 3168, "ĠLou": 3169, "ĠBal": 3170, "cento": 3171, "Ġdin": 3172, "Ġterza": 3173, "Ġinterpretato": 3174, "tualmente": 3175, "Ġeffettu": 3176, "ĠGro": 3177, "Ġmanif": 3178, "vey": 3179, "ĠInoltre": 3180, "Ġcm": 3181, "ĠUSA": 3182, "ĠPic": 3183, "ĠÅ": 3184, "Ġdichia": 3185, "terra": 3186, "mai": 3187, "Ġconsegu": 3188, "Ġamministra": 3189, "Ġlocale": 3190, "ĠEx": 3191, "Ġveloc": 3192, "54": 3193, "SS": 3194, "Ġvinto": 3195, "Ġegli": 3196, "Ġcortometraggio": 3197, "los": 3198, "Ġimm": 3199, "Ġpiccolo": 3200, "cente": 3201, "Ġpassato": 3202, "Ġ1983": 3203, "ĠPh": 3204, "Ġcastello": 3205, "ĠLan": 3206, "ation": 3207, "Ġmeda": 3208, "Ne": 3209, "ĠRichard": 3210, "Ġpartite": 3211, "ĠMess": 3212, "Ġmm": 3213, "versi": 3214, "Ġlunghe": 3215, "Ġcantante": 3216, "tory": 3217, "idd": 3218, "Ġsignifica": 3219, "Ã§": 3220, "mine": 3221, "ologna": 3222, "52": 3223, "Ġpolitico": 3224, "Ġassegna": 3225, "Ġclass": 3226, "yo": 3227, "ach": 3228, "redi": 3229, "vista": 3230, "Li": 3231, "lor": 3232, "ĠAli": 3233, "enzia": 3234, "Ġ1982": 3235, "51": 3236, "tone": 3237, "Ġorganizza": 3238, "Ġbreve": 3239, "Ġlimi": 3240, "gie": 3241, "Ġgiovani": 3242, "orti": 3243, "Ġdiritto": 3244, "Ġcontrib": 3245, "zzur": 3246, "Ġquo": 3247, "bio": 3248, "orn": 3249, "mana": 3250, "mate": 3251, "ings": 3252, "ĠVan": 3253, "din": 3254, "erto": 3255, "America": 3256, "peci": 3257, "usione": 3258, "Ġrico": 3259, "Ġder": 3260, "Ġcatto": 3261, "Ġpilo": 3262, "Ġseguente": 3263, "2004": 3264, "Ġoccid": 3265, "San": 3266, "bus": 3267, "Ġeseg": 3268, "Ġdallo": 3269, "mare": 3270, "dal": 3271, "esimo": 3272, "77": 3273, "Ġdonne": 3274, "ĠEle": 3275, "Ġvaria": 3276, "Ġspetta": 3277, "Di": 3278, "Ġtanto": 3279, "ennis": 3280, "oste": 3281, "argento": 3282, "Ġcompi": 3283, "ĠChampionshi": 3284, "Ġ1981": 3285, "ĠPeter": 3286, "Ġqualche": 3287, "Ġcic": 3288, "Ġultimi": 3289, "acqua": 3290, "Ġ46": 3291, "Ġmembro": 3292, "Ġmare": 3293, "any": 3294, "ĠHol": 3295, "Ġcomuni": 3296, "ĠTro": 3297, "ĠRecords": 3298, "utti": 3299, "ĠOpen": 3300, "nÃ²": 3301, "Ġlar": 3302, "entÃ²": 3303, "Ġnavi": 3304, "ĠVilla": 3305, "gliere": 3306, "ĠproprietÃł": 3307, "Ġ60": 3308, "Ġ\"''": 3309, "alleria": 3310, "polo": 3311, "Ġ48": 3312, "Ġ88": 3313, "Ġdestra": 3314, "Ġpartita": 3315, "ĠCha": 3316, "Con": 3317, "cip": 3318, "ĠAb": 3319, "Ġsess": 3320, "olf": 3321, "risp": 3322, "ĠKar": 3323, "Ġ1979": 3324, "Ġbene": 3325, "han": 3326, "Ġtrasferi": 3327, "Ġasp": 3328, "Ġtappa": 3329, "Ġpote": 3330, "Ġconosc": 3331, "Ġdoppia": 3332, "98": 3333, "Ġqui": 3334, "peratore": 3335, "2014": 3336, "ater": 3337, "boli": 3338, "ĠBern": 3339, "aso": 3340, "dita": 3341, "viene": 3342, "ĠChris": 3343, "Ġretro": 3344, "Ġprobabilmente": 3345, "els": 3346, "Ġferrovia": 3347, "teca": 3348, "ĠSig": 3349, "ĠBan": 3350, "Ġpiani": 3351, "ĠPla": 3352, "2003": 3353, "Ġcollo": 3354, "vanti": 3355, "tazioni": 3356, "Ġalta": 3357, "ĠMel": 3358, "ĠMartin": 3359, "2000": 3360, "Ca": 3361, "erito": 3362, "ĠpoichÃ©": 3363, "Ġpersonaggi": 3364, "Ġvicino": 3365, "Ġdetta": 3366, "Ġrete": 3367, "ĠEm": 3368, "yd": 3369, "ressione": 3370, "Ġnotte": 3371, "ĠMusic": 3372, "ĠunitÃł": 3373, "entino": 3374, "ors": 3375, "ĠStra": 3376, "vendo": 3377, "Ġcommerci": 3378, "men": 3379, "Ġinfine": 3380, "rÃ©": 3381, "non": 3382, "entano": 3383, "Ġgruppi": 3384, "aria": 3385, "tis": 3386, "voluzione": 3387, "Ġconfron": 3388, "96": 3389, "Ġabi": 3390, "gato": 3391, "lina": 3392, "Ġluce": 3393, "'':": 3394, "Ġcalciatore": 3395, "ordi": 3396, "nie": 3397, "Ġragazza": 3398, "tiene": 3399, "cro": 3400, "turo": 3401, "enna": 3402, "ĠGian": 3403, "Ġmatri": 3404, "isla": 3405, "Ġmezzo": 3406, "Ġcompon": 3407, "ĠAndrea": 3408, "Ġaffron": 3409, "Ġaccom": 3410, "Ġusa": 3411, "Ġ***": 3412, "ondi": 3413, "enzi": 3414, "ĠFlo": 3415, "ĠComm": 3416, "Ġlato": 3417, "Ġ1978": 3418, "Ġsenti": 3419, "Ġassieme": 3420, "Ġscena": 3421, "Ġcapp": 3422, "inio": 3423, "Ġutilizzato": 3424, "ĠAlessandro": 3425, "ĠDire": 3426, "para": 3427, "ĠsarÃł": 3428, "zu": 3429, "lusi": 3430, "Ġmotore": 3431, "Ġpara": 3432, "Ġtruppe": 3433, "Ġprec": 3434, "Ġoccasione": 3435, "Ġtempi": 3436, "mann": 3437, "gan": 3438, "Ġnuovi": 3439, "Ġ1970": 3440, "Ġanim": 3441, "uato": 3442, "vono": 3443, "Ġtrib": 3444, "2015": 3445, "Ġdecide": 3446, "Ġmag": 3447, "esia": 3448, "ĠFestival": 3449, "Ġvet": 3450, "ĠBologna": 3451, "attivitÃł": 3452, "Ġassol": 3453, "Ġcivile": 3454, "ved": 3455, "Ġmodello": 3456, "burgo": 3457, "Ġnuovamente": 3458, "Ġ1976": 3459, "Ġindividu": 3460, "Ġmassima": 3461, "ĠGiappone": 3462, "udio": 3463, "ĠCity": 3464, "Ġosserva": 3465, "ule": 3466, "Ġattore": 3467, "ĠGri": 3468, "ucle": 3469, "ole": 3470, "Ġcapi": 3471, "porane": 3472, "Ġfaccia": 3473, "ĠPalazzo": 3474, "ington": 3475, "tz": 3476, "ĠAir": 3477, "Ġguida": 3478, "ak": 3479, "Ġsemi": 3480, "bbia": 3481, "Ġcolore": 3482, "ciano": 3483, "Ġinte": 3484, "pertura": 3485, "wer": 3486, "Ġpot": 3487, "Ġnonostante": 3488, "vera": 3489, "yl": 3490, "Ġpoter": 3491, "Ġline": 3492, "ĠSici": 3493, "Ġcio": 3494, "ĠBill": 3495, "Ġpapa": 3496, "2002": 3497, "Ġalter": 3498, "Ġgol": 3499, "ĠFerra": 3500, "Ġtesto": 3501, "Ġdioc": 3502, "ster": 3503, "invol": 3504, "Ġregista": 3505, "ĠCes": 3506, "Ġul": 3507, "Ġsper": 3508, "udo": 3509, "ĠTempo": 3510, "atted": 3511, "bro": 3512, "Ġve": 3513, "Ġstre": 3514, "ĠCana": 3515, "Ġ1975": 3516, "Ġspazio": 3517, "ĠiniziÃ²": 3518, "Ġ1977": 3519, "Com": 3520, "tagna": 3521, "ĠSin": 3522, "ossa": 3523, "stitu": 3524, "ĠMy": 3525, "ĠRad": 3526, "Ġness": 3527, "ĠGeno": 3528, "ville": 3529, "Ġcomando": 3530, "ĠUnito": 3531, "Jo": 3532, "Ġdirettore": 3533, "Ġest": 3534, "mia": 3535, "Ġrifi": 3536, "Ġdetto": 3537, "ronzo": 3538, "Ġvisto": 3539, "Ġmemo": 3540, "occ": 3541, "ĠGiochi": 3542, "ĠThomas": 3543, "ĠLos": 3544, "Ġcomprende": 3545, "Ġmese": 3546, "2001": 3547, "Ġpochi": 3548, "enni": 3549, "Ġgiocatore": 3550, "Â».": 3551, "Ġimpieg": 3552, "goli": 3553, "ĠGruppo": 3554, "Ġintito": 3555, "Ġtu": 3556, "ĠGui": 3557, "Ġnumerose": 3558, "Ã±": 3559, "ĠRisul": 3560, "ON": 3561, "ĠCre": 3562, "erson": 3563, "ressi": 3564, "ĠAc": 3565, "Ġaut": 3566, "Ġpiccola": 3567, "ĠcomunitÃł": 3568, "Ġinca": 3569, "ĠlocalitÃł": 3570, "ĠFranco": 3571, "Ġpalazzo": 3572, "arra": 3573, "ĠAmerica": 3574, "onomia": 3575, "Ġregno": 3576, "ĠSanti": 3577, "Ġelettri": 3578, "Ġsconfitta": 3579, "Ġcombat": 3580, "ĠSono": 3581, "Ġdisponi": 3582, "dova": 3583, "luenza": 3584, "ĠSto": 3585, "uiti": 3586, "ĠGal": 3587, "Ġscom": 3588, "ull": 3589, "Ġ1974": 3590, "ĠFrank": 3591, "ĠVinc": 3592, "Bo": 3593, "forte": 3594, "Fran": 3595, "omet": 3596, "ĠCharles": 3597, "ponsa": 3598, "unica": 3599, "Ġproblemi": 3600, "ccan": 3601, "ĠPat": 3602, "ĠGrande": 3603, "2016": 3604, "sili": 3605, "ĠCer": 3606, "Ġfiloso": 3607, "cchia": 3608, "ĠMuseo": 3609, "alto": 3610, "86": 3611, "100": 3612, "Ġfed": 3613, "Ġcaccia": 3614, "ĠData": 3615, "Ġseguenti": 3616, "ĠFe": 3617, "ĠJose": 3618, "uma": 3619, "asto": 3620, "Ġ42": 3621, "demia": 3622, "ĠvelocitÃł": 3623, "Ġpur": 3624, "ĠFre": 3625, "Ra": 3626, "kov": 3627, "tempo": 3628, "ore": 3629, "asa": 3630, "Ġcapa": 3631, "ĠEnrico": 3632, "illi": 3633, "Ġcategoria": 3634, "ĠBos": 3635, "Ġbatteria": 3636, "usta": 3637, "Ġnaturale": 3638, "hia": 3639, "Ġnero": 3640, "Ġcli": 3641, "Ã«": 3642, "Ġattrib": 3643, "As": 3644, "tional": 3645, "Ġconvin": 3646, "marÃ¨s": 3647, "chestra": 3648, "Ġnuove": 3649, "Ġdescri": 3650, "Po": 3651, "Ġprese": 3652, "ocra": 3653, "ĠMiglior": 3654, "Ġdramma": 3655, "ĠStar": 3656, "Ġmerid": 3657, "Ġsembra": 3658, "Ġradio": 3659, "ature": 3660, "vate": 3661, "esca": 3662, "ĠCD": 3663, "bu": 3664, "Ġ2020": 3665, "Ġ1972": 3666, "iro": 3667, "isse": 3668, "ĠVir": 3669, "rando": 3670, "Ġmaschile": 3671, "meric": 3672, "Ġ1973": 3673, "form": 3674, "ermo": 3675, "grafico": 3676, "Ġmovimento": 3677, "Ġschi": 3678, "how": 3679, "Ġuomo": 3680, "Ġpros": 3681, "etropoli": 3682, "ude": 3683, "Th": 3684, "Ġriten": 3685, "rest": 3686, "En": 3687, "97": 3688, "dica": 3689, "Ġelementi": 3690, "Ġcontratto": 3691, "imenta": 3692, "Ġamici": 3693, "Ġdirezione": 3694, "Ġparro": 3695, "ĠMin": 3696, "Ġpiazza": 3697, "Ġricos": 3698, "Ġlunga": 3699, "ĠApp": 3700, "Ġ1968": 3701, "ĠRoberto": 3702, "Ġvede": 3703, "Ġlavora": 3704, "istente": 3705, "ĠPas": 3706, "Ġmilitari": 3707, "ish": 3708, "Ġcoinvol": 3709, "Ġispi": 3710, "Ġdimensioni": 3711, "Ġdati": 3712, "Ġcoppia": 3713, "Ġcorte": 3714, "Ġvan": 3715, "Ġdisputa": 3716, "acque": 3717, "Ġcultura": 3718, "Ġsimile": 3719, "Ġsenso": 3720, "ascia": 3721, "larmente": 3722, "ny": 3723, "Ġvalore": 3724, "Ġ(\"": 3725, "mpero": 3726, "Ġritor": 3727, "ffa": 3728, "ĠRoy": 3729, "Ġ1960": 3730, "'').": 3731, "entri": 3732, "rich": 3733, "Ġfan": 3734, "ĠÐ": 3735, "ild": 3736, "ance": 3737, "Ġfavore": 3738, "ustri": 3739, "ĠUniversity": 3740, "ĠMassi": 3741, "ĠMark": 3742, "Ġsuperficie": 3743, "Ġgare": 3744, "ander": 3745, "Ġfigura": 3746, "ĠLem": 3747, "cando": 3748, "ĠEurope": 3749, "72": 3750, "ĠPoli": 3751, "ĠAss": 3752, "cazione": 3753, "ĠLove": 3754, "Ġdimostra": 3755, "onica": 3756, "71": 3757, "anne": 3758, "Ġstella": 3759, "89": 3760, "ĠPorto": 3761, "uf": 3762, "Ġcompletamente": 3763, "vide": 3764, "ĠSci": 3765, "Ġfunzione": 3766, "Ġarchite": 3767, "rone": 3768, "Ġpol": 3769, "cere": 3770, "Ġcapitale": 3771, "Ġsituata": 3772, "ĠCampionato": 3773, "ĠAlcun": 3774, "74": 3775, "amore": 3776, "Ġsosp": 3777, "Ġcomposto": 3778, "Ri": 3779, "ĠDemocra": 3780, "Ġprodotti": 3781, "Ġcosa": 3782, "Ġentrambi": 3783, "ĀĀĀĀ": 3784, "1999": 3785, "ulla": 3786, "onato": 3787, "Ġ1971": 3788, "TA": 3789, "Ġ44": 3790, "ĠTeatro": 3791, "FA": 3792, "2017": 3793, "ĠStan": 3794, "ĠIr": 3795, "ĠpossibilitÃł": 3796, "Pi": 3797, "Ġovvero": 3798, "inazione": 3799, "Ġagg": 3800, "ĠBru": 3801, "icamente": 3802, "Ġporto": 3803, "ĠCir": 3804, "Ġteatro": 3805, "eroporto": 3806, "ĠParte": 3807, "Ġpartito": 3808, "anz": 3809, "Pre": 3810, "tuali": 3811, "enato": 3812, "itrice": 3813, "ea": 3814, "Ġnave": 3815, "Ġtrovano": 3816, "erita": 3817, "ĠCri": 3818, "ggiato": 3819, "ĠLin": 3820, "ational": 3821, "ple": 3822, "ader": 3823, "eva": 3824, "jo": 3825, "Ġmessa": 3826, "Ġprofess": 3827, "Ġfini": 3828, "risse": 3829, "ĠCup": 3830, "Ġ49": 3831, "Ġ1967": 3832, "Ġolimp": 3833, "ĠSurvey": 3834, "tanta": 3835, "itti": 3836, "Ġ1969": 3837, "Ġdetermina": 3838, "Ġinizialmente": 3839, "iter": 3840, "Ġfanta": 3841, "Stati": 3842, "reto": 3843, "ĠStefano": 3844, "sole": 3845, "Ġgiapponese": 3846, "ĠItaliana": 3847, "73": 3848, "ĠCittÃł": 3849, "urs": 3850, "bbene": 3851, "ĠDar": 3852, "gazione": 3853, "Ġrimase": 3854, "Ġdocumenta": 3855, "For": 3856, "nale": 3857, "ossi": 3858, "tini": 3859, "odice": 3860, "den": 3861, "Ġono": 3862, "estre": 3863, "incitore": 3864, "Ġpla": 3865, "wood": 3866, "ĠMinis": 3867, "iam": 3868, "pie": 3869, "ĠTitolo": 3870, "Ġriferimento": 3871, "sec": 3872, "Ġcristi": 3873, "bin": 3874, "Ġps": 3875, "ĠcioÃ¨": 3876, "Ġsuddi": 3877, "Ġpotre": 3878, "Ġlocali": 3879, "ĠAnna": 3880, "Ġchiamata": 3881, "sch": 3882, "CA": 3883, "Ġrisultato": 3884, "Ġrapporto": 3885, "issioni": 3886, "indi": 3887, "ora": 3888, "Ġsed": 3889, "Ġrealizzato": 3890, "Ġstatu": 3891, "ĠWest": 3892, "Ġincontra": 3893, "ĠRed": 3894, "ĠMondi": 3895, "trut": 3896, "68": 3897, "ĠJos": 3898, "Ġalmeno": 3899, "Ġbianco": 3900, "omin": 3901, "Ġrelazione": 3902, "ĠRit": 3903, "El": 3904, "Ġnucle": 3905, "ghil": 3906, "ĠGes": 3907, "Ġmarito": 3908, "ĠmorÃ¬": 3909, "ĠVI": 3910, "burg": 3911, "Ġcasi": 3912, "civ": 3913, "Ġsituazione": 3914, "Ġgiro": 3915, "ĠGiac": 3916, "Ġconsiderato": 3917, "Ġsituato": 3918, "ĠNuova": 3919, "reno": 3920, "ĠTar": 3921, "Ġfrancesi": 3922, "rend": 3923, "Ġaffi": 3924, "Ġimmag": 3925, "ghilterra": 3926, "Ġplay": 3927, "ĠPatri": 3928, "Ġintorno": 3929, "Ġlon": 3930, "issa": 3931, "Ġmercato": 3932, "Ġresponsa": 3933, "Ġmatrimonio": 3934, "ĠBat": 3935, "uch": 3936, "ye": 3937, "var": 3938, "\")": 3939, "zienda": 3940, "Ġblo": 3941, "Ġrile": 3942, "Ġscopo": 3943, "ĠsÃ©": 3944, "Ġcandi": 3945, "ĠVen": 3946, "ĠOli": 3947, "ĠriuscÃ¬": 3948, "Ġdiocesi": 3949, "Ġormai": 3950, "mano": 3951, "Ġsigno": 3952, "ionali": 3953, "don": 3954, "Ġinn": 3955, "ori": 3956, "Ġ41": 3957, "Ġdecise": 3958, "ĠLeon": 3959, "ĠRod": 3960, "--": 3961, "uk": 3962, "1998": 3963, "pare": 3964, "ĠNegli": 3965, "ĠEmi": 3966, "Ġtema": 3967, "Ġrapi": 3968, "95": 3969, "Ġdivisione": 3970, "ped": 3971, "Ġquanti": 3972, "Ġterritori": 3973, "Ġdecora": 3974, "ira": 3975, "ordine": 3976, "ambi": 3977, "corr": 3978, "Ġottenere": 3979, "ĠAlberto": 3980, "sc": 3981, "Ġmatch": 3982, "Ġsociale": 3983, "85": 3984, "itz": 3985, "denti": 3986, "Ġfrazione": 3987, "Ġcerca": 3988, "Ġsale": 3989, "65": 3990, "antica": 3991, "ĠcapacitÃł": 3992, "Ġpremio": 3993, "Ġprod": 3994, "Ġstatunitensi": 3995, "china": 3996, "Ġ1966": 3997, "Ġformato": 3998, "Ġessa": 3999, "Ġpersonale": 4000, "Ġappena": 4001, "ficazione": 4002, "ĠRussia": 4003, "Ġprom": 4004, "Ġruo": 4005, "Ġtratto": 4006, "ologico": 4007, "tions": 4008, "Ġtecnica": 4009, "Ġmeto": 4010, "bri": 4011, "Ä«": 4012, "andante": 4013, "Ġrivista": 4014, "2018": 4015, "rus": 4016, "Ġdep": 4017, "'''.": 4018, "So": 4019, "Ġquarto": 4020, "Ġappare": 4021, "Ð°": 4022, "Ġcollaborazione": 4023, "ega": 4024, "ĠAi": 4025, "Ġpron": 4026, "uttosto": 4027, "Ġcomunica": 4028, "ãģ": 4029, "vizzera": 4030, "Ġevid": 4031, "rin": 4032, "Ġviaggio": 4033, "Ġnos": 4034, "Ġmigliore": 4035, "Ġprende": 4036, "Ġrep": 4037, "die": 4038, "ĠCle": 4039, "Ġattrice": 4040, "ĠAug": 4041, "ĠOn": 4042, "Ġresid": 4043, "OS": 4044, "ĠNonostante": 4045, "Ġperson": 4046, "To": 4047, "Ġinferiore": 4048, "Å«": 4049, "'';": 4050, "usse": 4051, "ek": 4052, "Ġcinema": 4053, "ĠCardinale": 4054, "rali": 4055, "Ġdifesa": 4056, "Ġlegisla": 4057, "zzÃ²": 4058, "Ġprova": 4059, "Ġspeciale": 4060, "Ġtrasforma": 4061, "ĠUl": 4062, "toni": 4063, "Ġcontem": 4064, "zzando": 4065, "ĠGener": 4066, "illo": 4067, "ĠMag": 4068, "Ġfrom": 4069, "erata": 4070, "telli": 4071, "Ġscienti": 4072, "Ġ01": 4073, "Ġdivis": 4074, "1997": 4075, "Ġfuoco": 4076, "Ġprincipalmente": 4077, "Na": 4078, "ustralia": 4079, "Ġunico": 4080, "ĠGold": 4081, "ttori": 4082, "kin": 4083, "ĠBon": 4084, "lamento": 4085, "cas": 4086, "Ġnascita": 4087, "ĠVa": 4088, "tarono": 4089, "Ġlunghezza": 4090, "ĠCompany": 4091, "Ġ43": 4092, "Ġmassa": 4093, "ĠGen": 4094, "Ġcorrisp": 4095, "Ġessendo": 4096, "inati": 4097, "Se": 4098, "ĠReti": 4099, "ĠMichele": 4100, "Ġesten": 4101, "Ġcritica": 4102, "Ġitaliane": 4103, "ym": 4104, "ĠNei": 4105, "ĠGeo": 4106, "Ġ1964": 4107, "ĠFilippo": 4108, "Ġbambini": 4109, "Pri": 4110, "Ġrib": 4111, "1996": 4112, "Ġforti": 4113, "Ġpiuttosto": 4114, "ĠNome": 4115, "Ġcondizioni": 4116, "Ġdovuto": 4117, "dore": 4118, "Ġmura": 4119, "ĠSicilia": 4120, "erci": 4121, "Ġveri": 4122, "Ġcampagna": 4123, "Ġoccidentale": 4124, "Ġrimane": 4125, "ettentri": 4126, "mografia": 4127, "ficata": 4128, "ters": 4129, "gram": 4130, "Ġdoppio": 4131, "ĠGenova": 4132, "Unione": 4133, "aff": 4134, "Ġinvi": 4135, "ĠnonchÃ©": 4136, "Ġpaesi": 4137, "endosi": 4138, "cal": 4139, "olla": 4140, "ĠJim": 4141, "Ġ1965": 4142, "Ġprecedenti": 4143, "Ġusato": 4144, "Ġcomplesso": 4145, "Ġforni": 4146, "Ġromana": 4147, "zialmente": 4148, "Ġcaval": 4149, "Biografia": 4150, "ĠSac": 4151, "zzurro": 4152, "urezza": 4153, "lude": 4154, "Ġsang": 4155, "Ġorientale": 4156, "ĠMax": 4157, "tella": 4158, "Ġtitolare": 4159, "Ġatten": 4160, "Ġraggiungere": 4161, "Ġnorm": 4162, "allen": 4163, "Ġvero": 4164, "edificio": 4165, "Ġfinanzia": 4166, "92": 4167, "ĠHam": 4168, "Ġ70": 4169, "Ġinformazioni": 4170, "ĠSanto": 4171, "Ġacca": 4172, "ĠWi": 4173, "volo": 4174, "ĠJer": 4175, "ĠPet": 4176, "orno": 4177, "nolo": 4178, "Am": 4179, "Ġintra": 4180, "ffic": 4181, "anese": 4182, "ĠFar": 4183, "attedrale": 4184, "ĠBlack": 4185, "colare": 4186, "Ġprincipe": 4187, "Ġmeccan": 4188, "Ġmisura": 4189, "Ġufficiali": 4190, "Ġfisica": 4191, "Ġdice": 4192, "perti": 4193, "Ġequi": 4194, "Ġreale": 4195, "ĠFil": 4196, "Ġspagno": 4197, "ms": 4198, "dori": 4199, "Ġgiocatori": 4200, "Ġ47": 4201, "verno": 4202, "Ġpratica": 4203, "Ġ()": 4204, "64": 4205, "irl": 4206, "Ġfunzion": 4207, "Per": 4208, "ĠMur": 4209, "Ġrisultati": 4210, "cell": 4211, "Gio": 4212, "itori": 4213, "essore": 4214, "ĠBian": 4215, "ĠConte": 4216, "zzano": 4217, "ĠFra": 4218, "Ġsuccessivi": 4219, "ĠCali": 4220, "del": 4221, "Ġstampa": 4222, "Ġtardi": 4223, "Ġscar": 4224, "merican": 4225, "Ġteat": 4226, "ĠFederico": 4227, "ggere": 4228, "Ġcomposi": 4229, ":'''": 4230, "Ġtradizione": 4231, "ĠPra": 4232, "Ġprev": 4233, "tile": 4234, "Ġmeridionale": 4235, "Ġminore": 4236, "attuale": 4237, "ĠSeg": 4238, "oland": 4239, "ĠIni": 4240, "Ġindipend": 4241, "ecuti": 4242, "Ġfrattempo": 4243, "Ġbronzo": 4244, "Ġmeglio": 4245, "ĠetÃł": 4246, "Europa": 4247, "ĠCI": 4248, "istico": 4249, "Ġvir": 4250, "Ġfat": 4251, "rire": 4252, "ulo": 4253, "sab": 4254, "1995": 4255, "ĠMauri": 4256, "Ġinvia": 4257, "ĠqualitÃł": 4258, "asp": 4259, "Ġcompagnia": 4260, "ĠSocietÃł": 4261, "ary": 4262, "ĠPhi": 4263, "Ġmedio": 4264, "ĠCanada": 4265, "ski": 4266, "Ġspieg": 4267, "iti": 4268, "Ġscelta": 4269, "cchio": 4270, "Ġpermette": 4271, "Ġassocia": 4272, "Ġcontinua": 4273, "entro": 4274, "ĠRac": 4275, "Ġromano": 4276, "Ġtedesca": 4277, "primo": 4278, "Ġonda": 4279, "ĠBl": 4280, "Su": 4281, "Ġnatura": 4282, "ziano": 4283, "Ġstrani": 4284, "Ġeventi": 4285, "Ġoppure": 4286, "''')": 4287, "Ġestre": 4288, "onde": 4289, "orth": 4290, "Ġ75": 4291, "Ġraccolta": 4292, "Ġdistretto": 4293, "Ġcaratteristiche": 4294, "ĠConsiglio": 4295, "ĠOlimp": 4296, "Ġfacendo": 4297, "Ġdirettamente": 4298, "Ġsuccessiva": 4299, "Ġottenne": 4300, "une": 4301, "Ġsceneggia": 4302, "Ġcosidd": 4303, "pin": 4304, "volta": 4305, "ĠChe": 4306, "citato": 4307, "ĠBras": 4308, "matica": 4309, "onata": 4310, "urt": 4311, "hr": 4312, "Ġponte": 4313, "Ġ1963": 4314, "uoghi": 4315, "orre": 4316, "Ġdifferenza": 4317, "Ġsopp": 4318, "Ġsettore": 4319, "nali": 4320, "Ġportato": 4321, "taria": 4322, "Ġdef": 4323, "Ġcorrispond": 4324, "ettato": 4325, "eda": 4326, "Ġgiornal": 4327, "ĠLemmon": 4328, "enz": 4329, "arca": 4330, "come": 4331, "Ġincl": 4332, "cenza": 4333, "unt": 4334, "Ġcattura": 4335, "Ġsino": 4336, "ril": 4337, "ĠDivisione": 4338, "Ġpiccoli": 4339, "stico": 4340, "Ġflo": 4341, "ĠOri": 4342, "Ġrivel": 4343, "tratto": 4344, "bor": 4345, "let": 4346, "ĠSem": 4347, "Ġsoprav": 4348, "Ġdieci": 4349, "Ġelezioni": 4350, "abb": 4351, "Ġpresenze": 4352, "ĠAlle": 4353, "Ġ1961": 4354, "key": 4355, "Ġesso": 4356, "Ġbattuto": 4357, "Ġmedaglia": 4358, "Ġ1962": 4359, "ther": 4360, "Ġconcent": 4361, "94": 4362, "Ġ500": 4363, "Ġarmi": 4364, "93": 4365, "bietti": 4366, "Ġposti": 4367, "Ġarres": 4368, "gger": 4369, "ĠLuca": 4370, "ĠArti": 4371, "Ġ80": 4372, "je": 4373, "duto": 4374, "Ġpressi": 4375, "bora": 4376, "icolo": 4377, "Ġmina": 4378, "Ġriusci": 4379, "Ġmaschi": 4380, "ĠCina": 4381, "Ġvolon": 4382, "Ġabbia": 4383, "Ġamico": 4384, "ĠMadonna": 4385, "ĠJan": 4386, "Es": 4387, "Ġpiane": 4388, "Ġbritannico": 4389, "ĠBatti": 4390, "uria": 4391, "Ġapplica": 4392, "Ġpercorso": 4393, "Ġcomposta": 4394, "Ġderiva": 4395, "americ": 4396, "Ġdistin": 4397, "Ġgar": 4398, "ĠSaint": 4399, "Ġforme": 4400, "Ġdistanza": 4401, "cic": 4402, "Ġcorre": 4403, "Ġlotta": 4404, "ĠPaesi": 4405, "Ãº": 4406, "Miglior": 4407, "entando": 4408, "duce": 4409, "well": 4410, "Ġmanifesta": 4411, "1994": 4412, "unico": 4413, "rista": 4414, "Ġfian": 4415, "ĠEdizioni": 4416, "Ġpresto": 4417, "iascun": 4418, "Ġgoverna": 4419, "Ġmigliori": 4420, "ĠSand": 4421, "Ġsettiman": 4422, "Ġrispetti": 4423, "Ġresto": 4424, "Ġcollega": 4425, "lico": 4426, "arri": 4427, "67": 4428, "mitÃł": 4429, "Ġacquista": 4430, "ĠGiacomo": 4431, "iglie": 4432, "Ġbrani": 4433, "Ġannun": 4434, "Ġsorella": 4435, "Ġpermet": 4436, "Ġpolizia": 4437, "ĠPrinci": 4438, "Ġventi": 4439, "Ġsoff": 4440, "Ġuso": 4441, "Ġscrittore": 4442, "otball": 4443, "ĠSpi": 4444, "ĠPlay": 4445, "Ġ1945": 4446, "Ġreali": 4447, "Ġrica": 4448, "ĠsposÃ²": 4449, "Ġang": 4450, "Ġmaggiori": 4451, "atrice": 4452, "ER": 4453, "Ġpan": 4454, "Ġveniva": 4455, "Da": 4456, "teriori": 4457, "ĠPresidente": 4458, "ĠSmith": 4459, "ĠLee": 4460, "Ġessi": 4461, "Ġpag": 4462, "Ġrecord": 4463, "Ġtraspor": 4464, "Ġlaure": 4465, "ĠNational": 4466, "Ġottenuto": 4467, "estate": 4468, "Ġfabb": 4469, "87": 4470, "ĠChampionship": 4471, "nate": 4472, "Ġduca": 4473, "Mo": 4474, "Ad": 4475, "pic": 4476, "Ġconfli": 4477, "Ġtour": 4478, "Ð¾": 4479, "eng": 4480, "ĠDistrib": 4481, "Ġstagioni": 4482, "ĠMondo": 4483, "glione": 4484, "Ġ1958": 4485, "Ġterre": 4486, "ccademia": 4487, "veg": 4488, "Ġsig": 4489, "Ġsepa": 4490, "qua": 4491, "Ġlibera": 4492, "ĠInternational": 4493, "Ġ1959": 4494, "teggio": 4495, "Ġtorre": 4496, "Ġprovo": 4497, "Ġstorici": 4498, "ĠTim": 4499, "entato": 4500, "Ġvittorie": 4501, "stituto": 4502, "iller": 4503, "dae": 4504, "Ġverde": 4505, "ket": 4506, "Ġcaus": 4507, "ĠAnno": 4508, "rad": 4509, "Ġmono": 4510, "Ġarriva": 4511, "Ġpensa": 4512, "ĠKing": 4513, "Ġmateriale": 4514, "Ġcontes": 4515, "cezione": 4516, "ĠNat": 4517, "Ġdeceduto": 4518, "Sa": 4519, "2019": 4520, "reni": 4521, "als": 4522, "Ġarche": 4523, "orig": 4524, "Ġdedicato": 4525, "idea": 4526, "ĠLorenzo": 4527, "erg": 4528, "BA": 4529, "Ġsettentri": 4530, "Ã©e": 4531, "finale": 4532, "detta": 4533, "ĠRam": 4534, "63": 4535, "Ġzone": 4536, "Ġcostruito": 4537, "rno": 4538, "turale": 4539, "Ġucciso": 4540, "Pal": 4541, "tono": 4542, "putato": 4543, "Ġsupera": 4544, "Ġfum": 4545, "62": 4546, "ĠPress": 4547, "Ġcomunale": 4548, "astero": 4549, "Ġdistru": 4550, "ĠQui": 4551, "ranno": 4552, "Ġbor": 4553, "Ġtrovare": 4554, "Â»,": 4555, "Ġvince": 4556, "ĠDra": 4557, "Ġcerto": 4558, "Ġdavanti": 4559, "energia": 4560, "Ġcanzoni": 4561, "Ġscul": 4562, "Ġtel": 4563, "ĠShi": 4564, "ristian": 4565, "sen": 4566, "Ġrisol": 4567, "ult": 4568, "Ġpatri": 4569, "Ġscopre": 4570, "Ġaccompagna": 4571, "ĠAngeles": 4572, "Ġrisulta": 4573, "ĠItaliano": 4574, "mÃ²": 4575, "ÃŃa": 4576, "Ġsconfitto": 4577, "ĠHu": 4578, "ĠLomb": 4579, "Ġminuti": 4580, "ilmente": 4581, "ĠFla": 4582, "arlo": 4583, "Ġani": 4584, "1993": 4585, "dono": 4586, "ĠVia": 4587, "91": 4588, "dov": 4589, "ĠDoppio": 4590, "rut": 4591, "erri": 4592, "Ġfuturo": 4593, "Ġconto": 4594, "Ġsezione": 4595, "Ġfondata": 4596, "Ġdet": 4597, "Ġrisal": 4598, "Ġ1943": 4599, "civescovo": 4600, "Ġba": 4601, "ĠEra": 4602, "ĠSol": 4603, "Ġposta": 4604, "onaco": 4605, "Ġpalla": 4606, "ght": 4607, "cendo": 4608, "Ġforse": 4609, "Ġripro": 4610, "ĠCapo": 4611, "ĠXIX": 4612, "gre": 4613, "Ġpopolare": 4614, "Ġstar": 4615, "Ġovest": 4616, "zionato": 4617, "Ġ1956": 4618, "84": 4619, "Ġconsi": 4620, "Ġconosciuto": 4621, "ĠDomen": 4622, "Ġsequ": 4623, "Ġtroppo": 4624, "Ġpartecipato": 4625, "Ġcapol": 4626, "ĠIm": 4627, "Ġvis": 4628, "Ġvive": 4629, "Ġrivela": 4630, "Ġconvo": 4631, "ĠAtle": 4632, "peti": 4633, "stra": 4634, "Ġ52": 4635, "emento": 4636, "Impero": 4637, "ĠCap": 4638, "ontan": 4639, "ĠPunti": 4640, "ologica": 4641, "ik": 4642, "IS": 4643, "82": 4644, "Ġvolo": 4645, "ĠStagione": 4646, "Ġtitoli": 4647, "NA": 4648, "orso": 4649, "erienza": 4650, "alisi": 4651, "Ġillus": 4652, "83": 4653, "urato": 4654, "ĠArg": 4655, "Ġpoten": 4656, "landa": 4657, "Ġnasc": 4658, "Gu": 4659, "bria": 4660, "Ġcampione": 4661, "Ġragazzo": 4662, "Ġpeso": 4663, "Ġcolonna": 4664, "Ġoro": 4665, "elmo": 4666, "dard": 4667, "Ġ55": 4668, "Ġtraccia": 4669, "Ġipo": 4670, "ĠJoseph": 4671, "Ġsoldati": 4672, "Ġpromozione": 4673, "ambito": 4674, "Ġ51": 4675, "Ġpreso": 4676, "Ġgiocato": 4677, "Ġeletto": 4678, "Ġanimali": 4679, "contro": 4680, "Ġindustri": 4681, "ĠAwards": 4682, "Ġriserva": 4683, "nando": 4684, "ĠCen": 4685, "Ġstudia": 4686, "Ġneg": 4687, "yer": 4688, "ĠBerlino": 4689, "Ġpubblicata": 4690, "ĠXVI": 4691, "ĠCra": 4692, "dor": 4693, "ĠPark": 4694, "Ġdig": 4695, "Ġgiud": 4696, "Ġpietra": 4697, "azia": 4698, "61": 4699, "estra": 4700, "Ġciascun": 4701, "ĠnÃ©": 4702, "gin": 4703, "ĠQuesti": 4704, "69": 4705, "Ġfratelli": 4706, "1992": 4707, "Ġmissione": 4708, "ĠUr": 4709, "Ġesemplari": 4710, "chino": 4711, "Ġdifficol": 4712, "ĠCentro": 4713, "uite": 4714, "Ġpianta": 4715, "eries": 4716, "terÃł": 4717, "Ġdiritti": 4718, "fornia": 4719, "Ġevi": 4720, "gor": 4721, "Ġlater": 4722, "Ġparole": 4723, "Ã£": 4724, "Ġbe": 4725, "Ġsiano": 4726, "Ġfen": 4727, "Ġcreato": 4728, "zzazione": 4729, "autore": 4730, "oll": 4731, "ĠPapa": 4732, "ĠNicola": 4733, "Ass": 4734, "ĠGabri": 4735, "Ġvitti": 4736, "1990": 4737, "ĠHenry": 4738, "Ġgua": 4739, "Ġcambio": 4740, "ĠWh": 4741, "lievo": 4742, "Ġpubblicazione": 4743, "Ġero": 4744, "Ġvillaggio": 4745, "ĠLouis": 4746, "Ġaiuta": 4747, "Ġquartiere": 4748, "Ġlasci": 4749, "omeo": 4750, "Ġcomporta": 4751, "Ġconfronti": 4752, "Ordine": 4753, "nel": 4754, "Ġghia": 4755, "defini": 4756, "edeva": 4757, "ĠWin": 4758, "Ġcampionati": 4759, "zzare": 4760, "Ġ1944": 4761, "ĠBell": 4762, "ĠIndi": 4763, "sson": 4764, "ics": 4765, "Ġpassaggio": 4766, "Ġdietro": 4767, "ĠStre": 4768, "Ġtedeschi": 4769, "Ġdedicata": 4770, "Ġcell": 4771, "ĠLega": 4772, "ĠBrasile": 4773, "Ġfanno": 4774, "cha": 4775, "Ġpuntata": 4776, "Ġluoghi": 4777, "ĠGiro": 4778, "Ġvalle": 4779, "Ġsepol": 4780, "Ġproblema": 4781, "artimento": 4782, "Ġaccetta": 4783, "Ġordine": 4784, "Ġ1957": 4785, "ĠHall": 4786, "ĠBened": 4787, "imit": 4788, "ĠAlf": 4789, "Ġdirig": 4790, "ĠPers": 4791, "Ġconcl": 4792, "ĠValle": 4793, "ĠOltre": 4794, "Ġservizi": 4795, "ccessi": 4796, "utili": 4797, "Ã¼r": 4798, "eriali": 4799, "Ġaree": 4800, "ĠGuerra": 4801, "ĠRai": 4802, "Ġtecniche": 4803, "81": 4804, "Ġ90": 4805, "itt": 4806, "basti": 4807, "Ġlatino": 4808, "king": 4809, "Ġmetropoli": 4810, "ĠPalermo": 4811, "Ġfacciata": 4812, "Ġpromos": 4813, "ĠRacing": 4814, "Ġpilota": 4815, "ĠLoc": 4816, "ĠLet": 4817, "Ġoggetti": 4818, "Ġlinee": 4819, "Ġab": 4820, "riche": 4821, "vando": 4822, "itch": 4823, "Ġcorsa": 4824, "Ġfal": 4825, "ĠCin": 4826, "Ġmemoria": 4827, "Ġsfi": 4828, "pore": 4829, "ĠUnder": 4830, "Ġsicurezza": 4831, "Ġentra": 4832, "olfo": 4833, "ĠMuse": 4834, "Ġuccid": 4835, "ĠSvizzera": 4836, "gica": 4837, "ĠCristo": 4838, "Ġpreval": 4839, "tichetta": 4840, "ĠDivision": 4841, "ĠHis": 4842, "inate": 4843, "Ġcominci": 4844, "bara": 4845, "vale": 4846, "lom": 4847, "Ġblu": 4848, "fric": 4849, "Ġricevuto": 4850, "inaria": 4851, "Ġlibero": 4852, "ĠÄ": 4853, "eb": 4854, "cin": 4855, "Ġanch": 4856, "ĠGon": 4857, "uck": 4858, "ason": 4859, "Ġmalatti": 4860, "antico": 4861, "jp": 4862, "mini": 4863, "ĠSeconda": 4864, "dite": 4865, "AC": 4866, "Ġsettimana": 4867, "1991": 4868, "ĠSimon": 4869, "Ġvuole": 4870, "inger": 4871, "Ġdunque": 4872, "eck": 4873, "Ġrappresent": 4874, "Ġgiusti": 4875, "Ġpotrebbe": 4876, "ĠportÃ²": 4877, "Ġcil": 4878, "Ġcontemporane": 4879, "erta": 4880, "Ġgreco": 4881, "Ġlibri": 4882, "osso": 4883, "terio": 4884, "Ġge": 4885, "entare": 4886, "Ġcapitano": 4887, "ĠMt": 4888, "Ġcombatti": 4889, "Ġmassimo": 4890, "net": 4891, "Ġinci": 4892, "Ġvinse": 4893, "sce": 4894, "ĠSve": 4895, "rebbero": 4896, "ticamente": 4897, "Ġcolpi": 4898, "ĠStudi": 4899, "Ġcomandante": 4900, "Ġtestimoni": 4901, "ĠPio": 4902, "Ġtemper": 4903, "ap": 4904, "egi": 4905, "inema": 4906, "inta": 4907, "sse": 4908, "Ġiso": 4909, "pianto": 4910, "Ġ1950": 4911, "ĠJoe": 4912, "Ġcinemato": 4913, "Ġparticolarmente": 4914, "Ġcontiene": 4915, "unici": 4916, "ficare": 4917, "Ġmaglia": 4918, "Ġaustria": 4919, "ggiare": 4920, "episodio": 4921, "ĠdifficoltÃł": 4922, "ĠMarina": 4923, "Ġandata": 4924, "Ġbassa": 4925, "Ġdiventare": 4926, "ĠSport": 4927, "ĠSara": 4928, "AS": 4929, "ĠFed": 4930, "Ġmoto": 4931, "Ġcarattere": 4932, "Ġsemplice": 4933, "ĠNelle": 4934, "ĠUE": 4935, "ĠVittorio": 4936, "cho": 4937, "Ġvisita": 4938, "ĠMentre": 4939, "Ġtecnico": 4940, "Ġtela": 4941, "ĠLit": 4942, "Ġpartecipanti": 4943, "Ġfasc": 4944, "Ġcommedia": 4945, "ĠAltre": 4946, "Ġimmedia": 4947, "Ġ**''": 4948, "ellone": 4949, "cate": 4950, "rd": 4951, "Ġsovie": 4952, "Ġ1955": 4953, "azienda": 4954, "uali": 4955, "ĠSalva": 4956, "Ġversioni": 4957, "Ġstessi": 4958, "zzati": 4959, "esima": 4960, "Ġscritta": 4961, "Ġ54": 4962, "inte": 4963, "usi": 4964, "Ġdiretti": 4965, "Ġaffres": 4966, "esc": 4967, "ĠFel": 4968, "vili": 4969, "edio": 4970, "ĠMis": 4971, "Ġinterno": 4972, "ĠMu": 4973, "Ġ1940": 4974, "Ġclassi": 4975, "Ġsviluppa": 4976, "Ġsele": 4977, "Ġesclusi": 4978, "aug": 4979, "ware": 4980, "Ġtasti": 4981, "tol": 4982, "field": 4983, "Ġran": 4984, "Ġcoloni": 4985, "Ġcostituito": 4986, "Ġeuropeo": 4987, "inÃ²": 4988, "Ġfondam": 4989, "Ġautore": 4990, "Ġocchi": 4991, "Ġcomin": 4992, "ĠJuli": 4993, "ĠDaniel": 4994, "magine": 4995, "the": 4996, "1989": 4997, "Ġdollari": 4998, "ĠRon": 4999, "ĠTy": 5000, "Ġcappella": 5001, "Ġdare": 5002, "imperatore": 5003, "zer": 5004, "lip": 5005, "ĠChallen": 5006, "Ġfondo": 5007, "Chi": 5008, "Ġpace": 5009, "Ġpittore": 5010, "Ġpopolo": 5011, "Ġottiene": 5012, "kh": 5013, "Ġpiccole": 5014, "ĠBay": 5015, "ĠRy": 5016, "Ġrend": 5017, "!''": 5018, "Ġattorno": 5019, "hite": 5020, "pale": 5021, "Ġdesi": 5022, "ĠXIII": 5023, "Ġste": 5024, "EAT": 5025, "ĠpassÃ²": 5026, "Ġspagnolo": 5027, "Ġministro": 5028, "pres": 5029, "sola": 5030, "ĠLig": 5031, "arma": 5032, "ardino": 5033, "Non": 5034, "Ġbordo": 5035, "Ġmorto": 5036, "vola": 5037, "Ġtali": 5038, "ission": 5039, "riti": 5040, "ĠGrand": 5041, "Ġtentativo": 5042, "Ġprevis": 5043, "Ġrealizzazione": 5044, "Ġeuropea": 5045, "Ġracco": 5046, "ĠSw": 5047, "Sh": 5048, "Ġallenatore": 5049, "Ġproprie": 5050, "Ġpian": 5051, "AR": 5052, "auto": 5053, "Ġcompetizione": 5054, "Ġrock": 5055, "jpg": 5056, "Ġchiese": 5057, "trÃ²": 5058, "ĠTele": 5059, "Ġali": 5060, "ĠBol": 5061, "Man": 5062, "ennio": 5063, "Ġmusicali": 5064, "ĠGeorg": 5065, "ĠBassi": 5066, "viÄĩ": 5067, "ĠPaese": 5068, "Ġ53": 5069, "ĠCasa": 5070, "bat": 5071, "Ġriguard": 5072, "ĠMessico": 5073, "ĠFal": 5074, "ĠGesÃ¹": 5075, "ĠMassimo": 5076, "ĠKi": 5077, "ĠMary": 5078, "bolo": 5079, "Carriera": 5080, "Ġcanale": 5081, "Ġmotori": 5082, "ceva": 5083, "ĠBres": 5084, "ĠRisultati": 5085, "Å¾": 5086, "luso": 5087, "tidi": 5088, "Ġcu": 5089, "Ġund": 5090, "dito": 5091, "Ġ56": 5092, "Ġvolume": 5093, "Ġcontea": 5094, "ĠXVIII": 5095, "Ġpotenza": 5096, "Ġ=====": 5097, "Ġpiedi": 5098, "Ġkg": 5099, "emonte": 5100, "Ġpoteva": 5101, "Cor": 5102, "Ġmen": 5103, "Ġvecchio": 5104, "Ġit": 5105, "Ġ65": 5106, "Ġsistemi": 5107, "tivamente": 5108, "Ġinver": 5109, "otto": 5110, "ĠWilliams": 5111, "ĠCala": 5112, "Ġpas": 5113, "ces": 5114, "AN": 5115, "Ġrient": 5116, "pote": 5117, "Ġcosta": 5118, "Ġatle": 5119, "ĠPrimo": 5120, "Ġscher": 5121, "Ã£o": 5122, "uca": 5123, "ĠIt": 5124, "Una": 5125, "Ġcarb": 5126, "arch": 5127, "ily": 5128, "ĠComune": 5129, "Ġinizio": 5130, "Ġfig": 5131, "emble": 5132, "Ġvideogio": 5133, "Ġ1954": 5134, "cella": 5135, "rante": 5136, "eff": 5137, "Ġperc": 5138, "OC": 5139, "ĠRoss": 5140, "ken": 5141, "ction": 5142, "Ġ64": 5143, "ĠSar": 5144, "'t": 5145, "Ġsimili": 5146, "Ġnacque": 5147, "win": 5148, "Ġconfine": 5149, "Ġparla": 5150, "Ġcardinale": 5151, "Ġcostruita": 5152, "Ġrapporti": 5153, "phy": 5154, "inal": 5155, "Mad": 5156, "evo": 5157, "Ti": 5158, "ĠSun": 5159, "Ġinsegn": 5160, "Ġcreare": 5161, "ĠEdward": 5162, "Ġlago": 5163, "Ġproced": 5164, "ĠGil": 5165, "Ġschia": 5166, "fficio": 5167, "Ġsettentrionale": 5168, "Ġmaniera": 5169, "ĠTab": 5170, "ĠCalifornia": 5171, "ĠCostan": 5172, "ĠMatte": 5173, "Ġsecoli": 5174, "side": 5175, "ĠHill": 5176, "Ġvanta": 5177, "ost": 5178, "len": 5179, "Ġpelli": 5180, "Ġmonte": 5181, "Ġcolori": 5182, "Ġorigini": 5183, "Ġcostru": 5184, "prire": 5185, "Ġlettera": 5186, "Ġimpegna": 5187, "Ġmale": 5188, "Ġgestione": 5189, "erno": 5190, "Ġadotta": 5191, "Ġantico": 5192, "mit": 5193, "Ġteoria": 5194, "ĠBruno": 5195, "Ġpolitiche": 5196, "uda": 5197, "Ġara": 5198, "Ġappari": 5199, "Ġfatti": 5200, "gitto": 5201, "Ġprestito": 5202, "gr": 5203, "Ġfantas": 5204, "Ġfamiglie": 5205, "Ho": 5206, "Ġcur": 5207, "ĠBus": 5208, "ĠTale": 5209, "Ġriguarda": 5210, "ĠÎ": 5211, "alogo": 5212, "mando": 5213, "ĠGiulio": 5214, "Ġgenitori": 5215, "icidio": 5216, "ĠGirone": 5217, "Ġparco": 5218, "ĠCu": 5219, "Ġterreno": 5220, "bel": 5221, "ĠCorpo": 5222, "Ġacque": 5223, "ĠPadova": 5224, "Ã¢": 5225, "Ġ1939": 5226, "ĠAustralia": 5227, "Ġcuore": 5228, "Ġurb": 5229, "trano": 5230, "Ġvali": 5231, "Ġpianoforte": 5232, "tuta": 5233, "Ġprend": 5234, "Ġcodice": 5235, "ĠGugli": 5236, "Ġinaug": 5237, "fra": 5238, "ĠPS": 5239, "ĠViene": 5240, "Ġsoltanto": 5241, "ĠentrÃ²": 5242, "ĠBrown": 5243, "Ġlegno": 5244, "siasi": 5245, "Ġartico": 5246, "gar": 5247, "ĠBir": 5248, "Ġretroc": 5249, "Ġutilizzata": 5250, "ĠCesare": 5251, "deo": 5252, "Ġcondanna": 5253, "Ġtracce": 5254, "Te": 5255, "Ġbiso": 5256, "Ġpartecipazione": 5257, "vent": 5258, "ĠHel": 5259, "Ġprovenienti": 5260, "Ġgro": 5261, "lici": 5262, "iano": 5263, "ical": 5264, "angelo": 5265, "1988": 5266, "ĠFI": 5267, "Ġgig": 5268, "Ġproprieta": 5269, "erti": 5270, "roni": 5271, "Ġfascia": 5272, "rific": 5273, "ĠCons": 5274, "istono": 5275, "Ġsole": 5276, "1987": 5277, "ĠCarol": 5278, "ĠShe": 5279, "ilio": 5280, "til": 5281, "ĠGall": 5282, "Ġtornare": 5283, "ilica": 5284, "Ġstelle": 5285, "iner": 5286, "worth": 5287, "ĠChia": 5288, "ĠStatistiche": 5289, "Be": 5290, "cos": 5291, "Ġ1953": 5292, "Ġsala": 5293, "Ġvera": 5294, "Ġnomi": 5295, "rado": 5296, "Ġvesti": 5297, "ĠNEAT": 5298, "Ġsinda": 5299, "Ġproduttore": 5300, "Ġsottos": 5301, "osito": 5302, "mba": 5303, "uter": 5304, "chen": 5305, "Ġlista": 5306, "Ġbal": 5307, "ettatori": 5308, "tron": 5309, "Ġsonora": 5310, "Ġscompar": 5311, "Ġnato": 5312, "ĠLiber": 5313, "Ġedifici": 5314, "cili": 5315, "Ġvesco": 5316, "ĠAlcuni": 5317, "ĠSpor": 5318, "ĠParis": 5319, "tia": 5320, "Ġaumenta": 5321, "ral": 5322, "simo": 5323, "Ġmodelli": 5324, "ensis": 5325, "Ġlancia": 5326, "Ġandare": 5327, "Ġresti": 5328, "Ġraggiunto": 5329, "evale": 5330, "ĠDue": 5331, "Ġby": 5332, "Ġmotivo": 5333, "vas": 5334, "Ġbambino": 5335, "rismo": 5336, "mas": 5337, "Ġparola": 5338, "onima": 5339, "ashington": 5340, "Sta": 5341, "ĠDomenico": 5342, "ĠVis": 5343, "Ġ57": 5344, "ĠVII": 5345, "Ġregg": 5346, "orr": 5347, "Accademia": 5348, "ĠCur": 5349, "Ġstorica": 5350, "Ġletteratura": 5351, "Ġconflitto": 5352, "gel": 5353, "Ġ1948": 5354, "Ġ1942": 5355, "ĠMike": 5356, "bero": 5357, "ĠNorth": 5358, "Ġconoscenza": 5359, "ĠAdam": 5360, "iterran": 5361, "ĠCe": 5362, "tÃ©": 5363, "ĠCara": 5364, "Ġ''\"": 5365, "Ġqualsiasi": 5366, "Äĥ": 5367, "ĠTu": 5368, "ramento": 5369, "ĠCarriera": 5370, "ĠRoyal": 5371, "datura": 5372, "Ġsangue": 5373, "Ġfores": 5374, "redo": 5375, "gini": 5376, "Ð¸": 5377, "Ġfalli": 5378, "Ġoccup": 5379, "ustrali": 5380, "ssima": 5381, "lem": 5382, "Ġamericano": 5383, "arrivo": 5384, "gico": 5385, "ĠNight": 5386, "Ġ1941": 5387, "Ġquell": 5388, "Ġproto": 5389, "ffi": 5390, "Ġdiede": 5391, "Ġ400": 5392, "Ġlegislatura": 5393, "ĠSpeci": 5394, "Inter": 5395, "Ġtrasporto": 5396, "Ġoggetto": 5397, "Ġmuseo": 5398, "ĠJones": 5399, "kes": 5400, "Ġufficialmente": 5401, "Ġglo": 5402, "Ġ1952": 5403, "ĠOno": 5404, "Ġlet": 5405, "Ġchim": 5406, "Ġragazzi": 5407, "Ġcelebra": 5408, "riano": 5409, "erdo": 5410, "Ta": 5411, "Ġregionale": 5412, "Ġteam": 5413, "ĠOlimpia": 5414, "denza": 5415, "Ã¸": 5416, "Ġcreazione": 5417, "ĠPremi": 5418, "ĠSuccessi": 5419, "Ġcirconda": 5420, "Ġfenom": 5421, "Ġinternazionali": 5422, "Ġforn": 5423, "Ġrifug": 5424, "Ġvene": 5425, "ĠWa": 5426, "Ġriun": 5427, "ĠGirl": 5428, "Ġdipend": 5429, "ĠAtl": 5430, "intera": 5431, "Ġbio": 5432, "Ġesiste": 5433, "gne": 5434, "500": 5435, "ĠDre": 5436, "ĠAnn": 5437, "Ġminori": 5438, "Ġprendere": 5439, "Ġfonti": 5440, "Ġsali": 5441, "forme": 5442, "ÃŃn": 5443, "Ġdoveva": 5444, "Ġ58": 5445, "ĠScho": 5446, "ĠStadio": 5447, "Ġpresid": 5448, "definitivo": 5449, "ĠBelgio": 5450, "Ġeuropei": 5451, "ĠScott": 5452, "Ġcompre": 5453, "1986": 5454, "Des": 5455, "Ġtennis": 5456, "ssimo": 5457, "Ġappartenente": 5458, "Ġinda": 5459, "Ðµ": 5460, "Ġusci": 5461, "Ġstrumenti": 5462, "ĠXVII": 5463, "ÅĤ": 5464, "ĠOpera": 5465, "utÃ²": 5466, "ĠBlo": 5467, "ĠDen": 5468, "Ġcase": 5469, "ĠJosÃ©": 5470, "Ġbuona": 5471, "Ġ1947": 5472, "vit": 5473, "Ġcilind": 5474, "ĠZa": 5475, "Ġgeneralmente": 5476, "ĠMen": 5477, "Ġscoperta": 5478, "astia": 5479, "secondo": 5480, "Ġinfluenza": 5481, "Ġmoderna": 5482, "ĠRosa": 5483, "alizzato": 5484, "Ġcampi": 5485, "ĠMili": 5486, "arie": 5487, "Ġ000": 5488, "Ġabbandon": 5489, "Ġaggior": 5490, "ggiata": 5491, "ĠClaudio": 5492, "ĠTracce": 5493, "Ġ1946": 5494, "âĢĿ,": 5495, "Ġgeo": 5496, "Ġrilas": 5497, "ashi": 5498, "Ġoperazioni": 5499, "Ġcann": 5500, "New": 5501, "dendo": 5502, "versario": 5503, "andi": 5504, "Ġinteresse": 5505, "Ġsegno": 5506, "ĠMosca": 5507, "VD": 5508, "FC": 5509, "Ġsupporto": 5510, "ally": 5511, "Ġfr": 5512, "Ġraggiunge": 5513, "ink": 5514, "ĠSouth": 5515, "ĠRes": 5516, "Ġprogetta": 5517, "Ġstava": 5518, "ĠArt": 5519, "ĠFam": 5520, "tonio": 5521, "tas": 5522, "lic": 5523, "trici": 5524, "itra": 5525, "ĠYe": 5526, "Ġedizioni": 5527, "Ġprepa": 5528, "Ġevitare": 5529, "ĠVincenzo": 5530, "Ġtess": 5531, "ĠBattista": 5532, "landese": 5533, "Ġdiffic": 5534, "Ġtrasmissione": 5535, "Ġtrono": 5536, "Ġnati": 5537, "Ġgiri": 5538, "olini": 5539, "Ġfianco": 5540, "Ġriforma": 5541, "Ġnarra": 5542, "Ġattualmente": 5543, "Ġfesta": 5544, "Ġcollabora": 5545, "alismo": 5546, "ĠSing": 5547, "ĠNello": 5548, "ologici": 5549, "ĠSlo": 5550, "Ġdenominazione": 5551, "Ġregina": 5552, "ĠTran": 5553, "Ġwith": 5554, "ĠGlo": 5555, "Ġcontatto": 5556, "Ġcomponenti": 5557, "arco": 5558, "nam": 5559, "Ġcostretto": 5560, "icago": 5561, "ĠquantitÃł": 5562, "Ġpassare": 5563, "Ġ1951": 5564, "Ġattraversa": 5565, "Ġconos": 5566, "ĠSuccessivamente": 5567, "ĠÃī": 5568, "amma": 5569, "Ġincontro": 5570, "ĠPier": 5571, "Ġmone": 5572, "Ġcinese": 5573, "ĠMadrid": 5574, "Ġcinqu": 5575, "camente": 5576, "ĠLiv": 5577, "1985": 5578, "ather": 5579, "ĠXII": 5580, "Ġprivata": 5581, "wo": 5582, "ĠCul": 5583, "dro": 5584, "ĠCel": 5585, "Ġfiori": 5586, "dotte": 5587, "Ġcommerciale": 5588, "sche": 5589, "Don": 5590, "ggeri": 5591, "Ġcrisi": 5592, "Ġnotevole": 5593, "Ġperf": 5594, "ingresso": 5595, "ĠSard": 5596, "enziale": 5597, "essitÃł": 5598, "Ġbomb": 5599, "zan": 5600, "iola": 5601, "ĠÅł": 5602, "tava": 5603, "ĠJuan": 5604, "Ġintitolato": 5605, "BC": 5606, "uman": 5607, "Ġint": 5608, "Ġber": 5609, "hann": 5610, "attore": 5611, "Ġriprese": 5612, "rov": 5613, "Ġisole": 5614, "Ġfondato": 5615, "ĠRadio": 5616, "Tor": 5617, "ets": 5618, "Ġculto": 5619, "kie": 5620, "ĠSeries": 5621, "lav": 5622, "itato": 5623, "ĠCastello": 5624, "ĠSP": 5625, "oli": 5626, "ister": 5627, "zy": 5628, "mes": 5629, "Ġavviene": 5630, "Ġrusso": 5631, "Ġaposto": 5632, "Ġmeta": 5633, "Ġrad": 5634, "Ġantica": 5635, "ĠXIV": 5636, "ĠGrecia": 5637, "olino": 5638, "Ġarchi": 5639, "Ġvie": 5640, "Ġsera": 5641, "tten": 5642, "ĠVienna": 5643, "Ġpref": 5644, "ĠKen": 5645, "ggiore": 5646, "unitÃł": 5647, "ĠSel": 5648, "ĠCastel": 5649, "Ġpresentato": 5650, ".'''": 5651, "ĠDay": 5652, "Ġprigioni": 5653, "Ġcapoluogo": 5654, "Ġcompleta": 5655, "ĠBari": 5656, "grammi": 5657, "Ġ1936": 5658, "ĠCampionati": 5659, "veri": 5660, "Ġargento": 5661, "cht": 5662, "ĠGreen": 5663, "ĠTorre": 5664, "Ġebra": 5665, "ĠEgli": 5666, "Ġrecu": 5667, "ĠSigno": 5668, "Ġsche": 5669, "Is": 5670, "Ġdanni": 5671, "enco": 5672, "Ġconseguenza": 5673, "Ġlavorare": 5674, "ĠFrancisco": 5675, "ĠCandi": 5676, "ĠGuglielmo": 5677, "Ġcattolica": 5678, "Ġsebbene": 5679, "US": 5680, "ĠSteve": 5681, "Ġdial": 5682, "Ġcel": 5683, "Ġrende": 5684, "Ġcosti": 5685, "Ġregioni": 5686, "Ġparrocchi": 5687, "Ġacqua": 5688, "Ġnecessario": 5689, "Ġiniziato": 5690, "Dis": 5691, "ĠAv": 5692, "Ġproi": 5693, "ÑĢ": 5694, "Ġinterro": 5695, "ĠFred": 5696, "ĠWashington": 5697, "ĠlibertÃł": 5698, "ĠHi": 5699, "Ġamore": 5700, "torale": 5701, "mula": 5702, "chine": 5703, "mira": 5704, "Ġstrutture": 5705, "ĠCamera": 5706, "Ġscala": 5707, "Ġstrate": 5708, "ES": 5709, "ĠuscÃ¬": 5710, "1984": 5711, "Ġmedico": 5712, "day": 5713, "ĠRio": 5714, "ĠSong": 5715, "Ġbiblio": 5716, "ĠBob": 5717, "ĠDec": 5718, "Ġculturale": 5719, "ĠAlb": 5720, "Ġgir": 5721, "Ġvalori": 5722, "Ġsposa": 5723, "Ġ1938": 5724, "Ġportare": 5725, "ĠSergio": 5726, "cle": 5727, "ray": 5728, "egni": 5729, "rey": 5730, "Ġeste": 5731, "Ġmondiali": 5732, "Ġfossero": 5733, "Ġquotidi": 5734, "Ġchiede": 5735, "hl": 5736, "Ġlavor": 5737, "Ġvoc": 5738, "ĠTal": 5739, "rona": 5740, "Ġdebutto": 5741, "''\"": 5742, "igno": 5743, "Ġorgan": 5744, "soli": 5745, "Ġdedic": 5746, "Ġpianeta": 5747, "cemente": 5748, "Ġmic": 5749, "Ġmate": 5750, "cardo": 5751, "Ġvivo": 5752, "Ġattacco": 5753, "ĠDescrizione": 5754, "Ġdipinto": 5755, "ĠMondiali": 5756, "Ġpensi": 5757, "Yo": 5758, "Ġâ": 5759, "Ġsconfi": 5760, "Ġop": 5761, "Ġ59": 5762, "Ġdisponibile": 5763, "amm": 5764, "ĠPubbli": 5765, "pedale": 5766, "dale": 5767, "ĠWood": 5768, "Ġaperto": 5769, "ĠPosizione": 5770, "All": 5771, "pato": 5772, "fortun": 5773, "Ġalterna": 5774, "Ġsettimane": 5775, "catore": 5776, "Ġassegnato": 5777, "its": 5778, "ĠSvezia": 5779, "Ġvenivano": 5780, "Ġtend": 5781, "ĠUno": 5782, "Ġguada": 5783, "Ġfamoso": 5784, "nova": 5785, "Ġ1930": 5786, "Ġlati": 5787, "Ġdurata": 5788, "Ġalimenta": 5789, "Ġ1949": 5790, "Ġsvolge": 5791, "Ġrichiesta": 5792, "Ġedificio": 5793, "ĠFerrari": 5794, "Ġrealizzata": 5795, "cesi": 5796, "Ġentrambe": 5797, "Ġstandard": 5798, "Ġinvesti": 5799, "rici": 5800, "Ġnego": 5801, "lesia": 5802, "rann": 5803, "Ġcircos": 5804, "empi": 5805, "ĠPolonia": 5806, "ĠHouse": 5807, "Ġmulti": 5808, "ĠUnited": 5809, "tanze": 5810, "Star": 5811, "rida": 5812, "gate": 5813, "aut": 5814, "gresso": 5815, "ositÃł": 5816, "ĠHonda": 5817, "ĠSebasti": 5818, "biettivo": 5819, "gola": 5820, "Ġred": 5821, "CI": 5822, "ae": 5823, "enny": 5824, "Ġpunta": 5825, "dam": 5826, "wan": 5827, "ĠMichel": 5828, "ĠGeografia": 5829, "ĠInghilterra": 5830, "Ġolimpici": 5831, "Ġscrisse": 5832, "ĠRossi": 5833, "Ġcoda": 5834, "ĠBig": 5835, "Ġconsegna": 5836, "ĠErn": 5837, "Ġsostituito": 5838, "ĠCroce": 5839, "ĠRim": 5840, "Ġsarebbero": 5841, "Ġentrare": 5842, "ĠTosc": 5843, "Ġsacerdo": 5844, "mor": 5845, "OR": 5846, "Ġtab": 5847, "ĠOrig": 5848, "ĠSotto": 5849, "sk": 5850, "occa": 5851, "erati": 5852, "ĠGrazie": 5853, "Ġinterpretata": 5854, "Ġspeciali": 5855, "iato": 5856, "agn": 5857, "ĠAtti": 5858, "Ġbos": 5859, "ĠRomano": 5860, "Ġy": 5861, "zzate": 5862, "tum": 5863, "ĠFinale": 5864, "vier": 5865, "Ġscelto": 5866, "gion": 5867, "TV": 5868, "Ġug": 5869, "uzioni": 5870, "edono": 5871, "ĠUS": 5872, "ĠTex": 5873, "Ġquarta": 5874, "ody": 5875, "ĠImp": 5876, "Ġumani": 5877, "Ġles": 5878, "Ġvice": 5879, "ĠFerdin": 5880, "Ġrispettivamente": 5881, "Wh": 5882, "Ġperso": 5883, "1983": 5884, "ridge": 5885, "ĠAssocia": 5886, "orse": 5887, "bina": 5888, "Ġstadio": 5889, "ĠParma": 5890, "ĠWalter": 5891, "Ġattacca": 5892, "ottobre": 5893, "tera": 5894, "amaha": 5895, "ĠverrÃł": 5896, "ĠNazione": 5897, "Ġmaestro": 5898, "ĠPala": 5899, "ĠVin": 5900, "ety": 5901, "ĠLes": 5902, "ĠAri": 5903, "ĠWay": 5904, "Ġpopolari": 5905, "Ġcomplessi": 5906, "ĠCinema": 5907, "Ġavvic": 5908, "Ġfunzioni": 5909, "erina": 5910, "ĠOne": 5911, "asco": 5912, "ĠdÃł": 5913, "Ġossia": 5914, "ĠOpere": 5915, "Ġfid": 5916, "Ġcomposizione": 5917, "Ġmonastero": 5918, "rana": 5919, "astro": 5920, "1982": 5921, "Ġ61": 5922, "her": 5923, "He": 5924, "ĠSS": 5925, "ichi": 5926, "vanta": 5927, "ĠBenedetto": 5928, "Ġsoggetto": 5929, "lon": 5930, "Ġtipi": 5931, "Ġ1928": 5932, "ĠDiretto": 5933, "quila": 5934, "ĠSteph": 5935, "ĠSardegna": 5936, "tain": 5937, "Ġparticolari": 5938, "phi": 5939, "Ġnasce": 5940, "Ġcielo": 5941, "Ġpio": 5942, "ĠTol": 5943, "inge": 5944, "Ris": 5945, "Ġcomincia": 5946, "Ġscontro": 5947, "Gli": 5948, "Ġavendo": 5949, "vy": 5950, "Ġpiazz": 5951, "icoli": 5952, "istan": 5953, "Ġinglesi": 5954, "operazione": 5955, "Ġavrebbero": 5956, "Ġeserci": 5957, "Ġciclo": 5958, "Ste": 5959, "anche": 5960, "lati": 5961, "chese": 5962, "Ġvenendo": 5963, "ĠHot": 5964, "1980": 5965, "ĠLong": 5966, "Ġlingue": 5967, "occo": 5968, "asci": 5969, "Ġpiante": 5970, "thur": 5971, "Ġonore": 5972, "Ã¨re": 5973, "Ġucci": 5974, "Ġmesso": 5975, "Ġdecis": 5976, "Ġsuperiori": 5977, "Ġebre": 5978, "ĠCapit": 5979, "icina": 5980, "Ġcostituita": 5981, "heim": 5982, "Ġepoca": 5983, "ont": 5984, "Ġsingoli": 5985, "ĠMonaco": 5986, "ĠScritto": 5987, "Ġrossa": 5988, "AL": 5989, "Ġdisting": 5990, "ĠKim": 5991, "ĠEug": 5992, "Ġ:*": 5993, "tell": 5994, "ĠPed": 5995, "ziali": 5996, "ĠBatta": 5997, "Ġprotes": 5998, "Ġfile": 5999, "ĠFerro": 6000, "Ġprove": 6001, "ĠRock": 6002, "ock": 6003, "ĠBul": 6004, "Bar": 6005, "tuario": 6006, "ĠEp": 6007, "ĠVerona": 6008, "Ġbanda": 6009, "umo": 6010, "righ": 6011, "Ġpezzi": 6012, "ĠGiuli": 6013, "Ġtrattato": 6014, "altare": 6015, "br": 6016, "tures": 6017, "igi": 6018, "Ġnove": 6019, "Ġsensi": 6020, "ĠLar": 6021, "ĠCris": 6022, "ĠMuseum": 6023, "Ġoland": 6024, "Ġchil": 6025, "Ġatte": 6026, "Ġmanc": 6027, "Ġgaranti": 6028, "Ġlettere": 6029, "ĠpartecipÃ²": 6030, "Ġ1920": 6031, "ĠLondon": 6032, "ĠFab": 6033, "Ġconsecuti": 6034, "Ġequipa": 6035, "Ġpelle": 6036, "Ġ1937": 6037, "Ġpola": 6038, "Ã¶r": 6039, "ĠAra": 6040, "Ġvedere": 6041, "Ġcose": 6042, "ĠFord": 6043, "ĠFonda": 6044, "ĠOtto": 6045, "Ġ1935": 6046, "Ġtradizionale": 6047, "Ġleggenda": 6048, "zano": 6049, "Ġstatua": 6050, "Ġbel": 6051, "Ġcittadini": 6052, "ilan": 6053, "organ": 6054, "mani": 6055, "Ġcompetizioni": 6056, "Ġtraduzione": 6057, "resci": 6058, "ĠAngelo": 6059, "Ġconcerto": 6060, "Ġ1914": 6061, "ecuzione": 6062, "Ġafferma": 6063, "Ġiscri": 6064, "ccato": 6065, "Ġaddi": 6066, "Ġ1927": 6067, "Ġmini": 6068, ")'',": 6069, "ĠStudio": 6070, "Ġperman": 6071, "Ġdifficile": 6072, "ĠNova": 6073, "Ġsegna": 6074, "ĠTony": 6075, "ĠAlbert": 6076, "Ġdefinitivamente": 6077, "Ag": 6078, "Ġresistenza": 6079, "ãĤ": 6080, "Ġconsa": 6081, "Ġ300": 6082, "ort": 6083, "Ġavesse": 6084, "Ġazioni": 6085, "Ġmetropolitana": 6086, "mobili": 6087, "Ġdistribuito": 6088, "ĠLat": 6089, "ĠBow": 6090, "gore": 6091, "ĠCoppe": 6092, "Ġrichia": 6093, "iono": 6094, "Ġ1931": 6095, "Ġsviluppato": 6096, "itale": 6097, "Ġsbar": 6098, "Ġsimbolo": 6099, "celli": 6100, "Ġimperiale": 6101, "ĠMatteo": 6102, "manu": 6103, "ĠJackson": 6104, "mone": 6105, "Ġnipote": 6106, "rore": 6107, "Ġfamili": 6108, "Ġdocumenti": 6109, "icili": 6110, "Ġcosto": 6111, "fal": 6112, "ĠPad": 6113, "ãĥ": 6114, "vince": 6115, "ĠAtleta": 6116, "fran": 6117, "lazioni": 6118, "ĠZe": 6119, "grado": 6120, "Ð½": 6121, "ĠCapp": 6122, "ĠNum": 6123, "ĠChallenger": 6124, "Trama": 6125, "atelli": 6126, "ĠSpa": 6127, "Ġsugli": 6128, "ologo": 6129, "Ġcattedrale": 6130, "Ġconsiderata": 6131, "hu": 6132, "artista": 6133, "archite": 6134, "AM": 6135, "Ġsociali": 6136, "ĠBrescia": 6137, "Ġpossa": 6138, "Ġricevette": 6139, "Ġ1929": 6140, "ĠBad": 6141, "ucci": 6142, "Ġconsiste": 6143, "ĠDalla": 6144, "Ġavanti": 6145, "Ġveg": 6146, "1981": 6147, "Ġgiocare": 6148, "Ġdisposi": 6149, "fera": 6150, "core": 6151, "ĠPalmarÃ¨s": 6152, "ĠCorte": 6153, "ĠTay": 6154, "Ġpoeta": 6155, "ĠCamb": 6156, "Ġdistribuzione": 6157, "otte": 6158, "inese": 6159, "ensa": 6160, "Ġproseg": 6161, "Ġisola": 6162, "Ġobbli": 6163, "bbio": 6164, "Sc": 6165, "kyo": 6166, "ĠPorta": 6167, "Ġgas": 6168, "Ġrisale": 6169, "zionario": 6170, "Ġfatta": 6171, "impor": 6172, "Ġconsenti": 6173, "tologia": 6174, "Ġultime": 6175, "Ġth": 6176, "Ġesord": 6177, "Ġfondazione": 6178, "CD": 6179, "Ġvincitore": 6180, "udd": 6181, "destra": 6182, "Ġ66": 6183, "Ġcelebre": 6184, "ĠtrasferÃ¬": 6185, "Ġbac": 6186, "ser": 6187, "ĠJaco": 6188, "idi": 6189, "pper": 6190, "grafo": 6191, "ĠPl": 6192, "Ġdevono": 6193, "ĠQue": 6194, "Ġsqu": 6195, "Ġfuga": 6196, "Ġ$": 6197, "Ġgiudi": 6198, "Ġfacente": 6199, "ĠLam": 6200, "dizione": 6201, "Ġnemico": 6202, "ĠLife": 6203, "Ġvivere": 6204, "ĠJane": 6205, "pan": 6206, "sey": 6207, "Ġdotato": 6208, "ĠCosta": 6209, "Ġbuon": 6210, ",''": 6211, "Ġleader": 6212, "matico": 6213, "Ġcalc": 6214, "ĠSpe": 6215, "Ġmotivi": 6216, "dim": 6217, "Ġ1933": 6218, "Ġdifferenti": 6219, "Ġultimo": 6220, "ison": 6221, "ju": 6222, "erna": 6223, "amica": 6224, "sco": 6225, "1979": 6226, "attacco": 6227, "ĠTel": 6228, "ĠKu": 6229, "Ġcoper": 6230, "gue": 6231, "toriale": 6232, "utazione": 6233, "ĠClass": 6234, "erio": 6235, "Ġdura": 6236, "Ġ1934": 6237, "ĠBretagna": 6238, "Ġattuale": 6239, "ĠWhite": 6240, "tern": 6241, "uscita": 6242, "ricato": 6243, "ĠYoung": 6244, "Ġcroce": 6245, "Ġvecchia": 6246, "rs": 6247, "Fi": 6248, "OM": 6249, "ĠMartino": 6250, "bate": 6251, "cosa": 6252, "ĠLand": 6253, "ĠâĢĵâĢĵ": 6254, "ĠSempre": 6255, "Ġprofond": 6256, "Ġavvenuta": 6257, "try": 6258, "ceo": 6259, "Ġrid": 6260, "Ġspagnola": 6261, "tine": 6262, "Ġmette": 6263, "ĠAmerican": 6264, "ustin": 6265, "inisce": 6266, "ĠIX": 6267, "Vi": 6268, "ontana": 6269, "Ġsolamente": 6270, "ficati": 6271, "Ġricorda": 6272, "ĠSchool": 6273, "ĠProvincia": 6274, "Ġpoteri": 6275, "Ġ250": 6276, "ĠJeff": 6277, "bole": 6278, "ĠMonda": 6279, "Ġcarro": 6280, "Ġlegam": 6281, "Ġponti": 6282, "Ġimmagini": 6283, "ĠHan": 6284, "John": 6285, "Ġ97": 6286, "Ġger": 6287, "Ġebbero": 6288, "Ġdiffusione": 6289, "Ġtermini": 6290, "Ġcavali": 6291, "Ġreso": 6292, "Ġgigante": 6293, "Ġmarina": 6294, "ĠFrance": 6295, "ĠSemi": 6296, "ĠCarl": 6297, "Ġcivili": 6298, "ret": 6299, "Ġcolpo": 6300, "Ġbritannica": 6301, "ĠMiss": 6302, "Ġcaduta": 6303, "Ġfemmine": 6304, "Ġampli": 6305, "Ġfarma": 6306, "Ġcompa": 6307, "Col": 6308, "gallo": 6309, "ĠHans": 6310, "Ġriceve": 6311, "Ġmorti": 6312, "blo": 6313, "inca": 6314, "irono": 6315, "edendo": 6316, "deva": 6317, "ĠIsland": 6318, "athan": 6319, "omination": 6320, "Ġlivelli": 6321, "Ġcoll": 6322, "ĠGS": 6323, "vor": 6324, "xi": 6325, "Ġavanza": 6326, "tton": 6327, "Les": 6328, "Ġnapole": 6329, "Ġgreca": 6330, "Ġalp": 6331, "Ġgiornalista": 6332, "finali": 6333, "Ġdecisione": 6334, "Ġuscito": 6335, "ĠConf": 6336, "pet": 6337, "Ġsod": 6338, "Ġtrovava": 6339, "ĠtornÃ²": 6340, "mus": 6341, "viera": 6342, "Ġmiglia": 6343, "1976": 6344, "Ġspo": 6345, "Istituto": 6346, "ometri": 6347, "occupa": 6348, "ĠAfrica": 6349, "oman": 6350, "On": 6351, "ĠAla": 6352, "Ġsullo": 6353, "Ġsel": 6354, "ĠInternazionale": 6355, "prÃ¬": 6356, "turali": 6357, "Ġprovinci": 6358, "Sec": 6359, "Ġbasato": 6360, "Club": 6361, "ĠBab": 6362, "aiuto": 6363, "Ġcerti": 6364, "pl": 6365, "Ġcittadina": 6366, "ĠAlbum": 6367, "ĠAT": 6368, "Ġcostante": 6369, "sca": 6370, "ĠGuido": 6371, "Ġscud": 6372, "ĠMet": 6373, "inti": 6374, "ct": 6375, "dium": 6376, "Ġcensi": 6377, "Fil": 6378, "aprile": 6379, "ĠPur": 6380, "door": 6381, "ĠPierre": 6382, "ffer": 6383, "Ġdiscip": 6384, "ning": 6385, "PalmarÃ¨s": 6386, "rum": 6387, "olto": 6388, "Ġcombattimento": 6389, "Ġuccidere": 6390, "Ġintegra": 6391, "ĠVar": 6392, "Ġmalattia": 6393, "Ġparall": 6394, "ĠSti": 6395, "Ġcostruire": 6396, "Ġinteressa": 6397, "Ġaffian": 6398, "ĠâĢĵâĢĵâĢĵâĢĵ": 6399, "istenti": 6400, "ement": 6401, "Ġmacchina": 6402, "MI": 6403, "Ġattivo": 6404, "ĠChicago": 6405, "Ġambienta": 6406, "1978": 6407, "ĠCristi": 6408, "prima": 6409, "Ver": 6410, "Ang": 6411, "bitat": 6412, "Ġrivolta": 6413, "ĠFac": 6414, "Ġdebut": 6415, "hard": 6416, "ĀĀĀĀĀĀĀĀ": 6417, "Ġincontri": 6418, "Ġpertanto": 6419, "ĠCli": 6420, "ĠCorri": 6421, "Ġprotezione": 6422, "Ġminaccia": 6423, "Ġ63": 6424, "Ġcopie": 6425, "board": 6426, "Ġconsiglio": 6427, "Ġfilosofia": 6428, "Ġantichi": 6429, "Ġcambi": 6430, "Ġumano": 6431, "cini": 6432, "egli": 6433, "Ġfuggi": 6434, "urg": 6435, "ĠChristian": 6436, "1975": 6437, "ĠautoritÃł": 6438, "rlo": 6439, "Ġ62": 6440, "rificenze": 6441, "arta": 6442, "quarti": 6443, "mal": 6444, "XI": 6445, "Ġconn": 6446, "Ġscuole": 6447, "Ġritorna": 6448, "ĠCy": 6449, "Ġaus": 6450, "gro": 6451, "Ġcavallo": 6452, "Ġassic": 6453, "bot": 6454, "ĠAustria": 6455, "ĠCarlos": 6456, "intero": 6457, "cienza": 6458, "Ġgene": 6459, "Ġcron": 6460, "Ġresponsabile": 6461, "ĠCostantino": 6462, "Ġnat": 6463, "vita": 6464, "Ġquinto": 6465, "ĠRen": 6466, "lusione": 6467, "Ġacco": 6468, "ĠRan": 6469, "Ġeredi": 6470, "ĠSky": 6471, "ĠJohann": 6472, "gon": 6473, "Ġdotto": 6474, "Ġricostr": 6475, "ĠDisco": 6476, "viÄį": 6477, "andolo": 6478, "tarsi": 6479, "Ġpartenza": 6480, "vra": 6481, "Ġpresti": 6482, "inariamente": 6483, "ĠVenne": 6484, "Sal": 6485, "Ġprodotta": 6486, "ĠHay": 6487, "ĠPopo": 6488, "Ġnegati": 6489, "Ġpasse": 6490, "ĠEditore": 6491, "Ġmetodo": 6492, "ressa": 6493, "interesse": 6494, "cido": 6495, "Ġtempio": 6496, "ĠColom": 6497, "ĠTemp": 6498, "Ġsorge": 6499, "Ġstrade": 6500, "Ġpazi": 6501, "Gran": 6502, "Ġtelevisivo": 6503, "Ġraffig": 6504, "Ġacquisi": 6505, "ĠFootball": 6506, "Ġnulla": 6507, "andata": 6508, "usura": 6509, "Ġconver": 6510, "Ġraffigura": 6511, "Ġ1924": 6512, "Ġformula": 6513, "Ġrecupera": 6514, "ĠHigh": 6515, "Ġfigure": 6516, "1973": 6517, "Ã©s": 6518, "ologie": 6519, "inv": 6520, "Ġelettrica": 6521, "1972": 6522, "Ġlasciare": 6523, "Ġsved": 6524, "ormente": 6525, "Ġspettacolo": 6526, "1977": 6527, "Ġdemografica": 6528, "Andre": 6529, "Dire": 6530, "atre": 6531, "ĠTorneo": 6532, "ecca": 6533, "Ã©n": 6534, "1974": 6535, "arla": 6536, "Ġdiscend": 6537, "Ġmateriali": 6538, "Ġnut": 6539, "Ġosta": 6540, "Ġgiu": 6541, "alisti": 6542, "ĠBut": 6543, "elim": 6544, "Ġdomina": 6545, "Ġ1918": 6546, "Ġcarta": 6547, "gano": 6548, "Ġnobili": 6549, "Ġritiro": 6550, "Ġusata": 6551, "Ġ1912": 6552, "ĠAmm": 6553, "Ġimmediatamente": 6554, "Ġnumeri": 6555, "Ġpasso": 6556, "Ġinnamo": 6557, "ĠSolo": 6558, "ĠUEFA": 6559, "Ġinteramente": 6560, "Ġfel": 6561, "Ġconosciuta": 6562, "Mi": 6563, "Mon": 6564, "gliato": 6565, "dows": 6566, "Ġteatrale": 6567, "wis": 6568, "Ġutilizzati": 6569, "ĠTime": 6570, "Ġpolitici": 6571, "vamento": 6572, "ĠFur": 6573, "Ġmediante": 6574, "Ġmio": 6575, "Ġconcorr": 6576, "ĠToscana": 6577, "gliano": 6578, "ĠQueste": 6579, "ĠMedio": 6580, "back": 6581, "1970": 6582, "tio": 6583, "Sin": 6584, "ĠlasciÃ²": 6585, "Ġcanta": 6586, "incontro": 6587, "Ġdisposizione": 6588, "Ġillustra": 6589, "agosto": 6590, "Ġidro": 6591, "Ġingegn": 6592, "diera": 6593, "Ġcora": 6594, "umin": 6595, "ĠVec": 6596, "ĠVel": 6597, "Ġracconto": 6598, "Ġ120": 6599, "Fa": 6600, "ĠJohnson": 6601, "lora": 6602, "gua": 6603, "Ġfabbrica": 6604, "EL": 6605, "ĠSche": 6606, "Ġgiochi": 6607, "endolo": 6608, "At": 6609, "ĠRobin": 6610, "Ġrosa": 6611, "Ġsceneggiatura": 6612, "ĠPonte": 6613, "Ġmass": 6614, "chel": 6615, "Ġrinven": 6616, "ĠVideo": 6617, "Ġstrumento": 6618, "Ġmerc": 6619, "Ġsil": 6620, "Ġ1919": 6621, "Ġappre": 6622, "Ġgiovan": 6623, "Ġ1932": 6624, "late": 6625, "ĠNic": 6626, "immagine": 6627, "vello": 6628, "Ġvoti": 6629, "ĠTam": 6630, "imitero": 6631, "Ġgem": 6632, "Ġposizioni": 6633, "Ġdiventato": 6634, "Ġvisione": 6635, "atten": 6636, "ATP": 6637, "Statistiche": 6638, "Ġpossesso": 6639, "Ex": 6640, "Ġce": 6641, "Ġcori": 6642, "gher": 6643, "ĠWill": 6644, "ĠDun": 6645, "Ġassum": 6646, "Ġpoche": 6647, "fono": 6648, "Ġpure": 6649, "ĠKir": 6650, "rik": 6651, "ĠMaurizio": 6652, "Ġsolista": 6653, "ĠKarl": 6654, "1968": 6655, "Antonio": 6656, "Ġabbas": 6657, "Ġgenera": 6658, "mamente": 6659, "ĠZel": 6660, "ĠCoun": 6661, "elles": 6662, "Ġlasciato": 6663, "ĠCiÃ²": 6664, "Ġprofession": 6665, "tani": 6666, "Ġprofessore": 6667, "ĠPub": 6668, "PS": 6669, "Ġgiustizia": 6670, "yle": 6671, "ĠFormazione": 6672, "rosso": 6673, "Ġfortun": 6674, "ĠBest": 6675, "Ġcentri": 6676, "omp": 6677, "vet": 6678, "Ġvolumi": 6679, "ĠUm": 6680, "Ġpartecipare": 6681, "ĠSavo": 6682, "Ġattacc": 6683, "Ġpista": 6684, "ĠAma": 6685, "bul": 6686, "Ġincor": 6687, "ĠMassa": 6688, "ĠChristo": 6689, "alizzata": 6690, "Ġposteriore": 6691, "putati": 6692, "ĠCarat": 6693, "Ġcusto": 6694, "ĠRiccardo": 6695, "ragon": 6696, "Ġ1926": 6697, "oggi": 6698, "ĠLaw": 6699, "ĠlÃ¬": 6700, "Ġcompito": 6701, "ĠVittoria": 6702, "Ġeconomica": 6703, "ĠDol": 6704, "Ġunica": 6705, "Ġdiam": 6706, "Ġsemplicemente": 6707, "Ġdeciso": 6708, "Ñģ": 6709, "Ġcarico": 6710, "essioni": 6711, "ery": 6712, "origine": 6713, "ĠPrix": 6714, "CL": 6715, "ĠBrian": 6716, "chie": 6717, "Ġdovette": 6718, "Ġconsul": 6719, "Ġamericana": 6720, "ĠMondadori": 6721, "Ġprotagonisti": 6722, "ennale": 6723, "fis": 6724, "Ġtemperatura": 6725, "Ġgiallo": 6726, "rca": 6727, "Ġfeste": 6728, "ring": 6729, "ĠDVD": 6730, "ĠAlexander": 6731, "rian": 6732, "Ġproposta": 6733, "Ġ68": 6734, "ttamente": 6735, "Ġbelli": 6736, "Ġimportanza": 6737, "Ġpressione": 6738, "Ġtratti": 6739, "1969": 6740, "My": 6741, "incitori": 6742, "azzurro": 6743, "Ġaccordo": 6744, "Ġtrasmessa": 6745, "cus": 6746, "ges": 6747, "Ġstorie": 6748, "ĠVita": 6749, "cellona": 6750, "1971": 6751, "Ġpoe": 6752, "mond": 6753, "Ġscio": 6754, "ĠQuest": 6755, "Ġsingolare": 6756, "pal": 6757, "ĠRegg": 6758, "Ġvincendo": 6759, "ĠLinea": 6760, "Ġ1913": 6761, "Ġsvolta": 6762, "ĠPiazza": 6763, "utilizzo": 6764, "ĠSho": 6765, "Ġspia": 6766, "Ġsegue": 6767, "ĠFilmografia": 6768, "Ġsl": 6769, "lack": 6770, "Ġentro": 6771, "Ġcontrario": 6772, "Ġ1915": 6773, "1960": 6774, "Ġcorrente": 6775, "cel": 6776, "ulare": 6777, "bato": 6778, "1967": 6779, "ĠMont": 6780, "Ġfior": 6781, "ĠPon": 6782, "Ġchiaro": 6783, "ark": 6784, "viste": 6785, "Ġdominio": 6786, "Ġscritti": 6787, "Ġdon": 6788, "grafici": 6789, "Ġregolare": 6790, "ĠLas": 6791, "ĠAndrÃ©": 6792, "\"''": 6793, "Ã´": 6794, "Ġtelevisione": 6795, "Ġrischio": 6796, "ĠFormula": 6797, "Ġdinastia": 6798, "Ġ69": 6799, "geni": 6800, "Ġmuo": 6801, "\"),": 6802, "ite": 6803, "itud": 6804, "Ġracconta": 6805, "Ġfl": 6806, "ĠLaur": 6807, "Ġflotta": 6808, "ĠShow": 6809, "Ġregime": 6810, "Ġpart": 6811, "ĠVergine": 6812, "Ġdecreto": 6813, "Ġdiplom": 6814, "Ġvettura": 6815, "Ġfred": 6816, "Ġ76": 6817, "Ġvincere": 6818, "Ġvent": 6819, "Ġesce": 6820, "ĠChampions": 6821, "Ġbelle": 6822, "Ġsesto": 6823, "ĠSette": 6824, "Ġnemici": 6825, "gene": 6826, "Ġiniziale": 6827, "Ġscoperto": 6828, "Reg": 6829, "EN": 6830, "ĠPisa": 6831, "inten": 6832, "Ġpotente": 6833, "ĠProf": 6834, "itÃ²": 6835, "Ġsorta": 6836, "ĠRaffa": 6837, "ramente": 6838, "Ġmedievale": 6839, "Ġveli": 6840, "ĠDiego": 6841, "Ã§o": 6842, "tene": 6843, "ĠOgni": 6844, "Ġcompositore": 6845, "Ġannunciato": 6846, "rit": 6847, "ĠMay": 6848, "ĠReal": 6849, "Ã¼n": 6850, "gere": 6851, "Ġpl": 6852, "Ġshow": 6853, "Ġ1923": 6854, "Ġ::": 6855, "Ġbatter": 6856, "gy": 6857, "ĠMoto": 6858, "Ġscrivere": 6859, "Camp": 6860, "Ġcontribu": 6861, "ĠTaylor": 6862, "ĠCenter": 6863, "ĠLombardia": 6864, "kins": 6865, "Ġadd": 6866, "entitÃł": 6867, "Ġpremi": 6868, "Ġcomputer": 6869, "andra": 6870, "ĠnecessitÃł": 6871, "Ġmov": 6872, "Ġepisco": 6873, "ĠVirgin": 6874, "lex": 6875, "apertura": 6876, "Ġ67": 6877, "Ġcensimento": 6878, "etano": 6879, "bby": 6880, "Ġvanno": 6881, "Ġabbastanza": 6882, "Ġindipendente": 6883, "Ġleggera": 6884, "Ġmaggioranza": 6885, "remo": 6886, "ect": 6887, "Ġfanteria": 6888, "Ġlegato": 6889, "Ġchiama": 6890, "ĠEmanu": 6891, "Ġriferi": 6892, "Ġcerim": 6893, "ĠLazio": 6894, "right": 6895, "Ġrinno": 6896, "ĠStreet": 6897, "tretti": 6898, "ĠCass": 6899, "Ġaereo": 6900, "ĠSalvatore": 6901, "Ġpreferi": 6902, "Ġ1925": 6903, "ĠSir": 6904, "Ġghiaccio": 6905, "ualmente": 6906, "Ġdefinito": 6907, "Ġolio": 6908, "Ġcommercio": 6909, "Ġson": 6910, "ĠWat": 6911, "Ġspedizione": 6912, "Ġsoggetti": 6913, "ĠDia": 6914, "utore": 6915, "Ġdigitale": 6916, "ĠBiblioteca": 6917, "Ġenergia": 6918, "now": 6919, "beri": 6920, "Ġchilometri": 6921, "Ġsuccessive": 6922, "Ġprosp": 6923, "Ġottenendo": 6924, "ftware": 6925, "ĠPhil": 6926, "Ġconfini": 6927, "Ġmanifestazione": 6928, "ĠLuc": 6929, "Ġdomen": 6930, "ĠLaura": 6931, "ines": 6932, "Ġsportivo": 6933, "ĠNapole": 6934, "Ġbianca": 6935, "Ġaerei": 6936, "icano": 6937, "ĠSteven": 6938, "damente": 6939, "Ġ---": 6940, "har": 6941, "ĠDavis": 6942, "Ġsegreto": 6943, "Ġ...": 6944, "ambiente": 6945, "Ġclima": 6946, "Ġstudenti": 6947, "Lu": 6948, "bell": 6949, "ĠCalabria": 6950, "Ġcard": 6951, "ĠNuovo": 6952, "ĠScuola": 6953, "wski": 6954, "Ġosc": 6955, "Ġ72": 6956, "Ġporte": 6957, "tipo": 6958, "1965": 6959, "Ġsur": 6960, "ĠCV": 6961, "tand": 6962, "Ġstri": 6963, "ovest": 6964, "lando": 6965, "Ġtrovato": 6966, "Ġsce": 6967, "Ha": 6968, "Ġcolp": 6969, "ĠcontinuÃ²": 6970, "Ġdando": 6971, "nei": 6972, "ĠÃ¨": 6973, "rente": 6974, "turi": 6975, "Ġraggiunse": 6976, "ĠLive": 6977, "Ãª": 6978, "Ġutilizzare": 6979, "Ġdanne": 6980, "onnello": 6981, "Ġdisegno": 6982, "ĠBis": 6983, "Ġmantenere": 6984, "Ġscor": 6985, "Ġ1911": 6986, "Ġpiatta": 6987, "Ġumana": 6988, "vazione": 6989, "2020": 6990, "Ġdichiarato": 6991, "Ġsoluzione": 6992, "ockey": 6993, "ĠFior": 6994, "ĠveritÃł": 6995, "1966": 6996, "Î±": 6997, "Ġsignificato": 6998, "ĠFerdinando": 6999, "vocato": 7000, "ĠCic": 7001, "Ġgironi": 7002, "fficiente": 7003, "ĠMinistero": 7004, "Ġinteress": 7005, "ĠContea": 7006, "Ġclassica": 7007, "Ġdisputato": 7008, "ĠVers": 7009, "Ġfonte": 7010, "azioni": 7011, "sy": 7012, "ĠSom": 7013, "Ġsecondi": 7014, "venzione": 7015, "Ġmontagna": 7016, "ĠPen": 7017, "Ġbeni": 7018, "Me": 7019, "acques": 7020, "Ġaggiun": 7021, "Ġinedi": 7022, "1961": 7023, "Ter": 7024, "ĠAni": 7025, "lamo": 7026, "gente": 7027, "xa": 7028, "Ġcanad": 7029, "Ġbattuta": 7030, "Ġeuro": 7031, "Ġtrenta": 7032, "ĠNick": 7033, "ĠtribÃ¹": 7034, "ĠvarietÃł": 7035, "ĠKra": 7036, "Ġprevalentemente": 7037, "?''": 7038, "bol": 7039, "Produzione": 7040, "ĠBran": 7041, "vre": 7042, "varono": 7043, "Ġinserito": 7044, "ĠVescovo": 7045, "ĠandÃ²": 7046, "Roma": 7047, "ĠmodalitÃł": 7048, "ĠOut": 7049, "Africa": 7050, "Si": 7051, "Ġmerito": 7052, "Ġannuncia": 7053, "ĠGard": 7054, "ussioni": 7055, "fro": 7056, "pus": 7057, "tors": 7058, "ĠDoug": 7059, "aldo": 7060, "Ġstanza": 7061, "Ġcostu": 7062, "leg": 7063, "ĠAlpi": 7064, "Ġospita": 7065, "Ġtest": 7066, "Ġ1922": 7067, "resse": 7068, "gheria": 7069, "ĠIndia": 7070, "Ġfoglie": 7071, "Ġfec": 7072, "Ġultima": 7073, "chiar": 7074, "alem": 7075, "Descrizione": 7076, "Ġfumetti": 7077, "Ġavvenne": 7078, "ordano": 7079, "MS": 7080, "utato": 7081, "ĠPom": 7082, "iterraneo": 7083, "ĠMir": 7084, "Ġriguardo": 7085, "Ġrisposta": 7086, "Ġstemma": 7087, "ĠTed": 7088, "udere": 7089, "letta": 7090, "ĠPortogallo": 7091, "vest": 7092, "Ġpossiede": 7093, "ttavi": 7094, "Ġconcerti": 7095, "Ġprecedenza": 7096, "1959": 7097, "Ġaperta": 7098, "Ġrit": 7099, "aspetto": 7100, ".-": 7101, "Ġconcorso": 7102, "Ġlancio": 7103, "esistenza": 7104, "Ġregistrato": 7105, "ĠCalcio": 7106, "Ġsolle": 7107, "1964": 7108, "ĠGianni": 7109, "Ġcamera": 7110, "Ġleggi": 7111, "ĠDam": 7112, "ĠIns": 7113, "ĠEric": 7114, "Ġattacchi": 7115, "ĠCampo": 7116, "ales": 7117, "Ġ1917": 7118, "Ġconvento": 7119, "ĠFabri": 7120, "landia": 7121, "Ġlasciando": 7122, "Ġantiche": 7123, "Ġsolito": 7124, "inga": 7125, "geno": 7126, "Ġottanta": 7127, "Ġoper": 7128, "unda": 7129, "stici": 7130, "Ġtrans": 7131, "lassifiche": 7132, "Ġ1921": 7133, "Ġnobile": 7134, "ĠImma": 7135, "Ġdistr": 7136, "Ġsuon": 7137, "Ġstatale": 7138, "ÑĤ": 7139, "row": 7140, "acca": 7141, "Ġesclusivamente": 7142, "Ġgiung": 7143, "ĠWolf": 7144, "Ġsettanta": 7145, "ĠBlu": 7146, "Ġcoord": 7147, "Ġnata": 7148, "Ġoccas": 7149, "Ġdisegna": 7150, "Ġmandato": 7151, "Ġvendu": 7152, "elly": 7153, "tire": 7154, "vante": 7155, "ĠThi": 7156, "Ġassass": 7157, "uer": 7158, "ansione": 7159, "onico": 7160, "work": 7161, "ĠOscar": 7162, "lese": 7163, "Ġsanti": 7164, "Ġequ": 7165, "teriormente": 7166, "ĠTokyo": 7167, "Ġassoluta": 7168, "Ġinsedia": 7169, "Ġpensiero": 7170, "ĠÄĮ": 7171, "Ġvittime": 7172, "RA": 7173, "Ġscamb": 7174, "Ð¾Ð": 7175, "Ġazi": 7176, "ĠKat": 7177, "ĠGod": 7178, "cina": 7179, "Ġnaturali": 7180, "Ġcoltiva": 7181, "Ġtenuto": 7182, "Opere": 7183, "Ġperse": 7184, "Ġbrasili": 7185, "ĠCru": 7186, "Ġnera": 7187, "Ġpieno": 7188, "gamo": 7189, "tratti": 7190, "amico": 7191, "Ġpiloti": 7192, "Ge": 7193, "Ġpermesso": 7194, "Ġinclude": 7195, "Ger": 7196, "ĠRay": 7197, "Ġnotizia": 7198, "ĠvolontÃł": 7199, "rima": 7200, "1963": 7201, "alom": 7202, "ĠAuto": 7203, "ucc": 7204, "ĠAcc": 7205, "Super": 7206, "lop": 7207, "Ġdiventando": 7208, "Ġfol": 7209, "ĠCSS": 7210, "Ġaccus": 7211, "ĠCollege": 7212, "urale": 7213, "ĠDemocratico": 7214, "Ġcaratterizzato": 7215, "Ġ77": 7216, "Ġsoste": 7217, "Ġappo": 7218, "ffo": 7219, "ĠArthur": 7220, "ĠSiena": 7221, "ĠLeonardo": 7222, "truttura": 7223, "wi": 7224, "ĠarrivÃ²": 7225, "icato": 7226, "Ġcompagno": 7227, "Ġinflu": 7228, "ĠIng": 7229, "Ġvicina": 7230, "ĠHarry": 7231, "Ġconcetto": 7232, "Ġfortemente": 7233, "Ġpom": 7234, "Ġpresa": 7235, "ĠLec": 7236, "1962": 7237, "Ġdisa": 7238, "Ġscal": 7239, "ĠHard": 7240, "ns": 7241, "Ġmezzi": 7242, "Ê¿": 7243, "Die": 7244, "Ġpala": 7245, "fero": 7246, "versione": 7247, "Ġracconti": 7248, "ĠRub": 7249, "Ġster": 7250, "ĠLang": 7251, "Ġferroviaria": 7252, "Ġaccesso": 7253, "Ġfram": 7254, "Ġpericol": 7255, "ĠAeroporto": 7256, "Ġsorg": 7257, "ĠLeone": 7258, "ĠNato": 7259, "ffe": 7260, "ĠAsia": 7261, "ĠRoger": 7262, "issario": 7263, "Ġsovrano": 7264, "ĠBoy": 7265, "Ġcollezione": 7266, "Ġcomunicazione": 7267, "chester": 7268, "ĠÂ°": 7269, "essero": 7270, "ĠCaratter": 7271, "ĠInfine": 7272, "ĠCompeti": 7273, "Ġnormale": 7274, "ĠInc": 7275, "Go": 7276, "__": 7277, "fonso": 7278, "Ġ101": 7279, "1958": 7280, "Ġcoloro": 7281, "ĠVIII": 7282, "Ġfirma": 7283, "á¹": 7284, "Ġquestione": 7285, "Ġclassificata": 7286, "Ġregis": 7287, "lash": 7288, "Ġmira": 7289, "Ġado": 7290, "llo": 7291, "Ġ1000": 7292, "Ġcerta": 7293, "IC": 7294, "ĠParco": 7295, "ĠAnni": 7296, "Ġdocumento": 7297, "Ġmunici": 7298, "Ġvideogioco": 7299, "ĠcominciÃ²": 7300, "Ġ71": 7301, "alis": 7302, "Ġricerche": 7303, "Ġped": 7304, "Ġrelazioni": 7305, "ĠLord": 7306, "Ġ1910": 7307, "ĠCatania": 7308, "Risul": 7309, "ĠBand": 7310, "moto": 7311, "conom": 7312, "ĠUp": 7313, "Ġrap": 7314, "Ġtrasferisce": 7315, "Ġappartenenti": 7316, "Ġterres": 7317, "ĠSede": 7318, "ĠDistribuzione": 7319, "vina": 7320, "Ġdesig": 7321, "Ġreligione": 7322, "Ġindustriale": 7323, "Ġvantaggio": 7324, "Ġcaratteristica": 7325, "ĠPes": 7326, "Ġragione": 7327, "ĠExp": 7328, "ĠInfatti": 7329, "low": 7330, "Ġmanga": 7331, "omonimo": 7332, "ĠZo": 7333, "iores": 7334, "ĠAre": 7335, "Ġmole": 7336, "Ġascol": 7337, "ĠGalleria": 7338, "Ġdichiar": 7339, "Ġimpi": 7340, "Ġattes": 7341, "Ġinstal": 7342, "ĠCard": 7343, "ĠEar": 7344, "ĠTomm": 7345, "Ġrimasto": 7346, "ĠPiÃ¹": 7347, "Ġbru": 7348, "incarico": 7349, "ĠBarcellona": 7350, "fri": 7351, "Ġcorona": 7352, "ĠClar": 7353, "ĠPiero": 7354, "ĠTutti": 7355, "Ġcondizione": 7356, "ĠKevin": 7357, "ONE": 7358, "inda": 7359, "Ġportata": 7360, "Ġcompagni": 7361, "Ġuscita": 7362, "Ġrilievo": 7363, "Ġlaterali": 7364, "Ġfinali": 7365, "ĠNove": 7366, "Ġporti": 7367, "aux": 7368, "Ġuniversi": 7369, "Ġnucleo": 7370, "Ġpesante": 7371, "Ġcompet": 7372, "ugi": 7373, "Ġtalvolta": 7374, "Ġprevede": 7375, "ĠLy": 7376, "ciata": 7377, "Ġrussa": 7378, "Ġweb": 7379, "orme": 7380, "rison": 7381, "ĠCaterina": 7382, "Prima": 7383, "estri": 7384, "uirono": 7385, "eriti": 7386, "ĠWomen": 7387, "Ġsessanta": 7388, "guerra": 7389, "Ġesse": 7390, "inse": 7391, "Ġespon": 7392, "ĠBag": 7393, "ĠPiemonte": 7394, "lievi": 7395, "uova": 7396, "ĠIsra": 7397, "ĠPatrick": 7398, "ffico": 7399, "ĠLiga": 7400, "ĠModena": 7401, "osla": 7402, "ules": 7403, "Ġminor": 7404, "Ġebrei": 7405, "Ġpunteggio": 7406, "Ġrappresentato": 7407, "cid": 7408, "1957": 7409, "Ġsoprann": 7410, "Ġtrad": 7411, "Ġpubblici": 7412, "Ġmetal": 7413, "ziani": 7414, "Ġcrescita": 7415, "Ġquota": 7416, "ilton": 7417, "Ġaiuto": 7418, "ĠCec": 7419, "ĠSk": 7420, "Ġsuono": 7421, "Ġavversa": 7422, "ĠWo": 7423, "Ġ*''''''": 7424, "ĠChampionships": 7425, "irsi": 7426, "corsi": 7427, "Ġvole": 7428, "guardo": 7429, "ampi": 7430, "very": 7431, "Ġdichiara": 7432, "Ġprincipio": 7433, "biti": 7434, "ĠRoman": 7435, "feo": 7436, "Ġchiave": 7437, "xt": 7438, "ĠHal": 7439, "ĠMonti": 7440, "Ġmuto": 7441, "Ġprogrammi": 7442, "ĠNet": 7443, "ĠYour": 7444, "ĠCho": 7445, "Ġperi": 7446, "ĠCosÃ¬": 7447, "ĠPD": 7448, "ĠOra": 7449, "ĠAbb": 7450, "ĠSociety": 7451, "ĠOnorificenze": 7452, "beth": 7453, "Ġevento": 7454, "VI": 7455, "emblea": 7456, "Ġeconomico": 7457, "Ġaffreschi": 7458, "Ġmari": 7459, "Ġsopravvis": 7460, "cazioni": 7461, "Ġalti": 7462, "400": 7463, "Ġgovernatore": 7464, "Ġsemifinale": 7465, "Ġmusicisti": 7466, "Ġcontenuto": 7467, "âĢĿ.": 7468, "ĠDC": 7469, "Ġcolonne": 7470, "ĠMare": 7471, "Ġfeder": 7472, "Ġtelevisivi": 7473, "Ġ78": 7474, "Ġminiserie": 7475, "Ġho": 7476, "Ġpec": 7477, "Ġnaz": 7478, "Ġcaratterizzata": 7479, "ÃĹ": 7480, "altezza": 7481, "ĠLis": 7482, "Ġfissa": 7483, "veva": 7484, "ssero": 7485, "rama": 7486, "logia": 7487, "Ġpoesia": 7488, "estern": 7489, "ĠGood": 7490, "oney": 7491, "rittura": 7492, "Ġdiverso": 7493, "Ġvul": 7494, "Ġaccanto": 7495, "Ġcomprend": 7496, "Ġmarmo": 7497, "ologiche": 7498, "))": 7499, "hel": 7500, "Ġfidanza": 7501, "Ġdipartimento": 7502, "fino": 7503, "ĠCompag": 7504, "ilota": 7505, "oltÃł": 7506, "ĠBorg": 7507, "gers": 7508, "Ġprestigio": 7509, "Ġformata": 7510, "evento": 7511, "dge": 7512, "AF": 7513, "Ġcongi": 7514, "ĠElena": 7515, "Ġalcuna": 7516, "Ġdimin": 7517, "eve": 7518, "inistro": 7519, "ĠTras": 7520, "ĠLewis": 7521, "Ġela": 7522, "uten": 7523, "restling": 7524, "Ġama": 7525, "RI": 7526, "Ġpromosso": 7527, "Ġaggiud": 7528, "ional": 7529, "ortun": 7530, "ĠAnth": 7531, "Ġeven": 7532, "Ġgiovanili": 7533, "dt": 7534, "ulli": 7535, "occasione": 7536, "ĠPhili": 7537, "Ġx": 7538, "Ġsalute": 7539, "Ġut": 7540, "Ġ1916": 7541, "centi": 7542, "ÃŁ": 7543, "Ġfondatore": 7544, "Ġnessuno": 7545, "Ġvescovi": 7546, "Ã¡s": 7547, "Ġtenuta": 7548, "Ġvendita": 7549, "Ġsovra": 7550, "ĠRegione": 7551, "ĠTabellone": 7552, "Ġsent": 7553, "ĠFried": 7554, "Ġmia": 7555, "Ġprefer": 7556, "ĠForce": 7557, "andro": 7558, "Ġ('''": 7559, "ĠReggio": 7560, "Ġturi": 7561, "gani": 7562, "ĠHolly": 7563, "Ġregionali": 7564, "Ġcompare": 7565, "Ġinga": 7566, "Ġcanto": 7567, "Ġriguardanti": 7568, "AI": 7569, ".\"": 7570, "**": 7571, "Ġsigla": 7572, "Ġmarcia": 7573, "pecie": 7574, "imarca": 7575, "ĠTec": 7576, "erona": 7577, "Ġcombattere": 7578, "Ġavvia": 7579, "ĠPun": 7580, "bale": 7581, "ida": 7582, "mica": 7583, "Ġguerri": 7584, "pher": 7585, "Ġusare": 7586, "ĠVla": 7587, "istere": 7588, "visa": 7589, "Ġaspetto": 7590, "',": 7591, "Î¿": 7592, "SP": 7593, "Mus": 7594, "Ġtransi": 7595, "Ġ02": 7596, "bbi": 7597, "coni": 7598, "ĠSpettatori": 7599, "ĠGas": 7600, "zar": 7601, "ĠAca": 7602, "ĠSavoia": 7603, "Ġmancanza": 7604, "ĠAttualmente": 7605, "Ġsostegno": 7606, "Ġcondotto": 7607, "tics": 7608, "Gre": 7609, "lag": 7610, "Ġmettere": 7611, "Ġesperienza": 7612, ".),": 7613, "Ġsvizz": 7614, "Ġcore": 7615, "ĠPaci": 7616, "PG": 7617, "Ġfenomeno": 7618, "ert": 7619, "chivio": 7620, "lyn": 7621, "ĠMeda": 7622, "Ġsorp": 7623, "ĠSovie": 7624, "Ġreligioso": 7625, "ĠGrego": 7626, "ellenza": 7627, "ĠSimone": 7628, "ĠGh": 7629, "ĠLeo": 7630, "Ġproveniente": 7631, "ĠEmilia": 7632, "Ġappunto": 7633, "Ġaffrontare": 7634, "Ab": 7635, "ĠCommissione": 7636, "Ġpotuto": 7637, "Oro": 7638, "Ġcen": 7639, "gamento": 7640, "ĠTan": 7641, "Ġsfrut": 7642, "Ġfondamentale": 7643, "grafiche": 7644, "ĠMedia": 7645, "Ġdista": 7646, "zen": 7647, "sai": 7648, "monia": 7649, "ĠpubblicÃ²": 7650, "tec": 7651, "Ġcl": 7652, "umentale": 7653, "Ġmand": 7654, "Fo": 7655, "Ġ74": 7656, "Ġsto": 7657, "illes": 7658, "Ġsegretario": 7659, "Ġvinta": 7660, "Ġmonumento": 7661, "Ġadatta": 7662, "Ġprincipi": 7663, "gnano": 7664, "Ġsport": 7665, "ĠNov": 7666, "Ġsfida": 7667, "titudine": 7668, "Ġordini": 7669, "Austria": 7670, "Ġspec": 7671, "ĠAnderson": 7672, "ĠWilson": 7673, "ĠTexas": 7674, "tein": 7675, "ĠEmanuele": 7676, "emia": 7677, "Ġlinguaggio": 7678, "ĠVeneto": 7679, "Ġcug": 7680, "Ġesordi": 7681, "urÃ²": 7682, "erano": 7683, "Ġarrivare": 7684, "ystem": 7685, "Ġ73": 7686, "ĠBlue": 7687, "Ġrifiuta": 7688, "Ġraccoglie": 7689, "Ġnar": 7690, "tesse": 7691, "Ġamericani": 7692, "UR": 7693, "Ġsuccessione": 7694, "Ġcorsi": 7695, "onio": 7696, "ĠTen": 7697, "ÃĪ": 7698, "Ġrealizzare": 7699, "Ġcomportamento": 7700, "Ġessersi": 7701, "Ġgal": 7702, "\").": 7703, "ory": 7704, "ller": 7705, "Ġvertic": 7706, "Ġcontemporanea": 7707, "ĠPoco": 7708, "Ġletto": 7709, "ĠSezione": 7710, "bas": 7711, "onto": 7712, "Ġdeleg": 7713, "Ġcoro": 7714, "Ġarte": 7715, "nano": 7716, "oper": 7717, "Ġfaceva": 7718, "Ġrecente": 7719, "Ġperdita": 7720, "ardini": 7721, "Ġcompar": 7722, "Tri": 7723, "Ġspiri": 7724, "ĠMargh": 7725, "ĠMarino": 7726, "ĠCB": 7727, "ĠRin": 7728, "Ġindossa": 7729, "cona": 7730, "Ġanteriore": 7731, "lusso": 7732, "Filmografia": 7733, "Ġpubblicati": 7734, "ellino": 7735, "Ġfinalmente": 7736, "oshi": 7737, "Ġspalle": 7738, "Inghilterra": 7739, "Ġafric": 7740, "Ġparlam": 7741, "inamento": 7742, "Ġner": 7743, "ĠHy": 7744, "1956": 7745, "Ġpellicola": 7746, "Ġsvedese": 7747, "Ġviss": 7748, "ĠArn": 7749, "Ġfacilmente": 7750, "Ġtemi": 7751, "canestro": 7752, "ĠDip": 7753, "Ġdemoli": 7754, "Ġneo": 7755, "ĠEdo": 7756, "Ġpens": 7757, "Ġvoci": 7758, "Mil": 7759, "ttato": 7760, "lÃ©": 7761, "Im": 7762, "illy": 7763, "ĠServi": 7764, "ĠConfer": 7765, "Ba": 7766, "ĠpersonalitÃł": 7767, "rendi": 7768, "Ġregola": 7769, "ET": 7770, "Ġnorma": 7771, "Ġutilizzando": 7772, "ĠMaggiore": 7773, "ĠPit": 7774, "ĠGame": 7775, "ĠElisab": 7776, "1955": 7777, "Ġaddirittura": 7778, "enzio": 7779, "Ġcercare": 7780, "ulso": 7781, "Ġripet": 7782, "iat": 7783, "ugosla": 7784, "Ġprimavera": 7785, "rendere": 7786, "inelli": 7787, "Ġregistrazione": 7788, "hai": 7789, "vegia": 7790, "grafie": 7791, "perte": 7792, "test": 7793, "Ġprevisto": 7794, "Ġpost": 7795, "Ġdotata": 7796, "ds": 7797, "hail": 7798, "ĠFrancis": 7799, "Ġ1900": 7800, "Ġportale": 7801, "Ġmateria": 7802, "ĠCentrale": 7803, "varia": 7804, "Ġtrattamento": 7805, "ĠAlan": 7806, "Cas": 7807, "glieria": 7808, "Ġoriginariamente": 7809, "Ġampia": 7810, "Ġattiva": 7811, "ĠMala": 7812, "bach": 7813, "Ġreci": 7814, "Ġrimas": 7815, "Ġincidente": 7816, "ology": 7817, "Ġrestauro": 7818, "Ġpresentano": 7819, "Gruppo": 7820, "Ġdesider": 7821, "ĠSovietica": 7822, "ĠMart": 7823, "Ġinterpreta": 7824, "Ġfede": 7825, "Ġsolitamente": 7826, "ĠFox": 7827, "EC": 7828, "impero": 7829, "Ġconseg": 7830, "Ġspic": 7831, "ĠCaratteristiche": 7832, "Ġsindaco": 7833, "Ġstili": 7834, "ĠGoverno": 7835, "ĠEss": 7836, "ĠBry": 7837, "ĠVe": 7838, "dovico": 7839, "mel": 7840, "Ġgenerazione": 7841, "ragona": 7842, "Ġsacri": 7843, "Ġindivid": 7844, "Ġchiusura": 7845, "RC": 7846, "ĪĴ": 7847, "inna": 7848, "carlo": 7849, "ĠLady": 7850, "Ġslo": 7851, "ĠJr": 7852, "Ġbritannici": 7853, "ĠSala": 7854, "Ġevol": 7855, "Ġparrocchiale": 7856, "Classifica": 7857, "Ġsatelli": 7858, "Ph": 7859, "Ġcompreso": 7860, "ĠSum": 7861, "ĠRomania": 7862, "Ġqualificata": 7863, "tagne": 7864, "ĠEcc": 7865, "endio": 7866, "Otto": 7867, "entini": 7868, "ĠTrans": 7869, "Ġdisponibili": 7870, "Ġcuc": 7871, "ĠFederazione": 7872, "mili": 7873, "volmente": 7874, "Ġnu": 7875, "Ġreca": 7876, "ĠTommaso": 7877, "Ġarmate": 7878, "Ġdeca": 7879, "ĠMediterraneo": 7880, "ĠAsh": 7881, "ĠPass": 7882, "Ġgeneri": 7883, "ĠSca": 7884, "Ġbiblioteca": 7885, "Ġreazione": 7886, "Ġpatria": 7887, "Ġstesse": 7888, "ĠLuis": 7889, "Ġvento": 7890, "Ġincro": 7891, "ugia": 7892, "Ġperde": 7893, "Ġespri": 7894, "istici": 7895, "Ġruoli": 7896, "Ġcontenente": 7897, "duttore": 7898, "ĠEast": 7899, "inz": 7900, "ĠFino": 7901, "ĠRaven": 7902, "alta": 7903, "ĠStazione": 7904, "ĠRena": 7905, "ĠTito": 7906, "Can": 7907, "ĠperciÃ²": 7908, "Ġmoderno": 7909, "Ġvuo": 7910, "Ġdenaro": 7911, "Ġcanti": 7912, "Ġrimp": 7913, "yr": 7914, "chini": 7915, "cep": 7916, "ĠBorgo": 7917, "Ġsoddis": 7918, "Ġborgo": 7919, "istÃ²": 7920, "Ġove": 7921, "ĠNatale": 7922, "Ġsconosci": 7923, "ĠDanimarca": 7924, "ĠFabio": 7925, "ĠSenato": 7926, "gliari": 7927, "ĠBaviera": 7928, "cciaio": 7929, "colato": 7930, "sso": 7931, "Ġqualificazione": 7932, "ĠRose": 7933, "Arg": 7934, "Ġdro": 7935, "ions": 7936, "Ġcircuito": 7937, "Ġecclesia": 7938, "architetto": 7939, "ghese": 7940, "ben": 7941, "ĠInd": 7942, "nes": 7943, "ĠPromozione": 7944, "abe": 7945, "ĠNapoleone": 7946, "ĠSus": 7947, "ĠStory": 7948, "ĠState": 7949, "Ġ81": 7950, "Ġlaurea": 7951, "Ġestende": 7952, "fam": 7953, "Ġtraffico": 7954, "ĠCorridore": 7955, "Ġartistica": 7956, "industria": 7957, "ott": 7958, "Ġdestro": 7959, "oks": 7960, "Ġtecnologia": 7961, "Ġabita": 7962, "Ġ1908": 7963, "Ġcollegio": 7964, "Ġsuolo": 7965, "Har": 7966, "ĠGuest": 7967, "Ġsopravvi": 7968, "pra": 7969, "Ġorgano": 7970, "Ġclassico": 7971, "Ġattu": 7972, "vine": 7973, "Ġparete": 7974, "ĠMauro": 7975, "Ġindoor": 7976, "pes": 7977, "economia": 7978, "Ġcapitolo": 7979, "Ġlavorato": 7980, "rez": 7981, "ĠGun": 7982, "Ġrecita": 7983, "ĠPalla": 7984, "Ġgenerali": 7985, "Scritto": 7986, "Ġdiffuso": 7987, "Ġ85": 7988, "Ġspirito": 7989, "dL": 7990, "ĠCavali": 7991, "Ġdodici": 7992, "Ġinterni": 7993, "ĠIvan": 7994, "Ġindividuale": 7995, "ĠSole": 7996, "Ġindicare": 7997, "ĠManto": 7998, "ĠUniversitÃł": 7999, "Ġnessun": 8000, "Ġantici": 8001, "enio": 8002, "Ġvisibile": 8003, "Ser": 8004, "Ġresa": 8005, "andre": 8006, "ĠStadium": 8007, "lice": 8008, "ĠTown": 8009, "Franc": 8010, "Ġlegger": 8011, "minili": 8012, "yu": 8013, "Ġcampan": 8014, "Ġgrave": 8015, "down": 8016, "Ġpotevano": 8017, "metri": 8018, "preso": 8019, "ĠCorea": 8020, "Ġvac": 8021, "Ġdivisa": 8022, "ĠParlamento": 8023, "Ġvs": 8024, "inanza": 8025, "ĠTrieste": 8026, "vino": 8027, "ĠCostitu": 8028, "Ġsalvare": 8029, "ussia": 8030, "Ġpremia": 8031, "Ġformare": 8032, "accesso": 8033, "ĠMann": 8034, "Ġtrasferito": 8035, "dec": 8036, "ĠLing": 8037, "Ġconti": 8038, "Ġorganizzato": 8039, "ĠArgentina": 8040, "Cla": 8041, "Ġeffica": 8042, "Ġcannoni": 8043, "Ġgirato": 8044, "Ġdona": 8045, "Ġsvolto": 8046, "ĠOf": 8047, "Ġcav": 8048, "Ġstudiosi": 8049, "ĠTheatre": 8050, "Ġriconoscimento": 8051, "angolo": 8052, "graph": 8053, "Ġolandese": 8054, "Ġparziale": 8055, "cchie": 8056, "Ġpopolazioni": 8057, "Ġimpa": 8058, "Ġgiardino": 8059, "Ġribelli": 8060, "ĠGr": 8061, "Ġtipico": 8062, "Ġuccelli": 8063, "Opera": 8064, "lum": 8065, "ĠTut": 8066, "uge": 8067, "Ã§ois": 8068, "Ġparlare": 8069, "rence": 8070, "Ġprestazioni": 8071, "igliore": 8072, "ĠEntra": 8073, "Ġ99": 8074, "ĠHun": 8075, "ceano": 8076, "Ġeuropee": 8077, "Ã±a": 8078, "ĠNovecento": 8079, "ismi": 8080, "erite": 8081, "ĠSon": 8082, "Ġdemocra": 8083, "Ġcatena": 8084, "ĠDown": 8085, "1914": 8086, "Ä±": 8087, "Ġpittura": 8088, "ppie": 8089, "giani": 8090, "ĠNorvegia": 8091, "Ġlabora": 8092, "Ġgiapponesi": 8093, "Ġorto": 8094, "Ġmisterio": 8095, "ĠLittle": 8096, "pagne": 8097, "Ġnotizie": 8098, "entari": 8099, "ĠYamaha": 8100, "mage": 8101, "Ġrivoluzione": 8102, "Ġ79": 8103, "anime": 8104, "gati": 8105, "Ġasia": 8106, "Ġintitolata": 8107, "ĠSulla": 8108, "ĠDaniele": 8109, "ttica": 8110, "ĠArena": 8111, "unno": 8112, "Ġcommerciali": 8113, "Ġmovimenti": 8114, "ĠBarbara": 8115, "á¸": 8116, "ration": 8117, "Ġscrittura": 8118, "Ġrum": 8119, "Ġtuttora": 8120, "ĠRoad": 8121, "ince": 8122, "Ġdiffusa": 8123, "ĠCasti": 8124, "Ġazione": 8125, "ficazioni": 8126, "Ã¥": 8127, "ĠYu": 8128, "Ġ95": 8129, "Risultati": 8130, "ordon": 8131, "Ġeffetto": 8132, "Ġlingu": 8133, "??": 8134, "Ġliqui": 8135, "Ġaggiung": 8136, "vang": 8137, "Ġja": 8138, "pevole": 8139, "ĠLyn": 8140, "Ġmona": 8141, "Ġsocc": 8142, "Ġcali": 8143, "ĠItal": 8144, "ĠStates": 8145, "Ġrendere": 8146, "Serie": 8147, "ĠZelanda": 8148, "etichetta": 8149, "zionalitÃł": 8150, "andy": 8151, "Ġnascon": 8152, "Ġfru": 8153, "ĠColum": 8154, "ĠOro": 8155, "Ġnovanta": 8156, "ĠArchite": 8157, "forman": 8158, "1954": 8159, "ĠAlcune": 8160, "ĠBM": 8161, "Ġtomba": 8162, "Ġfasi": 8163, "ĠKh": 8164, "elia": 8165, "Ġsanto": 8166, "ĠRuss": 8167, "Ġtes": 8168, "Ġlontano": 8169, "Ġdocumentario": 8170, "ĠBamb": 8171, "Ġromanzi": 8172, "ĠGenerale": 8173, "bury": 8174, "Ġbasata": 8175, "Ġfusione": 8176, "tran": 8177, "ĠOggi": 8178, "eland": 8179, "Ġispirato": 8180, "ÈĻ": 8181, "Ġcontesto": 8182, "ĠMessina": 8183, "ĠVirginia": 8184, "Campionati": 8185, "Ġmel": 8186, "Ġbom": 8187, "Ġromani": 8188, "Ġreligiose": 8189, "media": 8190, "Ġguerre": 8191, "Ġabitato": 8192, "Ġsposato": 8193, "esperienza": 8194, "Ġaustrali": 8195, "Ġprovince": 8196, "ĠReggimento": 8197, "Ġincom": 8198, "Ġzio": 8199, "ĠAugusto": 8200, "Ġestremamente": 8201, "allora": 8202, "Ġcimitero": 8203, "Ġ.": 8204, "ĠMia": 8205, "ĠAndrew": 8206, "ĠDy": 8207, "Ġconservato": 8208, "Ġseguire": 8209, "rini": 8210, "ĠComitato": 8211, "essere": 8212, "ĠRisultato": 8213, "Ġtiro": 8214, "ĠNin": 8215, "Ġprincipessa": 8216, "Ġritira": 8217, "ĠGroup": 8218, "catori": 8219, "ĠYa": 8220, "ĠGeneral": 8221, "ĠMemo": 8222, "ix": 8223, "Ġtelevisive": 8224, "ĠtrovÃ²": 8225, "Ġasso": 8226, "ĠSor": 8227, "Ġpsic": 8228, "unale": 8229, "Ġsfor": 8230, "1953": 8231, "Ġazzurro": 8232, "prono": 8233, "Ġ82": 8234, "ĠCron": 8235, "ĠsÃ¬": 8236, "ĠTennis": 8237, "ettÃ²": 8238, "Ġcla": 8239, "Ġcommissione": 8240, "Ġprovinciale": 8241, "Ġbella": 8242, "lun": 8243, "ĠJacques": 8244, "ĠBergamo": 8245, "Gra": 8246, "Ġsapere": 8247, "dez": 8248, "Ġiniziarono": 8249, "ĠMusica": 8250, "ĠAlfonso": 8251, "Ġreligiosa": 8252, "Ġcomponente": 8253, "ĠEuro": 8254, "Ġdanno": 8255, "Ġpresbit": 8256, "ĠMorÃ¬": 8257, "Ġarcivescovo": 8258, "ĠWindows": 8259, "ĠRick": 8260, "ĠCandidatura": 8261, "Ġqualcosa": 8262, "ĠOx": 8263, "Ġelettr": 8264, "esie": 8265, "ĠGem": 8266, "Ġepiscopale": 8267, "Tre": 8268, "ĠMatt": 8269, "Ġstaff": 8270, "Ġzero": 8271, "Ġregole": 8272, "Ãī": 8273, "ĠDistretto": 8274, "Ġcittadino": 8275, "ĠPis": 8276, "issima": 8277, "Ġpaesa": 8278, "Diretto": 8279, "Ġpassi": 8280, "Ġresidenza": 8281, "utica": 8282, "ĠMinistro": 8283, "ĠDisney": 8284, "urazione": 8285, "Ġidee": 8286, "entrata": 8287, "Ġculturali": 8288, "ĠPara": 8289, "Ġassoluto": 8290, "pprima": 8291, "urne": 8292, "Ġcast": 8293, "ĠMargherita": 8294, "Ġcrea": 8295, "ettare": 8296, "Ġcontad": 8297, "ĠLun": 8298, "ĠDig": 8299, "ĠKer": 8300, "LE": 8301, "Ġinfortun": 8302, "Ġcolor": 8303, "Ġsolare": 8304, "istituto": 8305, "ĠFron": 8306, "Ġlargo": 8307, "Let": 8308, "ĠDer": 8309, "ĠHoward": 8310, "Ġtiene": 8311, "Ġsugger": 8312, "Ġcarte": 8313, "ĠLon": 8314, "Cri": 8315, "Ġestratto": 8316, "enziali": 8317, "ĠDin": 8318, "Ġconosce": 8319, "impianto": 8320, "ensiva": 8321, "Ġinsegna": 8322, "issimo": 8323, "zuki": 8324, "Ġleggermente": 8325, "parte": 8326, "Ġbombard": 8327, "ĠZan": 8328, "ĠLind": 8329, "dettagli": 8330, "Ġsinte": 8331, "Ġprodut": 8332, "Ġavvenuto": 8333, "ĠEvoluzione": 8334, "Madonna": 8335, "estero": 8336, "Ġcapito": 8337, "ominato": 8338, "ĠAldo": 8339, "ĠFirst": 8340, "ĠInizialmente": 8341, "ĠGiulia": 8342, "ĠUmberto": 8343, "Av": 8344, "Arte": 8345, "Ġtrasmesso": 8346, "ĠDr": 8347, "cam": 8348, "Ġapre": 8349, "ĠMcC": 8350, "Ġoriginali": 8351, "zzese": 8352, "Ġbraccio": 8353, "Ġstoriche": 8354, "urn": 8355, "uv": 8356, "ĠScozia": 8357, "rangia": 8358, "odi": 8359, "Ġpreci": 8360, "IV": 8361, "Ġrapidamente": 8362, "diti": 8363, "Ġgravi": 8364, "ĠBona": 8365, "ccol": 8366, "FL": 8367, "entata": 8368, "Ġcostituisce": 8369, "ĠMass": 8370, "Ġ84": 8371, "endario": 8372, "formance": 8373, "smo": 8374, "Ġrecenti": 8375, "ĠComics": 8376, "ĠMondiale": 8377, "Er": 8378, "Ġvelo": 8379, "Ġindicato": 8380, "Ġ1909": 8381, "Ġ800": 8382, "prio": 8383, "Î½": 8384, "ĠStr": 8385, "Ġulteriori": 8386, "Ġcellule": 8387, "edy": 8388, "Ġlunghi": 8389, "Ġinviato": 8390, "Ed": 8391, "Ġcibo": 8392, "Ġfuggire": 8393, "ostino": 8394, "andia": 8395, "bini": 8396, "vani": 8397, "Ġcalo": 8398, "Ġtenente": 8399, "American": 8400, "ĠMolti": 8401, "ĠKenn": 8402, "Mic": 8403, "fano": 8404, "Ġfilo": 8405, "ska": 8406, "eduta": 8407, "Ġfamosa": 8408, "Ġteatrali": 8409, "Ġsimboli": 8410, "Ġrealizzati": 8411, "Ġallontan": 8412, "Ġ125": 8413, "ĠCongresso": 8414, "Ġcreata": 8415, "ĠDream": 8416, "Ġend": 8417, "cani": 8418, "trutture": 8419, "Ġgiuri": 8420, "ĠIsab": 8421, "ĠFis": 8422, "ĠOb": 8423, "Ġastr": 8424, "Ġassi": 8425, "Ġvicende": 8426, "Ġleggere": 8427, "ĠSid": 8428, "hip": 8429, "Ġhabitat": 8430, "onaggi": 8431, "vÃ¡": 8432, "fac": 8433, "Ġdipinti": 8434, "India": 8435, "elio": 8436, "Ġaccredi": 8437, "hen": 8438, "Ġrifl": 8439, "Ġsoftware": 8440, "rino": 8441, "ĠLuciano": 8442, "Ġtreni": 8443, "Ġcolonnello": 8444, "Ir": 8445, "Ġoffre": 8446, "ficÃ²": 8447, "baldi": 8448, "omma": 8449, "Ġchiuso": 8450, "fine": 8451, "Ġrista": 8452, "Ġpasseggeri": 8453, "ĠEliza": 8454, "ĠQuali": 8455, "Ġambienti": 8456, "Ġcompleto": 8457, "ago": 8458, "Ġ:''": 8459, "Ġproprietario": 8460, "zionata": 8461, "dra": 8462, "equi": 8463, "ĠDR": 8464, "Ġmarchio": 8465, "ĠUs": 8466, "Ġ96": 8467, "Ġbasilica": 8468, "Ġcinquanta": 8469, "edette": 8470, "ONEOS": 8471, "ĠCemento": 8472, "ip": 8473, "lock": 8474, "Ġimpianti": 8475, "Ġricostruzione": 8476, "ĠLago": 8477, "Ġmicro": 8478, "ĠAleks": 8479, "1913": 8480, "ĠLONEOS": 8481, "Ġcoi": 8482, "ĠPonti": 8483, "Ġmedaglie": 8484, "OT": 8485, "Ġcanadese": 8486, "ĠIsole": 8487, "ĠSen": 8488, "Ġaerea": 8489, "Ġmise": 8490, "ĠScri": 8491, "Ġportando": 8492, "Ġtron": 8493, "Ġogn": 8494, "Ġstudente": 8495, "Tracce": 8496, "Ġcreati": 8497, "ĠTop": 8498, "date": 8499, "ĠSebbene": 8500, "Ġesercito": 8501, "Ġob": 8502, "Ġcitato": 8503, "Ġaspetti": 8504, "unzione": 8505, "aeroporto": 8506, "Ġarea": 8507, "ĠabilitÃł": 8508, "Ġcarcere": 8509, "cello": 8510, "Ġlegati": 8511, "Ġnavata": 8512, "Ġartifici": 8513, "giano": 8514, "ĠAtene": 8515, "ness": 8516, "tture": 8517, "Ġdimensione": 8518, "Ġradic": 8519, "ĠVictor": 8520, "Andrea": 8521, "ĠGusta": 8522, "analisi": 8523, "Ġvoto": 8524, "Ġdiplomati": 8525, "Love": 8526, "Ġfarsi": 8527, "mettere": 8528, "anager": 8529, "Ġestin": 8530, "Ġripresa": 8531, "thy": 8532, "Ġarticoli": 8533, "ĠClassifiche": 8534, "ĠOp": 8535, "Ġrelativamente": 8536, "Ġpezzo": 8537, "ĠMiller": 8538, "ĠMore": 8539, "ruzzo": 8540, "equ": 8541, "Ġbisogno": 8542, "Ġartistico": 8543, "usalem": 8544, "Ġdrammatici": 8545, "Ġattori": 8546, "Ġdio": 8547, "Ġpresi": 8548, "Ġdistruzione": 8549, "ĠSocialista": 8550, "Ġspet": 8551, "ĠÃģ": 8552, "Ġperdu": 8553, "Ġguardia": 8554, "Teste": 8555, "cino": 8556, "ĠBio": 8557, "amin": 8558, "vemente": 8559, "ĠNas": 8560, "Ġsomma": 8561, "ĠEdu": 8562, "icata": 8563, "Ġpericolo": 8564, "ĠWW": 8565, "ĠLuna": 8566, "Ġhe": 8567, "Ġprodurre": 8568, "arm": 8569, "gnor": 8570, "ĠVincitore": 8571, "Ġalte": 8572, "ĠAssociation": 8573, "bon": 8574, "Ġtermina": 8575, "1952": 8576, "Ġrelativa": 8577, "Ġdoppiato": 8578, "Ġprossi": 8579, "ladel": 8580, "EP": 8581, "orum": 8582, "Ġ110": 8583, "Ġpromo": 8584, "Ġnotare": 8585, "trazione": 8586, "ĠRober": 8587, "ĠRud": 8588, "Ġmete": 8589, "ibi": 8590, "Ġlimite": 8591, "vanza": 8592, "Ġcorpi": 8593, "Ġacquistato": 8594, "XX": 8595, "Ġcru": 8596, "ĠBrad": 8597, "lismo": 8598, "Ġdiversa": 8599, "Ġfecero": 8600, "Ġfisico": 8601, "Ġstretto": 8602, "ĠBun": 8603, "ĠAnthony": 8604, "ĠEsp": 8605, "ĠMani": 8606, "ĠEP": 8607, "Ġragazze": 8608, "ĠBattaglia": 8609, "ĠEnter": 8610, "insieme": 8611, "Ġbasi": 8612, "get": 8613, "ĠStephen": 8614, "Ġscomparsa": 8615, "Ġsaranno": 8616, "ĠHart": 8617, "ĠPilota": 8618, "Ġsottop": 8619, "ĠColl": 8620, "ĠInstitu": 8621, "istola": 8622, "ĠFul": 8623, "Pe": 8624, "ĠCad": 8625, "Du": 8626, "ĠRegina": 8627, "Ġdispone": 8628, "ĠHaw": 8629, "Ġricco": 8630, "Ġcapace": 8631, "Ġquinta": 8632, "ĠDick": 8633, "ellini": 8634, "nica": 8635, "ĠRh": 8636, "Ġdefinizione": 8637, "icitÃł": 8638, "ventura": 8639, "intervento": 8640, "ĠSet": 8641, "Ġcandidato": 8642, "ĠBall": 8643, "Ġconduce": 8644, "Ġcompresa": 8645, "Ġnoi": 8646, "Ġlegata": 8647, "ggiamento": 8648, "Ġsposta": 8649, "Ġpiena": 8650, "Premio": 8651, "ĠProduzione": 8652, "Ġtotal": 8653, "Ġsicili": 8654, "Ġriportato": 8655, "Ġscienze": 8656, "ution": 8657, "pita": 8658, "ĠFerrara": 8659, "Ġarma": 8660, "ĠAk": 8661, "Ġfotografia": 8662, "Live": 8663, "Ġcris": 8664, "Ġquadro": 8665, "SI": 8666, "ĠOff": 8667, "ĠProg": 8668, "rur": 8669, "Ġesterno": 8670, "jan": 8671, "ump": 8672, "Ġoriginario": 8673, "rido": 8674, "wen": 8675, "ĠEuropei": 8676, "Ġassunse": 8677, "Ġambito": 8678, "bie": 8679, "skij": 8680, "Ġviaggi": 8681, "anny": 8682, "ziana": 8683, "ism": 8684, "Ġtotali": 8685, "ĠOd": 8686, "Der": 8687, "Ġgiunse": 8688, "stro": 8689, "ĠTw": 8690, "Ġpropor": 8691, "Ġneut": 8692, "reggio": 8693, "ĠDeb": 8694, "Ġrisorse": 8695, "inante": 8696, "Ġautonom": 8697, "asaki": 8698, "ĠAnti": 8699, "bola": 8700, "ĠKong": 8701, "ereo": 8702, "Ġramo": 8703, "Soci": 8704, "ĠDur": 8705, "Ġnazioni": 8706, "agna": 8707, "enziato": 8708, "ĠGara": 8709, "Ġspecialmente": 8710, "ĠGari": 8711, "Ġprecedentemente": 8712, "olore": 8713, "Ġspada": 8714, "Ġtum": 8715, "Ġdovuta": 8716, "Ġprogressi": 8717, "Ġpittori": 8718, "Ġstabil": 8719, "ming": 8720, "ttr": 8721, "ettiva": 8722, "Ġpagina": 8723, "ssa": 8724, "Cam": 8725, "Ġabitati": 8726, "Chiesa": 8727, "Ġdescritto": 8728, "Ġanalo": 8729, "ĠLucio": 8730, "itano": 8731, "1915": 8732, "Ġpareggio": 8733, "Ġtavola": 8734, "attrice": 8735, "ĠBruce": 8736, "esterno": 8737, "imon": 8738, "formato": 8739, "Ġaddestra": 8740, "quisi": 8741, "Ġsepp": 8742, "ĠMarie": 8743, "Ġampio": 8744, "orf": 8745, "ĠAna": 8746, "ĠTrento": 8747, "Ġinsi": 8748, "Ã¦": 8749, "ĠMovimento": 8750, "Ġmodifiche": 8751, "ĠPasqu": 8752, "wart": 8753, "MA": 8754, "Ġvale": 8755, "Ġcarne": 8756, "Ġcarri": 8757, "viazione": 8758, "ef": 8759, "Ġpromuo": 8760, "orte": 8761, "Ðº": 8762, "cale": 8763, "Ġdiviso": 8764, "Ġpassando": 8765, "Ġditta": 8766, "pite": 8767, "dafrica": 8768, "Ġpareti": 8769, "ĠBartol": 8770, "ĠRyan": 8771, "ĠVicenza": 8772, "ĠQuarti": 8773, "mosso": 8774, "Ġcolpito": 8775, "Ġsostan": 8776, "ĠAllen": 8777, "dazione": 8778, "Ġ98": 8779, "ng": 8780, "Ġriferisce": 8781, "Ġcampioni": 8782, "ĠCompagnia": 8783, "We": 8784, "Ġlimitata": 8785, "mis": 8786, "ometro": 8787, "ĠVig": 8788, "ĠOrchestra": 8789, "ĠEst": 8790, "Ġsinistro": 8791, "Ġscrive": 8792, "Tu": 8793, "ĠVas": 8794, "Ġcicli": 8795, "ĠArri": 8796, "Ġaero": 8797, "ranti": 8798, "ĠRid": 8799, "1950": 8800, "ĠBia": 8801, "zzini": 8802, "ĠComunista": 8803, "ĠEssa": 8804, "Ġdenominata": 8805, "trop": 8806, "1951": 8807, "ĠBilly": 8808, "Coppa": 8809, "Ġfili": 8810, "onore": 8811, "ĠsubÃ¬": 8812, "odia": 8813, "accordo": 8814, "ficate": 8815, "ĠFranz": 8816, "Ġassunto": 8817, "ĠVerdi": 8818, "ĠHollywood": 8819, "ĠLudovico": 8820, "ĠVati": 8821, "pola": 8822, "Ġsignore": 8823, "Ã§a": 8824, "plo": 8825, "Ġaccadem": 8826, "Ġesib": 8827, "omonima": 8828, "Val": 8829, "udono": 8830, "ullo": 8831, "ĠLP": 8832, "Ġdolce": 8833, "ĠUlti": 8834, "fan": 8835, "reale": 8836, "ĠGalli": 8837, "Ġmuore": 8838, "brio": 8839, "Ġnessuna": 8840, "ĠGF": 8841, "Ġscultore": 8842, "Ġconsente": 8843, "ollegamento": 8844, "Ġdescrizione": 8845, "opp": 8846, "Ġtesi": 8847, "ĠEconom": 8848, "artiene": 8849, "Ġtrasferimento": 8850, "Ġanime": 8851, "sol": 8852, "ĠFondazione": 8853, "Ġavver": 8854, "andone": 8855, "ttan": 8856, "Ġarchitetton": 8857, "Ġdisse": 8858, "ettero": 8859, "dire": 8860, "Ġelemento": 8861, "VIII": 8862, "endi": 8863, "Ġvolto": 8864, "ĠTon": 8865, "Ġimprov": 8866, "Ġdopoguerra": 8867, "abi": 8868, "ĠIntanto": 8869, "Io": 8870, "att": 8871, "miraglio": 8872, "Ġcerimonia": 8873, "ttrice": 8874, "ĠQuattro": 8875, "Album": 8876, "Ġtrasform": 8877, "Ġaccor": 8878, "Ġdeten": 8879, "tish": 8880, ":''": 8881, "Ġ91": 8882, "ĠTeresa": 8883, "Ġgiovanile": 8884, "Giovan": 8885, "ĠConserva": 8886, "ĠFabrizio": 8887, "Ġbr": 8888, "ĠJar": 8889, "Ġsessuale": 8890, "ĠRenato": 8891, "Ġdapprima": 8892, "Ġscola": 8893, "rane": 8894, "Ġextra": 8895, "obiettivo": 8896, "Ġmente": 8897, "gregazione": 8898, "ĠFernando": 8899, "ĠManuel": 8900, "ĠEnd": 8901, "Ġconi": 8902, "troduzione": 8903, "ordan": 8904, "Ġbasati": 8905, "Titolo": 8906, "Ġesistono": 8907, "Ġaiutare": 8908, "Vo": 8909, "ĠTurchia": 8910, "ĠGene": 8911, "uld": 8912, "ĠPL": 8913, "Ġtenere": 8914, "Je": 8915, "Ġscontri": 8916, "ĠSetti": 8917, "erial": 8918, "Ġconcluse": 8919, "iamo": 8920, "ĠFinlandia": 8921, "Ġartista": 8922, "Ġprigionieri": 8923, "erei": 8924, "ĠTerri": 8925, "ĠTesta": 8926, "Ġdiscografica": 8927, "ritÃł": 8928, "Ġbon": 8929, "Ġ1907": 8930, "1912": 8931, "ĠGriff": 8932, "Î¹": 8933, "Ġattravers": 8934, "ĠBoston": 8935, "male": 8936, "Ġnazione": 8937, "Ġmaggiormente": 8938, "eller": 8939, "ĠEdoardo": 8940, "ĠfinchÃ©": 8941, "ĠDavide": 8942, "prestito": 8943, "ĠDoc": 8944, "Ġincre": 8945, "trale": 8946, "Black": 8947, "Ġcritico": 8948, "ĠEgitto": 8949, "ĠGordon": 8950, "Ġveicoli": 8951, "Ġsfondo": 8952, "Ġviolino": 8953, "inando": 8954, "ful": 8955, "Ġmoderni": 8956, "Ġegi": 8957, "Ġtemporane": 8958, "bano": 8959, "Ġ600": 8960, "mona": 8961, "ĠTun": 8962, "ĠNan": 8963, "Ġfrutto": 8964, "Ġdentro": 8965, "Ġbianchi": 8966, "ĠNicol": 8967, "forni": 8968, "ĠGP": 8969, "Ġriuscendo": 8970, "Ġbandiera": 8971, "ĠGuy": 8972, "Ġricche": 8973, "ĠDistribuito": 8974, "Ġcosiddetto": 8975, "ĠDom": 8976, "ĠDark": 8977, "universitÃł": 8978, "Ġpagine": 8979, "ĠOm": 8980, "ĠRob": 8981, "Ġraffigurante": 8982, "kola": 8983, "Ġallen": 8984, "ĠDoppia": 8985, "Ġ1906": 8986, "tea": 8987, "ĠRocco": 8988, "ĠDouglas": 8989, "Ġrepubbli": 8990, "tamento": 8991, "istema": 8992, "alf": 8993, "stein": 8994, "Ġterro": 8995, "Ġassicura": 8996, "ĠPlan": 8997, "Ġmassic": 8998, "lementa": 8999, "ĠFrancesca": 9000, "out": 9001, "UN": 9002, "cana": 9003, "Ġfama": 9004, "ĠBroad": 9005, "Ġmess": 9006, "etnam": 9007, "ĠDella": 9008, "erire": 9009, "Ġconsac": 9010, "Ġsopravviss": 9011, "Ġquei": 9012, "ĠFan": 9013, "ĠGiuliano": 9014, "ĠGaetano": 9015, "cone": 9016, "Ġnavale": 9017, "Ġargom": 9018, "ĠHenri": 9019, "TS": 9020, "Ġagrico": 9021, "ĠMul": 9022, "bona": 9023, "ving": 9024, "ĠCamer": 9025, "Ġgiornale": 9026, "Ġcopertina": 9027, "ĠOccid": 9028, "Ġrisalente": 9029, "Ġconsigli": 9030, "Finale": 9031, "udendo": 9032, "Ġcorn": 9033, "800": 9034, "Ġader": 9035, "Ġdomenica": 9036, "ĠMah": 9037, "ĠConc": 9038, "ĠIsraele": 9039, "Ġmarchese": 9040, "Ġriconosciuto": 9041, "Ġvittima": 9042, "Ġdialetto": 9043, "zzoli": 9044, "dÃ¬": 9045, "ĠImmagine": 9046, "rita": 9047, "Ġritiene": 9048, "Ġquadri": 9049, "ury": 9050, "bone": 9051, "ĠSito": 9052, "unior": 9053, "HL": 9054, "Ġaggre": 9055, "haus": 9056, "Ġvicenda": 9057, "Ġrivolu": 9058, "App": 9059, "ĠHamilton": 9060, "contra": 9061, "ĠHor": 9062, "ĠSegre": 9063, "ensore": 9064, "Ġmedicina": 9065, "hara": 9066, "ĠGabriele": 9067, "ents": 9068, "Ġpenisola": 9069, "Ġselva": 9070, "ĠCattedrale": 9071, "avy": 9072, "ĠMarsh": 9073, "Ġcentina": 9074, "borg": 9075, "Ġcollegamento": 9076, "enko": 9077, "Ġnecessari": 9078, "Ġdecenni": 9079, "Ġmanos": 9080, "Os": 9081, "richi": 9082, "CdL": 9083, "Ġpropone": 9084, "Ġpatrimonio": 9085, "Ġfri": 9086, "ĠprofonditÃł": 9087, "Ġrisc": 9088, "zon": 9089, "Ġ----": 9090, "Ġ93": 9091, "Ġscientifico": 9092, "Ġcosiddetta": 9093, "dÃ²": 9094, "utori": 9095, "Ġulteriormente": 9096, "Ġeccezione": 9097, "Ġviaggia": 9098, "Ġprelim": 9099, "cedes": 9100, "ĠBritish": 9101, "Ġcapelli": 9102, "Ġpercussioni": 9103, "agno": 9104, "Ġpop": 9105, "Ġorganizzata": 9106, "Ġsportiva": 9107, "Ġmang": 9108, "Ġnot": 9109, "ĠFanta": 9110, "Ġtradizionali": 9111, "ĠElisabetta": 9112, "rys": 9113, "ĠNar": 9114, "Ġassume": 9115, "Ġoriginaria": 9116, "ĠGolden": 9117, "Ġusati": 9118, "Ġfemminili": 9119, "Ġambiente": 9120, "ĠStori": 9121, "ĠDante": 9122, "Ġsperim": 9123, "Ġtedesche": 9124, "ciatori": 9125, "pendenza": 9126, "Ġic": 9127, "vica": 9128, "ĠJohnny": 9129, "ĠPedro": 9130, "ĠPenn": 9131, "ĠImage": 9132, "camp": 9133, "ĠGirolamo": 9134, "Ġvino": 9135, "ĠRossa": 9136, "Ġgrig": 9137, "pati": 9138, "dad": 9139, "Ġvenduto": 9140, "assion": 9141, "ĠPrincipe": 9142, "Ġtera": 9143, "Ġ1905": 9144, "Ġincluso": 9145, "Ġfacili": 9146, "Ġmissioni": 9147, "Ġvariante": 9148, "Ġ92": 9149, "Ġtappe": 9150, "Ġdecisi": 9151, "usalemme": 9152, "Ġ87": 9153, "ĠNorman": 9154, "Ġvincitori": 9155, "Ġcontenuti": 9156, "orchestra": 9157, "ĠMaj": 9158, "Ġsm": 9159, "batti": 9160, "Ġcostituzione": 9161, "Ġchitarrista": 9162, "Ġå": 9163, "Ġtorri": 9164, "Ġtrion": 9165, "Ġmusicista": 9166, "Ġlumin": 9167, "itudine": 9168, "ormi": 9169, "Ġautomobili": 9170, "ĠAur": 9171, "Ġvas": 9172, "pis": 9173, "ĠPho": 9174, "Ġ86": 9175, "play": 9176, "Ġviola": 9177, "uovo": 9178, "ats": 9179, "Ġacus": 9180, "ĠOld": 9181, "kan": 9182, "icia": 9183, "ciare": 9184, "ĠTrib": 9185, "Doppia": 9186, "ĠMantova": 9187, "OL": 9188, "Ġunivers": 9189, "Ġarco": 9190, "ĠRicon": 9191, "ĠBernard": 9192, "ĠSacro": 9193, "Ġorchestra": 9194, "Ann": 9195, "Ġimpedi": 9196, "Ġaffin": 9197, "armata": 9198, "ĠConn": 9199, "300": 9200, "Ġcancella": 9201, "Tom": 9202, "mpi": 9203, "ĠLucia": 9204, "Ġriporta": 9205, "Ġrese": 9206, "uori": 9207, "Ġanimale": 9208, "ĠAmministra": 9209, "Ġcostella": 9210, "ĠMagn": 9211, "Ġspe": 9212, "ĠAlice": 9213, "Ġinterventi": 9214, "urch": 9215, "conti": 9216, "Bu": 9217, "piano": 9218, "pha": 9219, "ĠJam": 9220, "assedio": 9221, "Ġpaura": 9222, "ĠGregorio": 9223, "Ġdiametro": 9224, "ĠNazioni": 9225, "ĠClo": 9226, "Ġprocessi": 9227, "ĠBrun": 9228, "ĠCarolina": 9229, "cend": 9230, "Ġindiri": 9231, "Ġmagn": 9232, "ĠRomani": 9233, "Ġgiudice": 9234, "Ġcampanile": 9235, "ggendo": 9236, "Ka": 9237, "gliata": 9238, "ĠSofia": 9239, "unk": 9240, "rosse": 9241, "Area": 9242, "Ġparrocchia": 9243, "ĠDomin": 9244, "tomi": 9245, "ques": 9246, "Ġamministrativa": 9247, "ĠPC": 9248, "Ġimbar": 9249, "Ja": 9250, "Ġpred": 9251, "1945": 9252, "Ġsegnale": 9253, "ĠJimmy": 9254, "Ġrestitu": 9255, "uts": 9256, "iction": 9257, "ĠMr": 9258, "ziona": 9259, "Ġcoste": 9260, "Ġ83": 9261, "itta": 9262, "Ġmetalli": 9263, "Ã¶n": 9264, "Ġbatte": 9265, "Ġbotte": 9266, "dow": 9267, "Ġdefinitiva": 9268, "Ġungher": 9269, "ussi": 9270, "invasione": 9271, "ĠAndy": 9272, "Ġsequenza": 9273, "Ġscudetto": 9274, "Anna": 9275, "ĠCari": 9276, "ĠIsa": 9277, "Ġstraord": 9278, "bian": 9279, "ĠHeart": 9280, "Ġlive": 9281, "Ġsvolse": 9282, "ĠSyd": 9283, "ĠSquadre": 9284, "Ġpassione": 9285, "ĠAlfred": 9286, "viltÃł": 9287, "Ġscienza": 9288, "Ġinterpreti": 9289, "Ġintrodotto": 9290, "ender": 9291, "Ġrub": 9292, "tese": 9293, "Cro": 9294, "Ġgradu": 9295, "uriositÃł": 9296, "tÃ¹": 9297, "eguÃ¬": 9298, "Ġarrestato": 9299, "phia": 9300, "ipo": 9301, "Ġ118": 9302, "cilio": 9303, "ĠpotÃ©": 9304, "ĠBambino": 9305, "bis": 9306, "%)": 9307, "Ġfestival": 9308, "ricol": 9309, "Ġmorire": 9310, "Ġcesti": 9311, "ital": 9312, "ĠBene": 9313, "ĠModalitÃł": 9314, "Ġtreno": 9315, "onder": 9316, "mino": 9317, "ĠOlimpiadi": 9318, "Ġarrivando": 9319, "Ġnorveg": 9320, "ĠElizabeth": 9321, "liga": 9322, "Sha": 9323, "Ġclin": 9324, "Ġcondotta": 9325, "Ġaffidata": 9326, "Ġprezzo": 9327, "Ġelettorale": 9328, "Ġcroci": 9329, "Ġprepara": 9330, "Mer": 9331, "istoria": 9332, "Ġdestinato": 9333, "Ġsostituzione": 9334, "namento": 9335, "aron": 9336, "ĠPopolare": 9337, "ĠCann": 9338, "Ġsotti": 9339, "tonia": 9340, "Alto": 9341, "ĠWell": 9342, "Ġsignora": 9343, "Ġpossibili": 9344, "elet": 9345, "Ul": 9346, "Ġdesid": 9347, "ĠFiglio": 9348, "Ġcorrispondenza": 9349, "ĠPerugia": 9350, "americani": 9351, "sori": 9352, "ĠresponsabilitÃł": 9353, "Ġassai": 9354, "kistan": 9355, "Ġabbandonato": 9356, "ĠCagliari": 9357, "Ġviva": 9358, "vinitÃł": 9359, "ĠJay": 9360, "Che": 9361, "Cal": 9362, "ĠKara": 9363, "verna": 9364, "Ġinteg": 9365, "amba": 9366, "onsor": 9367, "ggero": 9368, "ĠTai": 9369, "wick": 9370, "Ġstazioni": 9371, "Ġebraica": 9372, "Ġscia": 9373, "Ġsogno": 9374, "Ġconsider": 9375, "Angelo": 9376, "Ġmuro": 9377, "Ġpse": 9378, "Ġalleati": 9379, "dico": 9380, "Ġcatti": 9381, "war": 9382, "Ġcover": 9383, "ĠAnne": 9384, "Ġener": 9385, "dri": 9386, "Via": 9387, "ĠNeg": 9388, "otta": 9389, "Ġdisegni": 9390, "Ġuscire": 9391, "estina": 9392, "Ġsepolto": 9393, "Ottocento": 9394, "Ġricca": 9395, "Ġprivato": 9396, "Ġ1500": 9397, "venire": 9398, "immag": 9399, "abbazia": 9400, "ĠStone": 9401, "ĠHit": 9402, "oldo": 9403, "Ġsconfitte": 9404, "ĠRocca": 9405, "Ġbacino": 9406, "ĠTeo": 9407, "Ġimpiegato": 9408, "ĠPin": 9409, "ĠProv": 9410, "Ġalberi": 9411, "Ġportarono": 9412, "ĠRomeo": 9413, "Ġvocale": 9414, "ĠOxford": 9415, "nik": 9416, "arci": 9417, "pez": 9418, "Down": 9419, "ĠUnione": 9420, "ĠBy": 9421, "Ġrest": 9422, "Ġbanca": 9423, "Ġcima": 9424, "ĠDall": 9425, "gs": 9426, "scia": 9427, "Ġrass": 9428, "mm": 9429, "ĠAff": 9430, "archia": 9431, "zant": 9432, "etroc": 9433, "ĠMarcello": 9434, "fu": 9435, "AD": 9436, "ental": 9437, "ĠATP": 9438, "ĠSqu": 9439, "Ġriescono": 9440, "Ġmobili": 9441, "Ġtagli": 9442, "ĠHistory": 9443, "ologi": 9444, "Ġlegame": 9445, "ĠBang": 9446, "glioni": 9447, "ĠLuci": 9448, "ĠGerusalemme": 9449, "Ġgente": 9450, "ĠNu": 9451, "Ġsh": 9452, "1939": 9453, "Ġfamosi": 9454, "Ġdistrutto": 9455, "ĠWrestling": 9456, "Ġsot": 9457, "ĠTru": 9458, "Ġposte": 9459, "Ġtrasporti": 9460, "600": 9461, "Ð»": 9462, "ĠTelevisione": 9463, "Ġsalva": 9464, "Ġallun": 9465, "Ġchiamati": 9466, "Ġdischi": 9467, "Ġviolenza": 9468, "elezione": 9469, "ĠCham": 9470, "Ġfrequenta": 9471, "ĠScar": 9472, "Sp": 9473, "og": 9474, "Ġvoleva": 9475, "sima": 9476, "Asia": 9477, "diocesi": 9478, "Ġmorta": 9479, "ĠClemente": 9480, "Ġscientifica": 9481, "Ġcresci": 9482, "Ġsesso": 9483, "Ġsegnal": 9484, "ĠWild": 9485, "yan": 9486, "Ġferito": 9487, "Bi": 9488, "Ġprevedeva": 9489, "ĠBack": 9490, "roso": 9491, "ĠEmilio": 9492, "ĠMilitare": 9493, "Ġsacerdote": 9494, "Ġelabo": 9495, "genza": 9496, "Bro": 9497, "Ġcattolico": 9498, "ĠUgo": 9499, "Ġrealizzate": 9500, "ĠGuardia": 9501, "Ġdefinita": 9502, "ĠSav": 9503, "Come": 9504, "Ġesper": 9505, "ĠFos": 9506, "ĠTod": 9507, "ah": 9508, "Ġcristiana": 9509, "enos": 9510, "Fir": 9511, "Ġoccasioni": 9512, "Ġcritiche": 9513, "Ġslalom": 9514, "uramente": 9515, "yama": 9516, "Ġavventure": 9517, "ĠFelice": 9518, "bir": 9519, "foro": 9520, "Ġgall": 9521, "Ġclassificati": 9522, "arto": 9523, "missione": 9524, "Ġconsole": 9525, "ĠNati": 9526, "ots": 9527, "Ġirre": 9528, "ĠGor": 9529, "Ġpotesse": 9530, "Ġciascuno": 9531, "ceae": 9532, "Ġbis": 9533, "Ġcopertura": 9534, "ĠPav": 9535, "vangel": 9536, "Ġimper": 9537, "Ġaccompag": 9538, "craina": 9539, "ĠYear": 9540, "Ġradia": 9541, "ĠLivorno": 9542, "Ġtemp": 9543, "1949": 9544, "Ġtastiere": 9545, "eranno": 9546, "Ġfla": 9547, "Ber": 9548, "itura": 9549, "tim": 9550, "Ġcolletti": 9551, "Ġquotidiano": 9552, "Ġlatina": 9553, "Ġfrequenza": 9554, "Ġschermo": 9555, "Ġconclude": 9556, "lopedia": 9557, "Ġaffari": 9558, "influenza": 9559, "Ġdisputata": 9560, "Ġmorale": 9561, "Ġfas": 9562, "Ġrigi": 9563, "Ġintelle": 9564, "Ġstanno": 9565, "Ġassor": 9566, "ĠIrlanda": 9567, "Ġomonimo": 9568, "polis": 9569, "Ġveloce": 9570, "Ġpresentata": 9571, "ostra": 9572, "Ġoperativo": 9573, "Ġprezio": 9574, "Ġnozze": 9575, "ĠCampione": 9576, "ĠMars": 9577, "CO": 9578, "pla": 9579, "Ġquegli": 9580, "Wil": 9581, "ĠlavorÃ²": 9582, "Ġria": 9583, "ucazione": 9584, "ĠLie": 9585, "thers": 9586, "rla": 9587, "Ġdettagli": 9588, "ĠGiÃł": 9589, "ttico": 9590, "house": 9591, "Ġinnova": 9592, "Ġring": 9593, "Ġapposi": 9594, "Ġlos": 9595, "Ġsconf": 9596, "AP": 9597, "med": 9598, "Ġutilizzate": 9599, "ĠFranÃ§ois": 9600, "ĠFilipp": 9601, "Ġorizz": 9602, "USA": 9603, "ĠfondÃ²": 9604, "ĠDiscografia": 9605, "Ġaziende": 9606, "Ġdanza": 9607, "Ġbul": 9608, "Ġminimo": 9609, "Rom": 9610, "str": 9611, "Ġcopia": 9612, "ĠContro": 9613, "Ġinferiori": 9614, "iare": 9615, "mbe": 9616, "ĠKon": 9617, "Ġdenominato": 9618, "Ġragg": 9619, "ecento": 9620, "tend": 9621, "gimento": 9622, "ĠRiver": 9623, "ĠMig": 9624, "ĠMori": 9625, "ordio": 9626, "ĠAy": 9627, "Ġcondannato": 9628, "Ġmatematica": 9629, "erne": 9630, "Ġmiliardi": 9631, "uble": 9632, "\":": 9633, "Ġlegate": 9634, "Ġtardo": 9635, "ĠStor": 9636, "ducia": 9637, "Ġ/": 9638, "ĠCun": 9639, "ilia": 9640, "certo": 9641, "Ġbilan": 9642, "ĠSass": 9643, "ĠTech": 9644, "ospedale": 9645, "Ġ1860": 9646, "Ġemo": 9647, "Ġserata": 9648, "Ġtornei": 9649, "ĠBald": 9650, "kar": 9651, "ĠFern": 9652, "vice": 9653, "ingere": 9654, "egas": 9655, "Ġriconosc": 9656, "andr": 9657, "Ġ89": 9658, "ĠPino": 9659, "Ġperifer": 9660, "Ġsubent": 9661, "Ġspar": 9662, "unsero": 9663, "Ġcatego": 9664, "Ġdivenuto": 9665, "Ġrimanere": 9666, "ĠPavia": 9667, "Ele": 9668, "Ġsanta": 9669, "colari": 9670, "Ġcomposti": 9671, "ĠEnzo": 9672, "Ġreligiosi": 9673, "Ġpiattaforma": 9674, "Ġadat": 9675, "Ġprogrammazione": 9676, "Ġinterne": 9677, "Ġaustriaco": 9678, "Ġesplo": 9679, "Ġfirmato": 9680, "ventus": 9681, "Ġtastiera": 9682, "Ġsvizzero": 9683, "ĠFrat": 9684, "Ġmaga": 9685, "ÏĤ": 9686, "Ġapertura": 9687, "1943": 9688, "ĠTag": 9689, "Ġcontributo": 9690, "Ġcara": 9691, "under": 9692, "Ġdar": 9693, "ĠArcivescovo": 9694, "DS": 9695, "ÏĦ": 9696, "uniores": 9697, "IA": 9698, "Ġdicendo": 9699, "ĠGua": 9700, "ishi": 9701, "Ġconfigura": 9702, "Ġterremoto": 9703, "Ġfortuna": 9704, "1940": 9705, "pino": 9706, "1948": 9707, "Ġpronuncia": 9708, "onati": 9709, "ĠProdu": 9710, "Ġprigione": 9711, "brano": 9712, "osess": 9713, "ĠKelly": 9714, "cla": 9715, "tane": 9716, "ÅĻ": 9717, "Stu": 9718, "piÃ¹": 9719, "ĠMedici": 9720, "Ġassistente": 9721, "pide": 9722, "Ġinser": 9723, "Ġraggio": 9724, "Ġpreda": 9725, "Ġspazi": 9726, "Ġciascuna": 9727, "Durata": 9728, "Ġsuff": 9729, "Ġrazza": 9730, "Ġipoti": 9731, "ĠKal": 9732, "fin": 9733, "Ġtempor": 9734, "Ġvetture": 9735, "ĠAcadem": 9736, "Ġ1904": 9737, "Ġfondi": 9738, "Ġdecennio": 9739, "enario": 9740, "zona": 9741, "Ġusando": 9742, "Pr": 9743, "ĠMarche": 9744, "One": 9745, "elig": 9746, "anim": 9747, "visiÃ³n": 9748, "Ġrinuncia": 9749, "iley": 9750, "Ġbambina": 9751, "ĠDie": 9752, "ĠSic": 9753, "ĠFire": 9754, "Milano": 9755, "animazione": 9756, "Ġtop": 9757, "Ġconsigliere": 9758, "CC": 9759, "Ac": 9760, "Ïģ": 9761, "Ġsuccessore": 9762, "Ġemerg": 9763, "Ġdesiderio": 9764, "ĠMun": 9765, "ĠRiconosci": 9766, "ĠReale": 9767, "Ġragioni": 9768, "Ġconsent": 9769, "vente": 9770, "rick": 9771, "ĠSoli": 9772, "cipa": 9773, "ĠChiara": 9774, "anie": 9775, "Ġforesta": 9776, "ĠDave": 9777, "ĠSignore": 9778, "ĠBella": 9779, "ĠBull": 9780, "cker": 9781, "edÃ¬": 9782, "Ġselezione": 9783, "ĠMedioevo": 9784, "ĠCole": 9785, "Ġ94": 9786, "Ġfronti": 9787, "Ġgenti": 9788, "night": 9789, "Ġridotto": 9790, "Ġrappresentante": 9791, "inaudi": 9792, "Ġges": 9793, "''''',": 9794, "ĠKid": 9795, "Ġappa": 9796, "Ġstatue": 9797, "resco": 9798, "Ġgradi": 9799, "alizzazione": 9800, "attenzione": 9801, "osamente": 9802, "ĠVolume": 9803, "Ġtrasformazione": 9804, "vania": 9805, "Ġriduzione": 9806, "Ġchiusa": 9807, "allone": 9808, "Ġrami": 9809, "Ġcane": 9810, "ĠMarch": 9811, "ĠRosso": 9812, "ĠBeat": 9813, "ĠgiocÃ²": 9814, "traccia": 9815, "Ġmil": 9816, "Ġradiofon": 9817, "Ġspecifico": 9818, "Ġfarlo": 9819, "ĠKla": 9820, "Ġcampagne": 9821, "David": 9822, "Ġagenti": 9823, "ED": 9824, "ĠHome": 9825, "Ġuccide": 9826, "Ġcomunemente": 9827, "ĠCS": 9828, "egnÃ²": 9829, "Ġandato": 9830, "Ġtrag": 9831, "Ġesig": 9832, "evoluzione": 9833, "ĠLeop": 9834, "vallo": 9835, "Ġperiodi": 9836, "Ke": 9837, "Ġconfermato": 9838, "Ġsoldi": 9839, "Ġleone": 9840, "Ġcong": 9841, "Ġfortezza": 9842, "''\".": 9843, "Eli": 9844, "Ġrivesti": 9845, "chim": 9846, "Ġappartiene": 9847, "ĠdichiarÃ²": 9848, "ĠWol": 9849, "unione": 9850, "Ġtenne": 9851, "Ġospedale": 9852, "ĠHD": 9853, "pido": 9854, "Ġfossili": 9855, "ĠCanale": 9856, "Ġmetodi": 9857, "oclip": 9858, "Ġperfetta": 9859, "Ġspiega": 9860, "ĠClark": 9861, "haw": 9862, "mie": 9863, "Ġpreparazione": 9864, "Ġpano": 9865, "Ġsantuario": 9866, "wig": 9867, "ĠJonathan": 9868, "ĠSy": 9869, "Ġdenti": 9870, "pto": 9871, "dÃ©": 9872, "Ġdebole": 9873, "ĠÃ©": 9874, "Ġstudiare": 9875, "chin": 9876, "Ġcercando": 9877, "Ġabbandonare": 9878, "ĠDuca": 9879, "minale": 9880, "Ġbrevi": 9881, "Ġsormon": 9882, "Ġamiche": 9883, "Ġconservazione": 9884, "ĠEsso": 9885, "ĠMix": 9886, "ĠMai": 9887, "Ġpesanti": 9888, "Ġsuppor": 9889, "Ġintervento": 9890, "Ġib": 9891, "Ġbrill": 9892, "Ġdistur": 9893, "detto": 9894, "edie": 9895, "Ġlicenza": 9896, "Ġdovrebbe": 9897, "strada": 9898, "ĠBartolomeo": 9899, "golari": 9900, "Ã½": 9901, "mere": 9902, "erve": 9903, "Ġnatale": 9904, "tente": 9905, "ĠBoni": 9906, "Ġportoghese": 9907, "celle": 9908, "Ġeseguito": 9909, "Ġprivil": 9910, "Ġaccompagnato": 9911, "ĠSanremo": 9912, "Ġcoppie": 9913, "ondere": 9914, "Ġfornire": 9915, "Ġinvernali": 9916, "ĠMilan": 9917, "Ġconoscere": 9918, "Ġpallacanestro": 9919, "ĠEng": 9920, "Ġfederale": 9921, "Ġaltezza": 9922, "Ritorno": 9923, "zina": 9924, "Ġdetermin": 9925, "Ġdescrive": 9926, "ĠNich": 9927, "Ġacquis": 9928, "critti": 9929, "Ġcontinuare": 9930, "Ġdiscorso": 9931, "urnal": 9932, "ĠDif": 9933, "Ġdesign": 9934, "carono": 9935, "olley": 9936, "uston": 9937, "Ġmusical": 9938, "Ġvariabile": 9939, "ĠTutte": 9940, "prilia": 9941, "ĠChan": 9942, "ggiati": 9943, "You": 9944, "Disco": 9945, "ĠPictures": 9946, "Lib": 9947, "riana": 9948, "Ġaumento": 9949, "ĠGonz": 9950, "Ġsotter": 9951, "egua": 9952, "giana": 9953, "rupp": 9954, "ĠFlorida": 9955, "ĠAlessandria": 9956, "Ġ*'''''": 9957, "osizioni": 9958, "ĠBianca": 9959, "IL": 9960, "hol": 9961, "Ġceduto": 9962, "Ġesempi": 9963, "ĠDub": 9964, "gole": 9965, "Ġvaluta": 9966, "ĠAth": 9967, "Ġsfu": 9968, "Ġsiti": 9969, "Sil": 9970, "forza": 9971, "ĠSystem": 9972, "Ġinteressi": 9973, "ĠJason": 9974, "ĠOliver": 9975, "Ġimprese": 9976, "ĠPower": 9977, "Ġversi": 9978, "Ġriuscirono": 9979, "Ġpend": 9980, "range": 9981, "amer": 9982, "ĠSamuel": 9983, "circa": 9984, "Ġfootball": 9985, "ĠCross": 9986, "Ġelettrico": 9987, "quista": 9988, "Ġrug": 9989, "ĠFame": 9990, "bs": 9991, "franco": 9992, "Ġcompor": 9993, "Ġdistingu": 9994, "Ġfiam": 9995, "Ã¤n": 9996, "ual": 9997, "Ġclassificato": 9998, "ĠFriedrich": 9999, "Aquila": 10000, "udia": 10001, "Ġlic": 10002, "Ġprogettato": 10003, "tenti": 10004, "Ġospit": 10005, "Ġtetto": 10006, "astica": 10007, "Ġcristiani": 10008, "1947": 10009, "ĠPÃ©": 10010, "ĠJordan": 10011, "Ġcilindri": 10012, "Ġprecis": 10013, "cre": 10014, "Ġgiornali": 10015, "Ġigno": 10016, "Ġchirur": 10017, "iva": 10018, "Ġopportun": 10019, "yes": 10020, "ĠLight": 10021, "Giovanni": 10022, "Ci": 10023, "Hz": 10024, "tainment": 10025, "sie": 10026, "Ġperdere": 10027, "Ġmusul": 10028, "Ġrisali": 10029, "Ġmul": 10030, "Ġbasa": 10031, "ĠMit": 10032, "Mod": 10033, "ĠMÃ©": 10034, "sin": 10035, "vico": 10036, "Ġga": 10037, "Ġanalisi": 10038, "Ġscand": 10039, "ctor": 10040, "Her": 10041, "Ġgamma": 10042, "Ġarrangia": 10043, "Ġdottr": 10044, "Ġdisper": 10045, "Par": 10046, "1946": 10047, "Ġgel": 10048, "ĠBrand": 10049, "ĠEvan": 10050, "ĠPir": 10051, "Ġrelativi": 10052, "Ġfamiliari": 10053, "Ġmerci": 10054, "Ġintrod": 10055, "IT": 10056, "Ġguar": 10057, "1936": 10058, "Ġcommissario": 10059, "ĠCampioni": 10060, "ansas": 10061, "pira": 10062, "upero": 10063, "Geo": 10064, "ĠVik": 10065, "Ġborg": 10066, "Ġchimica": 10067, "ĠSalerno": 10068, "Santa": 10069, "ĠPort": 10070, "ĠWer": 10071, "Egitto": 10072, "ĠJi": 10073, "ĠBernardo": 10074, "Ġghi": 10075, "tective": 10076, "ĠScon": 10077, "Ġmacchine": 10078, "gibile": 10079, "ĠCristina": 10080, "ĠSudafrica": 10081, "ĠZh": 10082, "Ġqualificazioni": 10083, "Ġritratto": 10084, "ĠGla": 10085, "Ġblocco": 10086, "Ġdens": 10087, "ĠVill": 10088, "Ġelevata": 10089, "Ġmaschio": 10090, "torali": 10091, "alogia": 10092, "BS": 10093, "ĠBowl": 10094, "Ġonline": 10095, "ĠSher": 10096, "''\",": 10097, "Ġeliminato": 10098, "Ġlarghe": 10099, "Bl": 10100, "Ġconseguente": 10101, "Ġrappresentanti": 10102, "Ġtorrente": 10103, "Ġinterc": 10104, "ĠMill": 10105, "Ġ1903": 10106, "Ġmuta": 10107, "ĠIo": 10108, "Ġzo": 10109, "ĠPesca": 10110, "effetto": 10111, "Ġcambiare": 10112, "ĠLud": 10113, "Ġjazz": 10114, "Ġmagne": 10115, "ĠCase": 10116, "Ġcinematografica": 10117, "Ġtipica": 10118, "Ġunita": 10119, "Ġcommemo": 10120, "Ġmattina": 10121, "ĠAlta": 10122, "Ġterrestre": 10123, "ÅĦ": 10124, "feld": 10125, "ĠStella": 10126, "ĠAqu": 10127, "Ġproduce": 10128, "ĠdivinitÃł": 10129, "chan": 10130, "corre": 10131, "Ġrisi": 10132, "tribuzione": 10133, "Ġriuscito": 10134, "Ġritrova": 10135, "Ġristo": 10136, "ĠPaola": 10137, "taggio": 10138, "occupazione": 10139, "Ġsuperare": 10140, "ÅŁ": 10141, "eman": 10142, "ĠCorporation": 10143, "stagione": 10144, "dalena": 10145, "ĠSarah": 10146, "Nel": 10147, "ĠTit": 10148, "Paul": 10149, "Ġfinisce": 10150, "Ġio": 10151, "Ġcono": 10152, "ufficio": 10153, "Ġvasta": 10154, "GC": 10155, "ettura": 10156, "ĠSydney": 10157, "acco": 10158, "Ġpuntate": 10159, "ĠRegia": 10160, "ellate": 10161, "Ġlaboratorio": 10162, "ush": 10163, "encia": 10164, "vana": 10165, "Ġcorris": 10166, "Ġvicini": 10167, "Ġconferma": 10168, "mbo": 10169, "ĠLen": 10170, "ĠDivisiÃ³n": 10171, "riglia": 10172, "ĠLetter": 10173, "Ga": 10174, "set": 10175, "ĠSound": 10176, "Ġpetro": 10177, "eschi": 10178, "Lato": 10179, "ĠElec": 10180, "dini": 10181, "ĠFol": 10182, "resciallo": 10183, "Ġpersi": 10184, "ĠCostantinopoli": 10185, "Ã¯": 10186, "1942": 10187, "Ġgla": 10188, "head": 10189, "1920": 10190, "Ġpotenti": 10191, "Ġconsiderati": 10192, "Bat": 10193, "Ġcomprendeva": 10194, "Ġ1901": 10195, "Ġspaziale": 10196, "ĠCambridge": 10197, "minato": 10198, "paggio": 10199, "riato": 10200, "Ġamicizia": 10201, "Ġabbat": 10202, "Ġsepara": 10203, "Squad": 10204, "Isola": 10205, "Ġpato": 10206, "Ġguidato": 10207, "Ġelevato": 10208, "anova": 10209, "rina": 10210, "Ġipotesi": 10211, "Ġconsoli": 10212, "cei": 10213, "Ġaria": 10214, "mont": 10215, "ĠApol": 10216, "Ġmitra": 10217, "ĠGT": 10218, "ingen": 10219, "ĠChristopher": 10220, "Ġcoraggio": 10221, "Ġsorpresa": 10222, "Tro": 10223, "mentale": 10224, "Ġricordare": 10225, "vori": 10226, "Ġdolore": 10227, "Ġmessaggio": 10228, "ĠAires": 10229, "\";": 10230, "sterdam": 10231, "dove": 10232, "Ġcavalli": 10233, "ĠGaribaldi": 10234, "Ġdivor": 10235, "terna": 10236, "ĠComo": 10237, "Ġmusiche": 10238, "Ġmeccanica": 10239, "ĠSÃ©": 10240, "ĠOvest": 10241, "Ġesterna": 10242, "mora": 10243, "Ġindividui": 10244, "Ġgiunge": 10245, "Ġcontava": 10246, "parti": 10247, "emix": 10248, "tretta": 10249, "Mas": 10250, "ĠBlan": 10251, "Ġ1902": 10252, "Ġprocla": 10253, "Singolare": 10254, "Ġstranieri": 10255, "Ġparl": 10256, "ĠPF": 10257, "ĠRussell": 10258, "sea": 10259, "Ġperdite": 10260, "ruzione": 10261, "Ġproposito": 10262, "ĠMatthe": 10263, "Gui": 10264, "Ġdate": 10265, "Ġfranchi": 10266, "Ġattenzione": 10267, "Ġdiventata": 10268, "Ġeditrice": 10269, "Ġka": 10270, "ĠIstituto": 10271, "Ġcavaliere": 10272, "Ġdestino": 10273, "ĠMoore": 10274, "Ġrimasta": 10275, "cky": 10276, "ĠDuomo": 10277, "Ġlegale": 10278, "Ġportano": 10279, "mad": 10280, "Ġinseg": 10281, "esordio": 10282, "Ġterreni": 10283, "Ġutile": 10284, "aller": 10285, "Ġindagini": 10286, "Ġcestista": 10287, "Ni": 10288, "ĠPuglia": 10289, "Due": 10290, "ĠBelle": 10291, "Pers": 10292, "zoni": 10293, "Ġcostellazione": 10294, "Ġrappresentata": 10295, "ĠColo": 10296, "tos": 10297, "Ġnottur": 10298, "Ġprocura": 10299, "ccare": 10300, "ĠvirtÃ¹": 10301, "ession": 10302, "Ġmonete": 10303, "Honda": 10304, "Ġcrimin": 10305, "cuno": 10306, "ussione": 10307, "Miss": 10308, "impresa": 10309, "Ġgeomet": 10310, "Cos": 10311, "Ġriconos": 10312, "Ġimpossi": 10313, "colÃ²": 10314, "ĠPraga": 10315, "Ġvendetta": 10316, "Ġossi": 10317, "Ġinserita": 10318, "ĠCile": 10319, "ĠSea": 10320, "Ġallesti": 10321, "Ġlarga": 10322, "ĠNad": 10323, "Ġlegitti": 10324, "ĠInstitute": 10325, "entin": 10326, "Ġminer": 10327, "Ġpartiti": 10328, "Ġlibre": 10329, "xy": 10330, "IM": 10331, "Tot": 10332, "à¤": 10333, "Ġrettan": 10334, "load": 10335, "Ġriprende": 10336, "Ġraggiungendo": 10337, "Ġlettura": 10338, "1938": 10339, "ĠDipartimento": 10340, "ĠRet": 10341, "Ġbic": 10342, "Ġadi": 10343, "Ġistituzioni": 10344, "Ben": 10345, "ĠGram": 10346, "fre": 10347, "ĠFiat": 10348, "anima": 10349, "1941": 10350, "Ġincarico": 10351, "ĠFem": 10352, "Ġbocca": 10353, "ĠAf": 10354, "Ġrifugio": 10355, "ĠCappella": 10356, "Ġbelga": 10357, "Ġconser": 10358, "ĠBeach": 10359, "ĠAh": 10360, "ĠNovara": 10361, "Ġadia": 10362, "Ġindipendenti": 10363, "immagini": 10364, "fred": 10365, "Ġeconomiche": 10366, "Ġistituito": 10367, "teo": 10368, "seo": 10369, "Ġconquistare": 10370, "ĠKle": 10371, "Ġguidata": 10372, "Vene": 10373, "Ġprofilo": 10374, "ĠAdriano": 10375, "Ġcogn": 10376, "hou": 10377, "Ġ1848": 10378, "Ġfedeli": 10379, "ĠColonna": 10380, "Ġarcheologici": 10381, "1916": 10382, "Ġeditore": 10383, "Ġsemplici": 10384, "Ġrientra": 10385, "Ġtv": 10386, "Ġ130": 10387, "ĠCharlie": 10388, "Ġnostra": 10389, "ĠColumbia": 10390, "ĠScienze": 10391, "ĠEinaudi": 10392, "Ġcorse": 10393, "Ġtraguardo": 10394, "Ġeser": 10395, "sioni": 10396, "Ġlimit": 10397, "Ġdeputato": 10398, "Ġattuali": 10399, "empio": 10400, "Ġcategorie": 10401, "ĠCentral": 10402, "ĠTig": 10403, "ĠTerza": 10404, "famiglia": 10405, "kel": 10406, "LC": 10407, "arne": 10408, "Ġriviste": 10409, "Ġnostro": 10410, "Ġyard": 10411, "amiche": 10412, "ĠKris": 10413, "ĠAlfredo": 10414, "ĠCultura": 10415, "pest": 10416, "ĠCampania": 10417, "Ġ105": 10418, "Ġpermettere": 10419, "Ġtrasferta": 10420, "ĠHong": 10421, "pel": 10422, "ritorno": 10423, "Ġuguale": 10424, "Ġaltret": 10425, "Ġsostiene": 10426, "Ġsponsor": 10427, "ĠPart": 10428, "indipendenza": 10429, "ĠCN": 10430, "erienze": 10431, "Ġcorrispondente": 10432, "Ã©ra": 10433, "ĠGreat": 10434, "Ġeffettuare": 10435, "Ġspagnoli": 10436, "Ġballo": 10437, "grazione": 10438, "Ġappassion": 10439, "Ġimpianto": 10440, "rre": 10441, "ĠLine": 10442, "Ġcasal": 10443, "Ġintellet": 10444, "usso": 10445, "ĠRol": 10446, "Ġpale": 10447, "Char": 10448, "Ġdisciplina": 10449, "ĠLake": 10450, "1937": 10451, "Ġsani": 10452, "ĠCit": 10453, "gamente": 10454, "ĠdedicÃ²": 10455, "Ġtrasferita": 10456, "Ġritar": 10457, "Ġfacile": 10458, "Ġformazioni": 10459, "ĠSuo": 10460, "ĠKam": 10461, "ĠHand": 10462, "ĠCastell": 10463, "1935": 10464, "ĠNig": 10465, "ĠOrgani": 10466, "ĠFC": 10467, "Ġpersonali": 10468, "Ġparzialmente": 10469, "ĠGiancarlo": 10470, "Ġvig": 10471, "Ġsottospecie": 10472, "ĠMid": 10473, "ĠseguÃ¬": 10474, "Ġcontrasto": 10475, "Ġcavalleria": 10476, "Ġcompletato": 10477, "Ġscambio": 10478, "Ġtill": 10479, "Ġagi": 10480, "Ġrelative": 10481, "parto": 10482, "ĠRiconoscimenti": 10483, "venne": 10484, "Ġarm": 10485, "Ġlig": 10486, "Ġoccidentali": 10487, "angu": 10488, "Ġecce": 10489, "Ġulteriore": 10490, "Ġgiudizio": 10491, "testo": 10492, "ĠAga": 10493, "ĠReno": 10494, "bos": 10495, "Ġtensione": 10496, "cis": 10497, "ĠBron": 10498, "ĠSera": 10499, "Ã¤r": 10500, "Ġcorrispon": 10501, "Ġapr": 10502, "fice": 10503, "tensione": 10504, "Ġcra": 10505, "evano": 10506, "Ġpubbliche": 10507, "Ġdiviene": 10508, "Ġsegn": 10509, "'m": 10510, "Ġentrato": 10511, "ĠOriente": 10512, "ĠBarb": 10513, "ĠDead": 10514, "ĠStefan": 10515, "Ġislam": 10516, "Ġmu": 10517, "Ġtanti": 10518, "And": 10519, "ĠMoon": 10520, "Ġsasso": 10521, "ĠciviltÃł": 10522, "vezza": 10523, "Ġsab": 10524, "Ġvigore": 10525, "Ġraffor": 10526, "inverno": 10527, "alizione": 10528, "Top": 10529, "biettivi": 10530, "antic": 10531, "Ġfrase": 10532, "infanzia": 10533, "dom": 10534, "ĠEntertainment": 10535, "Ġtentativi": 10536, "à¸": 10537, "Ġsuona": 10538, "Ġseguendo": 10539, "ĠArte": 10540, "Ġatleti": 10541, "rami": 10542, "FI": 10543, "ĠSingolare": 10544, "aggi": 10545, "dea": 10546, "Ju": 10547, "zine": 10548, "Ġfallimento": 10549, "Ġnotevolmente": 10550, "rne": 10551, "ĠEmma": 10552, "bino": 10553, "Lar": 10554, "Îµ": 10555, "DC": 10556, "Ġconven": 10557, "tenente": 10558, "ĠSalto": 10559, "Ġcoinvolto": 10560, "ĠMarsi": 10561, "ĠBarry": 10562, "ĠField": 10563, "ĠCres": 10564, "bourne": 10565, "ampe": 10566, "Ġcelebri": 10567, "ĠUCL": 10568, "Ġguadagna": 10569, "ĠBet": 10570, "Ġvincitrice": 10571, "lette": 10572, "aereo": 10573, "ĠWy": 10574, "Ġpena": 10575, "ii": 10576, "albero": 10577, "ĠMeg": 10578, "Ġdifferenze": 10579, "Ġnucleare": 10580, "base": 10581, "Ġnomin": 10582, "sitÃł": 10583, "BM": 10584, "nese": 10585, "Ġarmato": 10586, "lation": 10587, "orror": 10588, "italiano": 10589, "Ġattre": 10590, "nita": 10591, "ĠFro": 10592, "Leg": 10593, "Ġsegreti": 10594, "omicidio": 10595, "ĠContin": 10596, "ĠNero": 10597, "Ġarrivo": 10598, "mund": 10599, "Ġvivono": 10600, "Ġdimenti": 10601, "Ġdeputati": 10602, "Ġaccol": 10603, "Ġfiumi": 10604, "box": 10605, "Ġcrede": 10606, "Ġprofessionista": 10607, "ĠFle": 10608, "ĠShin": 10609, "phe": 10610, "Ġrappresentano": 10611, "anc": 10612, "ĠSerge": 10613, "Ġfila": 10614, "ĠCanton": 10615, "gran": 10616, "ĠMino": 10617, "Ġelettron": 10618, "Ġchio": 10619, "Ġlaterale": 10620, "Ġcoppa": 10621, "Ġconquistato": 10622, "ĠRaffaele": 10623, "ĠLast": 10624, "Australia": 10625, "ĠLista": 10626, "Ġvenire": 10627, "Ġ04": 10628, "Ġnobil": 10629, "Ġquat": 10630, "ĠCorona": 10631, "atherine": 10632, "ittente": 10633, "esecuzione": 10634, "ĠMuss": 10635, "gara": 10636, "Station": 10637, "Ġsaggio": 10638, "Ġfiducia": 10639, ".).": 10640, "Ġlomb": 10641, "Ġdovevano": 10642, "Ġemer": 10643, "Ġinsegnante": 10644, "tilitÃł": 10645, "ĠOver": 10646, "cks": 10647, "Ġspettatori": 10648, "Ġpesce": 10649, "1918": 10650, "Red": 10651, "Ġilleg": 10652, "Ġcoppe": 10653, "ĠVincent": 10654, "Ġorizzon": 10655, "time": 10656, "ĠMitch": 10657, "ĠImpero": 10658, "ĠBoys": 10659, "Ġscapp": 10660, "gionale": 10661, "esis": 10662, "ĠâĪĴ": 10663, "1934": 10664, "ĠFeli": 10665, "ĠMaster": 10666, "rastrutture": 10667, "vincolato": 10668, "ĠAcademy": 10669, "Ġsoggior": 10670, "ĠPremier": 10671, "Ġtotalmente": 10672, "Ġvissuto": 10673, "Ġdefinitivo": 10674, "Ġscoprire": 10675, "ilet": 10676, "ĠFall": 10677, "ĠAmministrazione": 10678, "Bri": 10679, "Ġneri": 10680, "appro": 10681, "Cat": 10682, "Ġcada": 10683, "Ġtext": 10684, "enatori": 10685, "âĢł": 10686, "Ġbersa": 10687, "Ġaumentare": 10688, "eros": 10689, "Ġpoesie": 10690, "Ġpensare": 10691, "esel": 10692, "lava": 10693, "Ġrecupero": 10694, "rutta": 10695, "lova": 10696, "universo": 10697, "ĀĀĀĀĀĀĀĀĀĀĀĀĀĀĀĀ": 10698, "Ġguardi": 10699, "Ġsostenuto": 10700, "Ġriven": 10701, "Ġclassificate": 10702, "verÃł": 10703, "Ori": 10704, "TM": 10705, "ĠidentitÃł": 10706, "etre": 10707, "Ġarchitettura": 10708, "ĠHugh": 10709, "ĠOk": 10710, "urano": 10711, "Ġveget": 10712, "Ġluna": 10713, "Ġclan": 10714, "vegli": 10715, "usei": 10716, "Ġiniziata": 10717, "ĠNikola": 10718, "view": 10719, "ĠVietnam": 10720, "ĠMaestro": 10721, "icola": 10722, "ÄĽ": 10723, "ĠFun": 10724, "otel": 10725, "ficano": 10726, "Ġesistente": 10727, "endola": 10728, "Ġpodio": 10729, "Ġsettimo": 10730, "Ġospite": 10731, "ĠUK": 10732, "Ġcostruiti": 10733, "Ġcento": 10734, "Ġnecessaria": 10735, "onie": 10736, "Ġ03": 10737, "ĠWind": 10738, "Ġlimiti": 10739, "ĠPasquale": 10740, "ĠHum": 10741, "Ġinsetti": 10742, "Ġ180": 10743, "Esercito": 10744, "ĠSL": 10745, "antes": 10746, "berti": 10747, "ĠprossimitÃł": 10748, "Ġdiagn": 10749, "Ġprivati": 10750, "Ġrecuperare": 10751, "ship": 10752, "ĠMiami": 10753, "ĠGary": 10754, "Ġpesi": 10755, "ĠAbra": 10756, "ĠMura": 10757, "ĠMorgan": 10758, "Ġaffid": 10759, "ĠEva": 10760, "ĠGino": 10761, "ĠEdizione": 10762, "ĠRang": 10763, "Ric": 10764, "SocietÃł": 10765, "ĠHon": 10766, "Ġstradale": 10767, "formazione": 10768, "Ġcambiamento": 10769, "importanza": 10770, "Ġbarone": 10771, "Ġfiglie": 10772, "ĠVito": 10773, "Ġarro": 10774, "Ġevidente": 10775, "Ġtestimonianza": 10776, "alizzare": 10777, "Ġcinematografico": 10778, "ĠPersonaggi": 10779, "ttÃ²": 10780, "ggono": 10781, "Ġarticolo": 10782, "wasaki": 10783, "1930": 10784, "Ġcause": 10785, "inglese": 10786, "Ġriforni": 10787, "Ġ1895": 10788, "St": 10789, "ĠMira": 10790, "ĠScala": 10791, "Ġarbit": 10792, "ĠGeorgia": 10793, "dan": 10794, "tom": 10795, "Ġprobabile": 10796, "vedi": 10797, "Ġscudo": 10798, "mila": 10799, "ĠRun": 10800, "Ġcalcistica": 10801, "ĠBanca": 10802, "Ġpazienti": 10803, "ĠCarter": 10804, "eration": 10805, "ĠIan": 10806, "garia": 10807, "Ġdottor": 10808, "cidi": 10809, "Ġripa": 10810, "Ġgrosso": 10811, "vari": 10812, "less": 10813, "Ġelettronica": 10814, "Ġfemmina": 10815, "tona": 10816, "oles": 10817, "ĠMedaglia": 10818, "trando": 10819, "Ġflusso": 10820, "Ġinaugurato": 10821, "'.": 10822, "jamin": 10823, "Ġvideogiochi": 10824, "ĠfacoltÃł": 10825, "Ġcinesi": 10826, "nio": 10827, "Ġfattori": 10828, "piego": 10829, "Ġante": 10830, "ĠdovrÃł": 10831, "endone": 10832, "ĠDev": 10833, "mosfera": 10834, "Ġdirige": 10835, "Ġ1898": 10836, "ĠAllo": 10837, "ĠVictoria": 10838, "Ġmisto": 10839, "glienza": 10840, "Ġdimostrato": 10841, "Ġeretta": 10842, "Ġlavoratori": 10843, "Ġsegni": 10844, "ĠVecchio": 10845, "Ol": 10846, "Ġricordo": 10847, "Ġintende": 10848, "umanitÃł": 10849, "Ġmodella": 10850, "Ġpubblicazioni": 10851, "utando": 10852, "Ġpul": 10853, "Ġridotta": 10854, "Ġsoddisf": 10855, "Nomination": 10856, "Ġcapire": 10857, "Ġparente": 10858, "ĠJerry": 10859, "ĠCorn": 10860, "Ġperdendo": 10861, "ĠMora": 10862, "Ġconfronto": 10863, "Ġtranne": 10864, "epi": 10865, "ĠstabilÃ¬": 10866, "top": 10867, "ils": 10868, "Ġmito": 10869, "racusa": 10870, "ciÃ³n": 10871, "assass": 10872, "ĠCR": 10873, "Ġesperienze": 10874, "Ġtelef": 10875, "Ġ1890": 10876, "Ġbattendo": 10877, "ĠCO": 10878, "osh": 10879, "Ġeseguita": 10880, "ĠDOC": 10881, "ĠHerbert": 10882, "ĠGine": 10883, "ĠLlo": 10884, "ĠGale": 10885, "alie": 10886, "hie": 10887, "It": 10888, "varsi": 10889, "Ã®": 10890, "Ġesseri": 10891, "Ġconclusione": 10892, "Ġfinestra": 10893, "ĠCooper": 10894, "Ġmisure": 10895, "Ġtornato": 10896, "ĠPaper": 10897, "ĠGames": 10898, "Ġcontrollare": 10899, "Ġintelli": 10900, "Ġsperanza": 10901, "verse": 10902, "Terra": 10903, "Ġbritanniche": 10904, "Ġdevo": 10905, "Ġagente": 10906, "ĠKÃ¶": 10907, "Ġcugino": 10908, "ĠArts": 10909, "Ġfinestre": 10910, "Ġfantascienza": 10911, "pata": 10912, "Ġchiuse": 10913, "cera": 10914, "hal": 10915, "Ġprevista": 10916, "Premi": 10917, "Ġdors": 10918, "Ġspese": 10919, "ĠParker": 10920, "Ġvapore": 10921, "Ġnotevoli": 10922, "Ġpraticamente": 10923, "Ġuccider": 10924, "Ġvoluto": 10925, "atra": 10926, "etz": 10927, "ĠFriuli": 10928, "dimir": 10929, "presidente": 10930, "dicesimo": 10931, "Ġstabilito": 10932, "Ġrelativo": 10933, "Ġpon": 10934, "Ġpug": 10935, "ĠAltro": 10936, "1931": 10937, "Ġbinari": 10938, "Ġfia": 10939, "Ġyo": 10940, "Ġdecorazione": 10941, "ĠPiacenza": 10942, "cura": 10943, "Ġcoinci": 10944, "1911": 10945, "ggiano": 10946, "importante": 10947, "ĠPetro": 10948, "hon": 10949, "900": 10950, "Ġvecchi": 10951, "ĠdiventÃ²": 10952, "ĠAch": 10953, "ĠGiocatore": 10954, "Giuseppe": 10955, "pali": 10956, "zare": 10957, "Ġcollina": 10958, "Ġgrafica": 10959, "Ġtonn": 10960, "ĠAmsterdam": 10961, "Ġambientati": 10962, "pta": 10963, "ĠBom": 10964, "emis": 10965, "Ġridurre": 10966, "ĠComunitÃł": 10967, "Parti": 10968, "ĠAgn": 10969, "Ġadulti": 10970, "1933": 10971, "Ġfermata": 10972, "Ġsacche": 10973, "Ġallar": 10974, "gruppo": 10975, "iness": 10976, "Ġsaga": 10977, "ĠMercedes": 10978, "1932": 10979, "Ġdomanda": 10980, "Ġstudiato": 10981, "fficiale": 10982, "ĠMiguel": 10983, "Ġmontagne": 10984, "Ġfinire": 10985, "xelles": 10986, "ĠaffinchÃ©": 10987, "itando": 10988, "Ġdecidono": 10989, "Ġsportivi": 10990, "itore": 10991, "EG": 10992, "Ġminuto": 10993, "erma": 10994, "Ġaffidato": 10995, "pora": 10996, "Pari": 10997, "Ġresidenti": 10998, "ĠAllenatore": 10999, "Ġrinasci": 11000, "orough": 11001, "rell": 11002, "Ġcanali": 11003, "unte": 11004, "Ġproteggere": 11005, "Ġmoda": 11006, "Ġtown": 11007, "ziata": 11008, "ĠPiano": 11009, "ĠFlor": 11010, "Ġposizion": 11011, "americano": 11012, "Ġesecuti": 11013, "ĠBuenos": 11014, "1917": 11015, "Ġbened": 11016, "Ġirlandese": 11017, "ĠNomination": 11018, "Ġcostumi": 11019, "yon": 11020, "ziato": 11021, "Ġsupre": 11022, "chez": 11023, "Ġpolizio": 11024, "rori": 11025, "âĢľ": 11026, "Ġfascista": 11027, "Ġpercen": 11028, "shire": 11029, "ĠNelson": 11030, "ĠTreviso": 11031, "ĠBlues": 11032, "ĠInsieme": 11033, "Ġreggimento": 11034, "porti": 11035, "garet": 11036, "Ġbianche": 11037, "zzino": 11038, "ĠMeri": 11039, "ĠBank": 11040, "urgo": 11041, "colata": 11042, "Ġprototipo": 11043, "Ġcran": 11044, "Maria": 11045, "ĠBuda": 11046, "Ġspettacoli": 11047, "Ġcucina": 11048, "gos": 11049, "Ġveste": 11050, "viamo": 11051, "Ġorganizzazioni": 11052, "Ġvica": 11053, "Ġlavorazione": 11054, "ĠLater": 11055, "Ali": 11056, "ĠOlimpiade": 11057, "Ġsugg": 11058, "gal": 11059, "Ġtecnici": 11060, "Ġattesa": 11061, "Ġungherese": 11062, "Ġassumere": 11063, "Ġavversari": 11064, "ĠMunici": 11065, "Ġletteraria": 11066, "Ġrango": 11067, "1944": 11068, "Ġdeposi": 11069, "ĠWho": 11070, "ĠCher": 11071, "Ġcambiamenti": 11072, "Ġgalleria": 11073, "Ġcatalogo": 11074, "ande": 11075, "Ġcondotti": 11076, "dier": 11077, "Ġscritte": 11078, "ĠHitler": 11079, "piro": 11080, "Ġ1861": 11081, "TC": 11082, "Ġoccupato": 11083, "ĠEugenio": 11084, "genito": 11085, "Ġattribuito": 11086, "town": 11087, "ĠGiovanna": 11088, "\"'''": 11089, "Ġpriva": 11090, "Ġriuni": 11091, "Ġformano": 11092, "ĠLim": 11093, "ĠJess": 11094, "ĠKre": 11095, "ĠMonza": 11096, "ĠDemocrazia": 11097, "mobile": 11098, "ĠDeut": 11099, "espettatori": 11100, "Ġqualunque": 11101, "odici": 11102, "Ġsemifinali": 11103, "Ġricorr": 11104, "Ġaspetta": 11105, "Ford": 11106, "dige": 11107, "Ġeffettuato": 11108, "Ġannuale": 11109, "Ġmigliaia": 11110, "organo": 11111, "Palazzo": 11112, "Ġbellezza": 11113, "etty": 11114, "Ġpopoli": 11115, "Ġliberazione": 11116, "Wal": 11117, "voro": 11118, "tecn": 11119, "Ġtende": 11120, "ĠRapp": 11121, "Ġmedesimo": 11122, "erebbe": 11123, "Ġscozzese": 11124, "ĠStudios": 11125, "ĠRag": 11126, "ĠFamiglia": 11127, "Ġresp": 11128, "ĠVisconti": 11129, "ĠAlto": 11130, "ĠSla": 11131, "ĠBass": 11132, "ĠSerra": 11133, "ĠRepubbli": 11134, "Ġsostenere": 11135, "ĠSlam": 11136, "ĠHanno": 11137, "Ġapostolico": 11138, "Ġmercanti": 11139, "pos": 11140, "Ġprofondo": 11141, "incol": 11142, "Ġschier": 11143, "ĠLisa": 11144, "ymond": 11145, "Ġlocomo": 11146, "Ġseguita": 11147, "Ġtrama": 11148, "Big": 11149, "ĠPt": 11150, "sei": 11151, "Ġesemplare": 11152, "zaga": 11153, "ights": 11154, "CittÃł": 11155, "Ġsportive": 11156, "Ġsap": 11157, "ĠHarris": 11158, "ĠritirÃ²": 11159, "Ø§": 11160, "ĠrealizzÃ²": 11161, "Ġtabella": 11162, "Ġscaten": 11163, "isso": 11164, "Ġcircolare": 11165, "Ġeseguire": 11166, "Ġved": 11167, "Ġcattolici": 11168, "Ġdibatti": 11169, "Ġdiscesa": 11170, "gici": 11171, "Ġvideoclip": 11172, "ĠReich": 11173, "Ġingresso": 11174, "ĠStri": 11175, "Ġamica": 11176, "ĠBasilica": 11177, "Bill": 11178, "Ġadottato": 11179, "petto": 11180, "Em": 11181, "ggiÃ²": 11182, "Ġ1870": 11183, "Ġscoppio": 11184, "ciale": 11185, "ĠArc": 11186, "ĠLucas": 11187, "Ġnormalmente": 11188, "Ġapplicazioni": 11189, "ĠWoman": 11190, "Ġmanifestazioni": 11191, "Ġsalvo": 11192, "inanze": 11193, "ĠavrÃł": 11194, "ĠMonumenti": 11195, "Ġimprendi": 11196, "Ġpseud": 11197, "equipaggio": 11198, "Ġstraniere": 11199, "Ġnostri": 11200, "nd": 11201, "Ġotta": 11202, "ĠLug": 11203, "Europe": 11204, "Ġsperimenta": 11205, "assato": 11206, "Francesco": 11207, "ulto": 11208, "Ġprogettazione": 11209, "ĠBud": 11210, "Ġcompresi": 11211, "Ġcantata": 11212, "Alessand": 11213, "ĠChrist": 11214, "Ġmonaci": 11215, "iata": 11216, "ĠLuogo": 11217, "ecco": 11218, "ĠBianchi": 11219, "ĠBobby": 11220, "Ġdipl": 11221, "ĠMand": 11222, "terie": 11223, "Ġdeco": 11224, "Ġinno": 11225, "ferno": 11226, "Rad": 11227, "Villa": 11228, "detti": 11229, "Ġortod": 11230, "Ġproposto": 11231, "anello": 11232, "ciando": 11233, "Ġcomanda": 11234, "ĠEccellenza": 11235, "Formazione": 11236, "ĠNatur": 11237, "Ġmori": 11238, "erare": 11239, "Ġvisibili": 11240, "Ġ1896": 11241, "Ġclassici": 11242, "ĠTipo": 11243, "Ġveicolo": 11244, "Ġruote": 11245, "bine": 11246, "Ġpossed": 11247, "tersi": 11248, "ĠBea": 11249, "ĠClasse": 11250, "Ġinsta": 11251, "Ġpesci": 11252, "Ġrimasero": 11253, "ĠGl": 11254, "autunno": 11255, "ĠWayne": 11256, "enore": 11257, "wald": 11258, "ĠcercÃ²": 11259, "Best": 11260, "ĠStewart": 11261, "ĠCostituzione": 11262, "Ġbotan": 11263, "ilibrio": 11264, "Ġvar": 11265, "ĠlÃł": 11266, "Ġriass": 11267, "ĠEver": 11268, "ponimo": 11269, "ĠFr": 11270, "Ġpsich": 11271, "Ġduo": 11272, "Ġdistruggere": 11273, "Ġcritici": 11274, "ĠOrdine": 11275, "Ġretrocessione": 11276, "Ġlenta": 11277, "oke": 11278, "arl": 11279, "emy": 11280, "riere": 11281, "nea": 11282, "Ġperformance": 11283, "Ġrussi": 11284, "nico": 11285, "Ġanimata": 11286, "ĠRavenna": 11287, "Ġmanager": 11288, "1919": 11289, "olly": 11290, "Ġraccolte": 11291, "ĠHend": 11292, "cs": 11293, "light": 11294, "AV": 11295, "zone": 11296, "Ġobiettivi": 11297, "ĠCorrado": 11298, "ĠJuventus": 11299, "vard": 11300, "Ġcriminale": 11301, "Ġvarianti": 11302, "ollo": 11303, "ĠSantiago": 11304, "Ġprofessionale": 11305, "Ġvelivolo": 11306, "Ġvetta": 11307, "Ġarmati": 11308, "ĠFort": 11309, "ĠSei": 11310, "Ġfeudo": 11311, "ĠdensitÃł": 11312, "Ġcere": 11313, "ĠKings": 11314, "eliqu": 11315, "Ġbrasiliano": 11316, "Ġnorvegese": 11317, "erte": 11318, "Ġorientali": 11319, "ĠMetropoli": 11320, "Ġsvaria": 11321, "Ġmitologia": 11322, "ĠCompetizioni": 11323, "Ġesistenti": 11324, "ĠGalles": 11325, "ĠQueen": 11326, "ĠMalta": 11327, "Ġspara": 11328, "Ġcollana": 11329, "ĠPoichÃ©": 11330, "ĠRosario": 11331, "Ġfatte": 11332, "Ġpreliminare": 11333, "ĠMoz": 11334, "Ġesponenti": 11335, "Ġmagia": 11336, "Ġcolonia": 11337, "pirazione": 11338, "Ġsufficiente": 11339, "Ġpermise": 11340, "Ġfilosofo": 11341, "ĠDion": 11342, "ady": 11343, "ĠBerg": 11344, "ucch": 11345, "ĠuniversitÃł": 11346, "ĠRicci": 11347, "dar": 11348, "zzar": 11349, "bes": 11350, "ĠEddie": 11351, "helm": 11352, "DE": 11353, "Ġmotocic": 11354, "Ġfornisce": 11355, "ĠBasket": 11356, "Ġpistola": 11357, "tua": 11358, "due": 11359, "Ġmomenti": 11360, "Ġrimpia": 11361, "Stra": 11362, "uzzi": 11363, "pool": 11364, "Ġcostruite": 11365, "Ġsfrutta": 11366, "ĠPacifico": 11367, "rial": 11368, "Ġindis": 11369, "Ġpagamento": 11370, "ĠMara": 11371, "ĠMarshall": 11372, "Ġdecre": 11373, "Ġvetro": 11374, "ier": 11375, "coppa": 11376, "Ġvegeta": 11377, "diale": 11378, "bbie": 11379, "Ġospiti": 11380, "Ġrefer": 11381, "ĠCarra": 11382, "ĠBac": 11383, "Ġpiede": 11384, "Ġnonno": 11385, "giorno": 11386, "ĠSiracusa": 11387, "Ġub": 11388, "otti": 11389, "Ġapparizione": 11390, "viglia": 11391, "boy": 11392, "Ġsottoline": 11393, "Ġauton": 11394, "Ġpresidenza": 11395, "Ġrichieste": 11396, "ĠGrant": 11397, "Ġsesta": 11398, "Ġscorre": 11399, "BI": 11400, "kai": 11401, "ĠToronto": 11402, "Ġcavalieri": 11403, "ĠterminÃ²": 11404, "Ġzampe": 11405, "Ġtradizioni": 11406, "Ġvampi": 11407, "Ġcostituiscono": 11408, "Ġdeterminato": 11409, "ĠGior": 11410, "ĠVaticano": 11411, "Ġstrettamente": 11412, "ular": 11413, "Ġscultura": 11414, "Ġrito": 11415, "ĠQuindi": 11416, "ĠBook": 11417, "py": 11418, "Ġforeste": 11419, "licazione": 11420, "Ġaggiornate": 11421, "ĠThor": 11422, "Ġtrattava": 11423, "Fe": 11424, "ĠUngheria": 11425, "Ġprivo": 11426, "Ġoma": 11427, "lla": 11428, "ĠBase": 11429, "ipotesi": 11430, "Ġimpegnato": 11431, "fio": 11432, "star": 11433, "valente": 11434, "egnano": 11435, "crisse": 11436, "Ġerede": 11437, "Ġrappresentare": 11438, "Ġsuonare": 11439, "ĠPoi": 11440, "ugoslavia": 11441, "ĠBil": 11442, "giu": 11443, "Ġavvocato": 11444, "ĠAncona": 11445, "Ġpunte": 11446, "ĠSyl": 11447, "ilettanti": 11448, "Ġprofonda": 11449, "Ġcommission": 11450, "Ġutenti": 11451, "ĠIT": 11452, "Ġconsiderazione": 11453, "Ġmalattie": 11454, "urus": 11455, "ĠCroazia": 11456, "ĠChild": 11457, "Ġricevere": 11458, "pt": 11459, "ĠCharlo": 11460, "Ġorganizzazione": 11461, "Ġdecorazioni": 11462, "onic": 11463, "ĠKor": 11464, "Ġ****": 11465, "tice": 11466, "Ġdivise": 11467, "Ep": 11468, "lov": 11469, "Ġromane": 11470, "Ġparlamentare": 11471, "Ġdistrutta": 11472, "700": 11473, "Ġgiornate": 11474, "Ġtif": 11475, "Ġrisolvere": 11476, "Ġtracciato": 11477, "Ġprolun": 11478, "Ġpreghi": 11479, "Ġsostanze": 11480, "trÃł": 11481, "ĠKy": 11482, "Ġchiude": 11483, "tation": 11484, "Ġdipende": 11485, "ĠGab": 11486, "Sam": 11487, "ĠFitz": 11488, "sim": 11489, "Nazionale": 11490, "anzi": 11491, "ject": 11492, "Ġschema": 11493, "burgh": 11494, "hat": 11495, "Ġdispera": 11496, "ĠCinqu": 11497, "Ġ1880": 11498, "ĠSebastiano": 11499, "ĠNavy": 11500, "Ġbonus": 11501, "Ġsinteti": 11502, "ĠPhilip": 11503, "editÃł": 11504, "istori": 11505, "bla": 11506, "gari": 11507, "Br": 11508, "ĠVerso": 11509, "articolo": 11510, "Ġurbano": 11511, "Ġæ": 11512, "ĠJosh": 11513, "JPG": 11514, "ĠIsabella": 11515, "Ġuova": 11516, "atrici": 11517, "bba": 11518, "ditÃł": 11519, "Ġpesca": 11520, "ĠFair": 11521, "lish": 11522, "Ġafro": 11523, "ĠLucca": 11524, "Ġsotterran": 11525, "Ġsviluppare": 11526, "book": 11527, "Ġcircola": 11528, "villa": 11529, "Ġaggiunta": 11530, "Ġ1899": 11531, "ĠAdams": 11532, "ĠGabriel": 11533, "Ġsacra": 11534, "ĠPlayStation": 11535, "Ġconce": 11536, "ĠWars": 11537, "ĠDeath": 11538, "Ġsuddiviso": 11539, "autori": 11540, "ĠBerna": 11541, "Ġroves": 11542, "Ġspirituale": 11543, "raeli": 11544, "ĠGot": 11545, "Ġinti": 11546, "Ġconcentra": 11547, "Ġordinato": 11548, "ĠAvi": 11549, "hir": 11550, "Ġdivennero": 11551, "onora": 11552, "ĠLei": 11553, "ĠTimes": 11554, "Ġmartire": 11555, "Ġreparti": 11556, "ymph": 11557, "ĠBruxelles": 11558, "ĠEditrice": 11559, "ĠDonald": 11560, "Ġpolacco": 11561, "ĠHein": 11562, "ĠConference": 11563, "1929": 11564, "Ġmilanese": 11565, "initÃł": 11566, "erlo": 11567, "Ġsviluppata": 11568, "ĠDario": 11569, "Ġboschi": 11570, "ĠChurch": 11571, "ĠGinevra": 11572, "Ġindietro": 11573, "Ġqualcuno": 11574, "Ã±o": 11575, "Ġentrata": 11576, "ĠBerlin": 11577, "ĠGilbert": 11578, "Ġendem": 11579, "Ġripri": 11580, "ĠpopolaritÃł": 11581, "Ġproduttori": 11582, "Ġimpon": 11583, "nati": 11584, "Ġfondamentali": 11585, "ĠTaranto": 11586, "Ĥ¬": 11587, "ĠPechino": 11588, "ĠDean": 11589, "Ġrimangono": 11590, "Ġdefinisce": 11591, "Ġcentinaia": 11592, "Äģn": 11593, "Vita": 11594, "Ġanzi": 11595, "rim": 11596, "Ġfenomeni": 11597, "Ġcambiato": 11598, "Ġ1897": 11599, "Ġrichiede": 11600, "Ġserve": 11601, "Ġsente": 11602, "Ġfamiliare": 11603, "Ġdimissioni": 11604, "Ġcontinuo": 11605, "ĠLÃ©": 11606, "Ġbit": 11607, "Ġpone": 11608, "ĠAposto": 11609, "porre": 11610, "nier": 11611, "ĠWater": 11612, "errato": 11613, "ĠordinÃ²": 11614, "uoco": 11615, "letti": 11616, "Ġcontinentali": 11617, "ĠNess": 11618, "ĠBryan": 11619, "ĠConti": 11620, "Ġscuro": 11621, "rome": 11622, "ducendo": 11623, "Del": 11624, "ĠCourt": 11625, "ĠParad": 11626, "Ġsostituire": 11627, "ĠEth": 11628, "Ġindividuali": 11629, "ĠPelle": 11630, "ĠAS": 11631, "ĠOber": 11632, "ritto": 11633, "ĠPot": 11634, "ĠrifiutÃ²": 11635, "Ġrotta": 11636, "ĠFish": 11637, "LP": 11638, "gang": 11639, "weet": 11640, "ĠNam": 11641, "ĠWarner": 11642, "Ġartificiale": 11643, "ĠBec": 11644, "ĠTerzo": 11645, "ĠSpring": 11646, "Ġdeserto": 11647, "Ġvisse": 11648, "Ġpann": 11649, "Ġmigliorare": 11650, "ĠOre": 11651, "ĠFortun": 11652, "Vic": 11653, "Ġrimanendo": 11654, "alti": 11655, "MP": 11656, "Ġnetta": 11657, "Ġsoccorso": 11658, "Ġfati": 11659, "Ġvedova": 11660, "ĠCl": 11661, "ĠMoro": 11662, "alata": 11663, "Galleria": 11664, "Ġsommer": 11665, "ĠVes": 11666, "Ġimpri": 11667, "ĠBrigata": 11668, "Ġdia": 11669, "Ġobbliga": 11670, "Carlo": 11671, "Ġaccum": 11672, "etroit": 11673, "Ġpolem": 11674, "Ġdie": 11675, "ĠJud": 11676, "ĠZi": 11677, "-'''": 11678, "ĠWhit": 11679, "Ġimped": 11680, "ĠLibertÃł": 11681, "ĠGiusti": 11682, "Ġgravemente": 11683, "Ġvite": 11684, "ĠNer": 11685, "Ġbus": 11686, "Ġpotrebbero": 11687, "ĠGallo": 11688, "Ġgiocando": 11689, "Ġattaccare": 11690, "Girone": 11691, "ĠMarcel": 11692, "ĠLawrence": 11693, "ĠCant": 11694, "Ġelen": 11695, "Ġsilenzio": 11696, "dizioni": 11697, "ĠRip": 11698, "ĠAut": 11699, "Ġcrona": 11700, "Ġportati": 11701, "Ġconvocato": 11702, "Ġsorelle": 11703, "phie": 11704, "iler": 11705, "Ġrivale": 11706, "ĠInternet": 11707, "ĠstudiÃ²": 11708, "Ġcompone": 11709, "Euro": 11710, "Ġcognome": 11711, "ĠPrato": 11712, "ĠTerme": 11713, "Ġsostituita": 11714, "ĠDim": 11715, "ĠBenjamin": 11716, "Ġricordato": 11717, "Ġ1889": 11718, "Sm": 11719, "ttone": 11720, "Ġdifendere": 11721, "Ġpersino": 11722, "pani": 11723, "ĠCristiana": 11724, "Ġcorrisponde": 11725, "tallo": 11726, "Ġcollabor": 11727, "Ġritenuto": 11728, "ĠSemifinali": 11729, "Ġcrescente": 11730, "ĠFl": 11731, "enzialmente": 11732, "'''|": 11733, "Ġmagistra": 11734, "Ġpianura": 11735, "ĠDiam": 11736, "bl": 11737, "rosoft": 11738, "Ġritirata": 11739, "ĠAless": 11740, "ctions": 11741, "hy": 11742, "pari": 11743, "%.": 11744, "bru": 11745, "Ġgratu": 11746, "ĠNicolas": 11747, "ĠGreg": 11748, "Ġbizant": 11749, "Ġjuniores": 11750, "Ġmuni": 11751, "Ġdivenendo": 11752, "intervista": 11753, "incoln": 11754, "uz": 11755, "Ġpellegr": 11756, "ĠPale": 11757, "Ġsenatore": 11758, "ĠRaymond": 11759, "ĠXXI": 11760, "ĠPartecipa": 11761, "ĠBroadway": 11762, "alph": 11763, "Ġmoneta": 11764, "Ġ1893": 11765, "ĠRS": 11766, "ĠClaude": 11767, "Ġrispar": 11768, "Ġescl": 11769, "Ġtonnellate": 11770, "ĠSilver": 11771, "Ġomosess": 11772, "GB": 11773, "ĠStrada": 11774, "conto": 11775, "Sport": 11776, "Ã©r": 11777, "ĠForza": 11778, "eronautica": 11779, "ppola": 11780, "Ġbir": 11781, "ĠPerÃ¹": 11782, "uritÃł": 11783, "Ã¡r": 11784, "mossa": 11785, "Ġsceneggiatore": 11786, "Ġschiavi": 11787, "yne": 11788, "Ġmedie": 11789, "volution": 11790, "Ġ102": 11791, "ĠMarvel": 11792, "1927": 11793, "Ġinciso": 11794, "Ġletterario": 11795, "Ġenorme": 11796, "Pia": 11797, "Ġdirigente": 11798, "ĠStaff": 11799, "Ġ1894": 11800, "ĠWinter": 11801, "Ġbesti": 11802, "Ġassenza": 11803, "Ġuccisi": 11804, "ĠBasso": 11805, "Ġsalvezza": 11806, "Ġrisca": 11807, "Ġporzione": 11808, "Ġsoldato": 11809, "Ġarrivato": 11810, "Ġ350": 11811, "Ġsalto": 11812, "Ġcatturato": 11813, "incidente": 11814, "lÃ¬": 11815, "Ġassociato": 11816, "chitÃł": 11817, "Ġgrigio": 11818, "ĠPadre": 11819, "ettivo": 11820, "Ġeccessi": 11821, "ĠAA": 11822, "dava": 11823, "ĠJaneiro": 11824, "Ġonde": 11825, "istoire": 11826, "ĠCastro": 11827, "medi": 11828, "Ġmotiva": 11829, "Ġ160": 11830, "Ġprendendo": 11831, "Ara": 11832, "ellen": 11833, "ricoltura": 11834, "trum": 11835, "Ġfederazione": 11836, "Ġdispositivo": 11837, "Ġ*:": 11838, "Ġimprovvis": 11839, "Ġquattor": 11840, "Ġidentifica": 11841, "Ġaudio": 11842, "Ġradici": 11843, "ĠColombia": 11844, "Mag": 11845, "ĠStuart": 11846, "Ġdiffuse": 11847, "ĠPresid": 11848, "duca": 11849, "uco": 11850, "ĠMartina": 11851, "cen": 11852, "andola": 11853, "ĠBolzano": 11854, "DI": 11855, "Ġrichiesto": 11856, "ĠJunior": 11857, "Ġastero": 11858, "Ġritirato": 11859, "ĠThat": 11860, "Ġtenn": 11861, "Ġdiscussione": 11862, "Ġaccedere": 11863, "esimi": 11864, "ĠNiccolÃ²": 11865, "ederazione": 11866, "Ġstrati": 11867, "LA": 11868, "Ġobiettivo": 11869, "ĠpresentÃ²": 11870, "ĠFour": 11871, "ĠAz": 11872, "ĠMans": 11873, "Ġlire": 11874, "Ġoli": 11875, "1921": 11876, "Ñĥ": 11877, "Ġclassificazione": 11878, "ĠComunale": 11879, "untain": 11880, "Ġvendite": 11881, "Ġaggiunto": 11882, "Ġconseguenze": 11883, "sky": 11884, "Mari": 11885, "pul": 11886, "chus": 11887, "ÅĤa": 11888, "ĠRenault": 11889, "Ġprecipi": 11890, "americana": 11891, "Ġsba": 11892, "fore": 11893, "miliano": 11894, "sato": 11895, "Ġ08": 11896, "Ġcemento": 11897, "Ġvicinanze": 11898, "inetto": 11899, "pire": 11900, "ĠSilvio": 11901, "colti": 11902, "ĠEvento": 11903, "Ġassociazioni": 11904, "Ġmaschili": 11905, "Ġrisalgono": 11906, "Ġpaziente": 11907, "Ġpubblicita": 11908, "Ġstima": 11909, "urigo": 11910, "introduzione": 11911, "Ġvuoto": 11912, "ĠManchester": 11913, "Ġtestimonianze": 11914, "Ġanten": 11915, "ĠGeorges": 11916, "ado": 11917, "Ġaum": 11918, "Ġeleg": 11919, "Ġsuperato": 11920, "Ġcomitato": 11921, "Ġideale": 11922, "Ġinterpretazione": 11923, "ĠtentÃ²": 11924, "Ġbass": 11925, "Andata": 11926, "Ġprofessione": 11927, "Sco": 11928, "Ġtutela": 11929, "ĠTali": 11930, "ĠFAC": 11931, "ĠBudapest": 11932, "ciazione": 11933, "Ġvillaggi": 11934, "Fu": 11935, "Ġinta": 11936, "1928": 11937, "ĠHead": 11938, "ĠDami": 11939, "ĠNFL": 11940, "Ġeffettivamente": 11941, "trÃ©": 11942, "ĠFontana": 11943, "ĠMount": 11944, "Gian": 11945, "Ġlitri": 11946, "Ġ140": 11947, "fficienza": 11948, "ĠBj": 11949, "Raw": 11950, "ank": 11951, "unzio": 11952, "Sch": 11953, "Ġsfo": 11954, "ĠWel": 11955, "ĠGirls": 11956, "Ġ1891": 11957, "ĠCosworth": 11958, "kovÃ¡": 11959, "ĠWWE": 11960, "tonda": 11961, "ĠVie": 11962, "Ġpermettendo": 11963, "ĠAns": 11964, "mack": 11965, "Ġfeat": 11966, "ĠDef": 11967, "Ġvasto": 11968, "Ġrivelato": 11969, "1926": 11970, "Ġregistrazioni": 11971, "ĠDirettore": 11972, "Ani": 11973, "ĠSuzuki": 11974, "ĠNumero": 11975, "ccini": 11976, "Ġcreando": 11977, "Ġsituazioni": 11978, "Ġfrequenti": 11979, "mpe": 11980, "Ġniente": 11981, "ĠRemix": 11982, "Ġsceno": 11983, "ĠVirg": 11984, "Ġritra": 11985, "ĠSed": 11986, "Ġdanese": 11987, "Atl": 11988, "ĠPle": 11989, "Ġepi": 11990, "Ġaffronta": 11991, "Ġcompagnie": 11992, "Ġsettori": 11993, "emisfero": 11994, "Ġsegnato": 11995, "ĠRif": 11996, "Ġtipici": 11997, "Ġ3000": 11998, "Ġproduzioni": 11999, "ĠWalker": 12000, "Ġiniziano": 12001, "Ġdestinata": 12002, "ulle": 12003, "Ġpaci": 12004, "ĠInno": 12005, "Ġospitare": 12006, "ĠGonzaga": 12007, "ĠErnesto": 12008, "lymp": 12009, "Ġplayoff": 12010, "Ġdiploma": 12011, "ĠâĢĺ": 12012, "Ġsingola": 12013, "Ġsovietico": 12014, "1922": 12015, "Ġognuno": 12016, "Men": 12017, "Roy": 12018, "Ġsostanza": 12019, "Ġcupola": 12020, "ĠVolley": 12021, "Pol": 12022, "ĠAus": 12023, "Ġfuso": 12024, "fel": 12025, "RE": 12026, "vane": 12027, "Ġcoalizione": 12028, "1925": 12029, "Ġriscontra": 12030, "Ġassegnata": 12031, "Ġscegliere": 12032, "Ġmontu": 12033, "ĠStanley": 12034, "amici": 12035, "Ġantrop": 12036, "250": 12037, "Ġmetallo": 12038, "ĠFilippine": 12039, "Ġ09": 12040, "Ġchiedere": 12041, "ĠJes": 12042, "bay": 12043, "assia": 12044, "uver": 12045, "Ġconservata": 12046, "ĠNBA": 12047, "Ġboss": 12048, "Ġdorso": 12049, "Ġingegnere": 12050, "witz": 12051, "Ġoccupata": 12052, "ĠMussolini": 12053, "ĠMagno": 12054, "ĠChart": 12055, "lez": 12056, "ĠGray": 12057, "Ġmantenne": 12058, "Ġerrore": 12059, "Ġsentimenti": 12060, "Dio": 12061, "torni": 12062, "mix": 12063, "Ġquaranta": 12064, "ĠMaurice": 12065, "gom": 12066, "zzaro": 12067, "Ġpermanente": 12068, "ĠProprio": 12069, "Ġlimitato": 12070, "Ġretti": 12071, "ciati": 12072, "ĠVall": 12073, "Ġpiemonte": 12074, "Ġspecifica": 12075, "ensive": 12076, "Bra": 12077, "enberg": 12078, "Ġaccusa": 12079, "Geografia": 12080, "pei": 12081, "ggiate": 12082, "Ġteorie": 12083, "ĠTs": 12084, "Ġmonti": 12085, "Ġrepubblica": 12086, "aggiunta": 12087, "ussemb": 12088, "Ġsicuro": 12089, "Ġsalita": 12090, "ĠSpecial": 12091, "Ġutilizzo": 12092, "Ġgreci": 12093, "ĠDance": 12094, "ĠSettecento": 12095, "cean": 12096, "Ġparlamento": 12097, "Ġmettendo": 12098, "Assemblea": 12099, "ĠWim": 12100, "viamente": 12101, "ĠBMW": 12102, "Ġricordano": 12103, "ĠMasters": 12104, "ĠGraham": 12105, "utenzione": 12106, "ĠCP": 12107, "ider": 12108, "Ġsquali": 12109, "vora": 12110, "Ġeconomici": 12111, "Ġnascosto": 12112, "Mac": 12113, "Ġregolari": 12114, "ding": 12115, "viato": 12116, "ggiamenti": 12117, "Vir": 12118, "Lou": 12119, "Ġimperatore": 12120, "inesi": 12121, "Ġdivisioni": 12122, "Ġintanto": 12123, "Ġmill": 12124, "Ġillum": 12125, "ĠWit": 12126, "Ġcollaborato": 12127, "Ġricoperto": 12128, "ĠPietroburgo": 12129, "Ġnazista": 12130, "alizzati": 12131, "Ġsen": 12132, "ĠprobabilitÃł": 12133, "ustralian": 12134, "Ġconsecutive": 12135, "Ġgiunto": 12136, "Ġdefin": 12137, "Ġstabile": 12138, "ĠUdine": 12139, "Ġconsu": 12140, "Ġsubi": 12141, "Ġbran": 12142, "ends": 12143, "Ġaccettare": 12144, "Play": 12145, "ĠGiri": 12146, "assonomia": 12147, "Ġflu": 12148, "ĠBianco": 12149, "Cha": 12150, "Ġlanciato": 12151, "ĠLuisa": 12152, "Ġdubbio": 12153, "ammi": 12154, "Ġnerv": 12155, "liche": 12156, "entore": 12157, "Ġpotenziale": 12158, "identitÃł": 12159, "Ġconvinto": 12160, "icino": 12161, "ĠSilva": 12162, "Mr": 12163, "Ġ1885": 12164, "Ġundici": 12165, "ĠAmbro": 12166, "Ġinclusa": 12167, "ĠPartecip": 12168, "bec": 12169, "Ġpubblicate": 12170, "Ġpositivo": 12171, "Alex": 12172, "Ġ1866": 12173, "Ġtouch": 12174, "Irlanda": 12175, "zantino": 12176, "ĠSebastian": 12177, "Ġsuss": 12178, "Ġcombusti": 12179, "ĠBaby": 12180, "Mich": 12181, "Ġcampion": 12182, "ĠWes": 12183, "ĠGol": 12184, "mbi": 12185, "Ġpeggio": 12186, "ĠBara": 12187, "Ġsant": 12188, "thing": 12189, "Ġferroviario": 12190, "Ġlibretto": 12191, "zzurra": 12192, "ĠSerbia": 12193, "originale": 12194, "Ġlitur": 12195, "ĠVari": 12196, "ĠPisto": 12197, "Ġscorta": 12198, "Ġintrap": 12199, "Ġaffermato": 12200, "Ġpanchina": 12201, "Ġ128": 12202, "dette": 12203, "kespe": 12204, "Ġtelespettatori": 12205, "Ġbro": 12206, "ries": 12207, "ĠStro": 12208, "ĠJersey": 12209, "Vol": 12210, "tismo": 12211, "Pala": 12212, "hed": 12213, "ĠUnion": 12214, "agente": 12215, "Ġalternativa": 12216, "Ġesordito": 12217, "ĠMicrosoft": 12218, "kova": 12219, "Ġtemporale": 12220, "Ġsuddivisione": 12221, "ĠPescara": 12222, "cciata": 12223, "ĠCeca": 12224, "ĠAven": 12225, ".:": 12226, "ĠÅ½": 12227, "ĠPopolo": 12228, "Ġangeli": 12229, "ĠfirmÃ²": 12230, "Ġdifferente": 12231, "Ġterritoriale": 12232, "Ġnavigazione": 12233, "pers": 12234, "binieri": 12235, "Ġclassifiche": 12236, "Ġstaffetta": 12237, "ĠVerde": 12238, "Ġdebuttato": 12239, "monica": 12240, "ĠHouston": 12241, "ĠWeb": 12242, "Ġmagnitudine": 12243, "wal": 12244, "ĠColombo": 12245, "kos": 12246, "Data": 12247, "Ġasc": 12248, "Ġaltra": 12249, "ĠGuer": 12250, ".;": 12251, "Ġconsumo": 12252, "Ġdipendenti": 12253, "Ungheria": 12254, "ĠCav": 12255, "ercizio": 12256, "Dizionario": 12257, "Ġisraeli": 12258, "Ġsezioni": 12259, "cevano": 12260, "Ġvolontari": 12261, "contri": 12262, "avventura": 12263, "ĠJohan": 12264, "espressione": 12265, "ĠFurono": 12266, "Ġlong": 12267, "ĠBuff": 12268, "Ġroccia": 12269, "ĠGriffith": 12270, "duci": 12271, "estino": 12272, "Vit": 12273, "ĠClassic": 12274, "ĠEssi": 12275, "Ġgiudizia": 12276, "ĠCirc": 12277, "ĠUnite": 12278, "Ġdocente": 12279, "Ġpreoccupa": 12280, "Ġcentrali": 12281, "ĠCristiano": 12282, "Ġsciogli": 12283, "...''": 12284, "lite": 12285, "ĠTeod": 12286, "Ġidea": 12287, "Ġpermettono": 12288, "Ġmarti": 12289, "Ġtrasferirsi": 12290, "Ġquestioni": 12291, "1910": 12292, "Ġpis": 12293, "Ġmoderne": 12294, "anea": 12295, "ĠTommy": 12296, "Ġdotati": 12297, "xon": 12298, "Ġrecentemente": 12299, "Ġeventuali": 12300, "Ġreliqu": 12301, "Ġ05": 12302, "gus": 12303, "Ġesibi": 12304, "ĠLike": 12305, "Ġliceo": 12306, "Ġgusto": 12307, "Ġincludono": 12308, "Ġfondatori": 12309, "!'',": 12310, "ĠMonica": 12311, "reak": 12312, "Napoli": 12313, "ĠMurray": 12314, "Ġespl": 12315, "nella": 12316, "ĠGru": 12317, "Grand": 12318, "Ġistituita": 12319, "Ġacustica": 12320, "ĠWork": 12321, "Ġtranqu": 12322, "ĠVladimir": 12323, "ĠPace": 12324, "Ġampiamente": 12325, "bata": 12326, "ĠAdven": 12327, "Ġricom": 12328, "Ġposteriori": 12329, "alleanza": 12330, "Ð²": 12331, "Ġfreddo": 12332, "rary": 12333, "ĠFen": 12334, "ĠSat": 12335, "Ġriva": 12336, "ĠCop": 12337, "Ġ__": 12338, "ĠDrag": 12339, "Ġautonoma": 12340, "ĠDor": 12341, "Ġpostu": 12342, "dian": 12343, "Ġarmata": 12344, "Ġtradotto": 12345, "CN": 12346, "Ã°": 12347, "Ġaper": 12348, "Ġsignori": 12349, "ride": 12350, "roe": 12351, "Ġcomunista": 12352, "Totale": 12353, "ĠMatthew": 12354, "Ġnorme": 12355, "Ġ06": 12356, "rossa": 12357, "dag": 12358, "ĠspecialitÃł": 12359, "Ġscavi": 12360, "Ġanz": 12361, "Ġnegozio": 12362, "Ã¨ne": 12363, "TO": 12364, "ĠPetra": 12365, "Ġperfe": 12366, "ĠKur": 12367, "eople": 12368, "Ġframmenti": 12369, "rena": 12370, "ĠDanny": 12371, "Ġomonima": 12372, "Ġferiti": 12373, "cuit": 12374, "enziati": 12375, "tide": 12376, "Ġsus": 12377, "Ġcolpa": 12378, "ĠWall": 12379, "ĠMaga": 12380, "Ġgenov": 12381, "Ġcollezion": 12382, "Ġuniversale": 12383, "ĠRand": 12384, "fisso": 12385, "ĠJun": 12386, "ĠJazz": 12387, "ĠMerc": 12388, "retta": 12389, "iati": 12390, "Ġinsigni": 12391, "Ġpartendo": 12392, "ĠAngeli": 12393, "ĠJacob": 12394, "Ġpaio": 12395, "ĠRenÃ©": 12396, "anag": 12397, "ĠcambiÃ²": 12398, "ĠdisputÃ²": 12399, "zzoni": 12400, "Alta": 12401, "ingendo": 12402, "ĠsegnÃ²": 12403, "1923": 12404, "Ġfranco": 12405, "Ġtenore": 12406, "Ġmilita": 12407, "onese": 12408, "ĠIndiana": 12409, "abitato": 12410, "Ġdebutta": 12411, "Ïĥ": 12412, "Ġ1892": 12413, "Ġpromuovere": 12414, "estr": 12415, "Lond": 12416, "vieto": 12417, "Ġvor": 12418, "ĠMarÃŃa": 12419, "Ġmonumentale": 12420, "Ġgarantire": 12421, "ladelphia": 12422, "Ġdid": 12423, "Ġpagare": 12424, "ĠPac": 12425, "Ġspiaggia": 12426, "ĠDiana": 12427, "raq": 12428, "cock": 12429, "ĠVarese": 12430, "cea": 12431, "ĠKun": 12432, "Ġtessuto": 12433, "ĠTempio": 12434, "Ġarchitetto": 12435, "Michael": 12436, "Ġpilas": 12437, "ĠBatteria": 12438, "Ġricord": 12439, "ĠLloyd": 12440, "ondazione": 12441, "ĠBillboard": 12442, "iona": 12443, "ĠRegio": 12444, "alth": 12445, "eroe": 12446, "Ġrimasti": 12447, "zuela": 12448, "Ġmodificato": 12449, "ĠArchi": 12450, "Ġarcheologico": 12451, "Ġestra": 12452, "ĠGarc": 12453, "ĠLecce": 12454, "ecc": 12455, "annata": 12456, "Ġstatus": 12457, "uddh": 12458, "Ġriconoscimenti": 12459, "Ġestate": 12460, "Ġscopri": 12461, "Ġaggiudic": 12462, "quet": 12463, "Ġdisastro": 12464, "Ġversante": 12465, "ĠGamb": 12466, "Monte": 12467, "Ġtrent": 12468, "Ġfedele": 12469, "ĠRap": 12470, "rash": 12471, "Ġinfortunio": 12472, "Lit": 12473, "ĠMorte": 12474, "Ġritirarsi": 12475, "Ġlarghezza": 12476, "ĠEsistono": 12477, "Ġospitato": 12478, "inghi": 12479, "ĠinviÃ²": 12480, "ĠRivoluzione": 12481, "Ġistru": 12482, "issimi": 12483, "VII": 12484, "Ġmaschera": 12485, "Ġaffa": 12486, "ĠLatina": 12487, "ĠIN": 12488, "Ġlogo": 12489, "ĠChristi": 12490, "ombi": 12491, "ĠAtlanta": 12492, "Ġmanutenzione": 12493, "last": 12494, "ĠPere": 12495, "ĠFACup": 12496, "alora": 12497, "Ġaccusato": 12498, "Ġmostrato": 12499, "ĠKate": 12500, "Ġ1884": 12501, "Ġcontinente": 12502, "Ġcompiere": 12503, "ĠStal": 12504, "Ġministri": 12505, "Ġverticale": 12506, "iser": 12507, "ĠInizia": 12508, "anesi": 12509, "ĠGerman": 12510, "ompson": 12511, "odes": 12512, "Ġarrivano": 12513, "tteri": 12514, "Ġdeterminare": 12515, "ĠWag": 12516, "Ġ103": 12517, "ĠCampbell": 12518, "wich": 12519, "unga": 12520, "Ġesordio": 12521, "kawa": 12522, "ĠBuck": 12523, "attle": 12524, "Ġmonumenti": 12525, "km": 12526, "dei": 12527, "cul": 12528, "Ġfedel": 12529, "Pic": 12530, "landesi": 12531, "gob": 12532, "ĠGÃ¶": 12533, "ĠBaker": 12534, "ĠIgna": 12535, "mentali": 12536, "Ã«l": 12537, "duzioni": 12538, "Ġfeud": 12539, "Ġrival": 12540, "Ġfrutti": 12541, "ĠFase": 12542, "ĠRig": 12543, "ĠOh": 12544, "Mat": 12545, "Ġprecisione": 12546, "Ġguadagn": 12547, "Ġvalutazione": 12548, "oniere": 12549, "estremitÃł": 12550, "iodo": 12551, "Ġrapper": 12552, "Ġcurva": 12553, "rudenza": 12554, "fficienti": 12555, "ĠDei": 12556, "ĠRem": 12557, "Ġalbero": 12558, "ĠZurigo": 12559, "Campione": 12560, "acquisto": 12561, "Ġristampa": 12562, "Ġapri": 12563, "Ġsegnando": 12564, "Ġscarsa": 12565, "Ġsovietica": 12566, "ĠLiguria": 12567, "uru": 12568, "losione": 12569, "ĠNA": 12570, "Ġorienta": 12571, "ĠSia": 12572, "Ġcoscienza": 12573, "ĠMaddalena": 12574, "iscrizione": 12575, "Ġcortile": 12576, "Ġ1882": 12577, "ennifer": 12578, "ĠDiocesi": 12579, "Ġincaricato": 12580, "venza": 12581, "icidi": 12582, "ĠMargaret": 12583, "Ġanima": 12584, "Ġruota": 12585, "ĠKr": 12586, "gol": 12587, "Ġeliminare": 12588, "ĠAG": 12589, "Î»": 12590, "ĠMind": 12591, "Ġsicuramente": 12592, "ĠAlli": 12593, "Gold": 12594, "Ġtemperature": 12595, "Ġ1888": 12596, "Mel": 12597, "Ġmodifica": 12598, "ĠDri": 12599, "Ġ106": 12600, "Ġcapisce": 12601, "Mario": 12602, "ides": 12603, "onali": 12604, "dicesima": 12605, "enia": 12606, "Ġraramente": 12607, "ĠArms": 12608, "autoritÃł": 12609, "egato": 12610, "piti": 12611, "Ġbattaglie": 12612, "Ġproprietari": 12613, "ĠCounty": 12614, "ĠAncora": 12615, "assenza": 12616, "ĠTurno": 12617, "ĠCG": 12618, "vetta": 12619, "Ġconcluso": 12620, "ĠAndreas": 12621, "ĠHell": 12622, "Ġborgh": 12623, "bad": 12624, "Ġimpedire": 12625, "Ġpietre": 12626, "Ġbrillante": 12627, "ggiante": 12628, "associazione": 12629, "Ġimpre": 12630, "arli": 12631, "ciclopedia": 12632, "ĠVice": 12633, "RS": 12634, "ĠBoe": 12635, "UnitÃł": 12636, "Ġprofondamente": 12637, "chessa": 12638, "Ġpercentuale": 12639, "ĠpotrÃł": 12640, "pertorio": 12641, "ĠTak": 12642, "rett": 12643, "ĠCia": 12644, "minata": 12645, "Ġdevas": 12646, "ĠValley": 12647, "Tur": 12648, "formi": 12649, "Ġseparazione": 12650, "Ġriparti": 12651, "ĠAgostino": 12652, "palitÃł": 12653, "Ġ104": 12654, "Ġelico": 12655, "chiesa": 12656, "ĠFonti": 12657, "Ġcostretta": 12658, "Venezia": 12659, "cari": 12660, "tessa": 12661, "Ġpiazzamento": 12662, "vito": 12663, "Pierre": 12664, "ombra": 12665, "ĠBulgaria": 12666, "ĠGand": 12667, "ĠTutto": 12668, "Ġintrodotta": 12669, "tarie": 12670, "Dani": 12671, "stone": 12672, "Ġapprofit": 12673, "1924": 12674, "Ġvelivoli": 12675, "ĠKath": 12676, "ĠCollegio": 12677, "ĠKan": 12678, "ĠTes": 12679, "Ġpaesaggio": 12680, "kk": 12681, "ĠÊ¿": 12682, "Ġanniversario": 12683, "ĠWright": 12684, "Ġ07": 12685, "ĠSupp": 12686, "Ġintero": 12687, "TI": 12688, "Ġportiere": 12689,
[...]
